<pad>	0
<unk>	0
<s>	0
</s>	0
..	-0
영화	-1
▁영화	-2
▁이	-3
▁아	-4
▁보	-5
...	-6
▁그	-7
▁재	-8
▁없	-9
▁다	-10
▁하	-11
▁나	-12
▁있	-13
▁정	-14
▁좋	-15
▁사	-16
니다	-17
▁내	-18
▁만	-19
▁너	-20
▁연	-21
▁지	-22
▁감	-23
▁한	-24
▁너무	-25
는데	-26
▁진	-27
▁어	-28
▁가	-29
▁시	-30
▁거	-31
▁재미	-32
▁안	-33
▁수	-34
▁1	-35
▁최	-36
▁봤	-37
▁스	-38
!!	-39
으로	-40
지만	-41
▁정말	-42
▁전	-43
▁대	-44
▁것	-45
▁같	-46
네요	-47
▁기	-48
▁마	-49
▁재밌	-50
하고	-51
▁평	-52
▁연기	-53
▁여	-54
....	-55
▁진짜	-56
에서	-57
▁주	-58
▁않	-59
▁모	-60
▁생	-61
▁무	-62
▁말	-63
▁때	-64
▁잘	-65
▁드	-66
▁중	-67
▁더	-68
▁배	-69
▁최고	-70
▁보고	-71
▁개	-72
▁인	-73
▁오	-74
▁제	-75
▁자	-76
어요	-77
▁평점	-78
▁이런	-79
▁생각	-80
▁본	-81
▁되	-82
▁못	-83
▁게	-84
▁남	-85
하는	-86
▁소	-87
▁왜	-88
토리	-89
▁해	-90
습니다	-91
▁미	-92
▁알	-93
라마	-94
▁장	-95
▁스토리	-96
▁듯	-97
▁유	-98
▁일	-99
하다	-100
▁느	-101
▁드라마	-102
▁볼	-103
▁싶	-104
▁사람	-105
▁봐	-106
들이	-107
▁쓰	-108
▁건	-109
▁고	-110
▁감동	-111
▁작	-112
▁배우	-113
▁부	-114
이다	-115
▁비	-116
▁많	-117
▁우	-118
까지	-119
▁별	-120
▁2	-121
▁아니	-122
▁좀	-123
▁지루	-124
▁만들	-125
▁뭐	-126
▁조	-127
하게	-128
▁그냥	-129
▁내용	-130
▁공	-131
▁재미있	-132
▁감독	-133
이라	-134
▁없는	-135
었다	-136
▁있는	-137
▁역	-138
▁10	-139
▁애	-140
▁끝	-141
▁저	-142
보다	-143
▁완	-144
▁영화를	-145
▁명	-146
레기	-147
면서	-148
▁상	-149
▁없다	-150
▁쓰레기	-151
▁웃	-152
▁좋아	-153
▁보는	-154
▁같은	-155
▁하나	-156
▁영	-157
▁영화는	-158
▁줄	-159
▁반	-160
▁사랑	-161
▁참	-162
▁영화가	-163
▁걸	-164
▁할	-165
▁시간	-166
▁예	-167
▁바	-168
▁신	-169
▁결	-170
적인	-171
▁좋은	-172
▁봤는데	-173
렇게	-174
▁매	-175
▁눈	-176
▁하는	-177
▁실	-178
▁다시	-179
▁처	-180
리고	-181
▁했	-182
▁재미없	-183
▁노	-184
다는	-185
▁요	-186
▁살	-187
▁불	-188
▁분	-189
▁작품	-190
해서	-191
▁넘	-192
▁나오	-193
▁3	-194
;;	-195
▁정도	-196
▁추	-197
▁난	-198
액션	-199
지막	-200
▁원	-201
??	-202
▁마지막	-203
▁후	-204
▁죽	-205
▁도	-206
▁코	-207
으면	-208
라고	-209
▁액션	-210
입니다	-211
▁좋았	-212
▁완전	-213
▁최고의	-214
▁따	-215
▁성	-216
들의	-217
▁구	-218
▁번	-219
▁의	-220
▁이건	-221
▁아깝	-222
▁세	-223
▁내가	-224
지는	-225
▁이야	-226
▁동	-227
▁들	-228
▁처음	-229
▁장면	-230
▁위	-231
▁김	-232
!!!	-233
인공	-234
▁이렇게	-235
▁모르	-236
▁또	-237
▁몰	-238
▁두	-239
▁심	-240
▁현	-241
▁관	-242
▁기대	-243
▁없고	-244
▁당	-245
▁지금	-246
▁한국	-247
▁느낌	-248
▁강	-249
▁최악	-250
▁괜	-251
▁극	-252
▁음	-253
▁멋	-254
어서	-255
다고	-256
▁허	-257
▁돈	-258
하지	-259
▁이야기	-260
▁화	-261
세요	-262
▁봐도	-263
▁짜	-264
적이	-265
▁초	-266
▁별로	-267
인데	-268
▁이게	-269
▁연출	-270
▁잼	-271
▁속	-272
▁아까	-273
▁캐	-274
▁아이	-275
▁"	-276
들은	-277
▁로	-278
▁데	-279
▁만든	-280
▁역시	-281
▁명작	-282
에게	-283
라는	-284
▁그래	-285
▁발	-286
▁보면	-287
▁많이	-288
합니다	-289
▁그리고	-290
▁박	-291
적으로	-292
▁재밌게	-293
▁그런	-294
▁O	-295
부터	-296
▁뭔	-297
겠다	-298
▁우리	-299
▁억	-300
대로	-301
▁주인공	-302
▁맞	-303
▁평점이	-304
▁차	-305
다가	-306
▁여자	-307
▁점	-308
▁하고	-309
▁잔	-310
▁막	-311
▁편	-312
▁괜찮	-313
▁있다	-314
▁리	-315
▁.	-316
▁아닌	-317
▁필	-318
▁엄	-319
▁된	-320
▁포	-321
▁때문	-322
▁뻔	-323
▁설	-324
이나	-325
▁되는	-326
▁빠	-327
▁에	-328
▁와	-329
▁선	-330
▁울	-331
▁이상	-332
▁서	-333
▁표	-334
▁귀	-335
▁특	-336
▁아름	-337
▁보여	-338
▁아깝다	-339
했다	-340
▁적	-341
▁마음	-342
▁방	-343
▁슬	-344
▁간	-345
▁단	-346
▁꼭	-347
▁같다	-348
▁먹	-349
▁없이	-350
▁말이	-351
▁내내	-352
,,	-353
▁유치	-354
▁받	-355
▁이해	-356
▁공포	-357
▁OO	-358
▁짱	-359
▁존	-360
▁누	-361
주는	-362
▁보기	-363
리는	-364
▁졸	-365
▁무슨	-366
▁다른	-367
▁남자	-368
▁네	-369
▁힘	-370
▁때문에	-371
지도	-372
▁소재	-373
▁망	-374
▁인생	-375
▁전개	-376
▁결말	-377
▁낮	-378
▁일본	-379
▁아무	-380
▁않는	-381
▁준	-382
▁현실	-383
▁수준	-384
▁긴	-385
▁얼	-386
▁애니	-387
▁높	-388
!!!!	-389
▁과	-390
았다	-391
▁가장	-392
▁필요	-393
▁흥	-394
▁..	-395
을까	-396
▁버	-397
▁순	-398
▁반전	-399
▁눈물	-400
▁몰입	-401
▁기억	-402
▁머	-403
▁;;	-404
었는데	-405
▁매력	-406
▁보다	-407
▁절	-408
▁새	-409
▁계	-410
▁대한	-411
▁스릴	-412
▁짜증	-413
아서	-414
▁돌	-415
▁솔	-416
▁문	-417
▁만들어	-418
▁집	-419
였다	-420
▁가슴	-421
▁올	-422
▁싶다	-423
▁피	-424
▁외	-425
▁재밋	-426
▁만드	-427
▁등	-428
▁근	-429
▁봤다	-430
▁영상	-431
▁원작	-432
▁20	-433
▁4	-434
▁충	-435
▁하지만	-436
▁파	-437
하기	-438
▁많은	-439
니까	-440
▁음악	-441
▁타	-442
▁프	-443
▁'	-444
한다	-445
▁인간	-446
▁치	-447
▁싶은	-448
▁찍	-449
▁함	-450
구나	-451
▁영화다	-452
미디	-453
▁몇	-454
▁나온	-455
▁않고	-456
스럽	-457
▁솔직	-458
▁달	-459
▁물	-460
▁언	-461
▁찾	-462
▁극장	-463
▁9	-464
▁나오는	-465
▁라	-466
▁경	-467
▁모든	-468
▁있었	-469
▁야	-470
▁보지	-471
▁영화에	-472
▁떨	-473
▁영화의	-474
▁굿	-475
▁갈	-476
▁크	-477
▁아직	-478
릭터	-479
인가	-480
▁추천	-481
▁억지	-482
▁자체	-483
▁욕	-484
▁배우들	-485
▁것도	-486
▁끝까지	-487
▁!	-488
▁아름다	-489
▁열	-490
▁행	-491
는지	-492
인지	-493
▁8	-494
스러	-495
▁좋다	-496
▁5	-497
▁친	-498
▁실망	-499
더라	-500
▁메	-501
리즈	-502
▁호	-503
▁코미디	-504
밖에	-505
▁7	-506
▁솔직히	-507
▁출	-508
처럼	-509
지고	-510
▁...	-511
▁임	-512
▁모두	-513
▁캐릭터	-514
▁답	-515
▁질	-516
가는	-517
▁없음	-518
이고	-519
려고	-520
▁전혀	-521
▁않은	-522
▁여운	-523
▁아니라	-524
하면	-525
▁뭔가	-526
▁아주	-527
▁약	-528
▁놀	-529
▁뿐	-530
에는	-531
▁딱	-532
▁나는	-533
▁날	-534
▁연기력	-535
▁중간	-536
나는	-537
▁가족	-538
▁어떻	-539
▁떨어	-540
▁공감	-541
▁레	-542
▁믿	-543
▁건지	-544
▁표현	-545
▁개봉	-546
▁모습	-547
▁깊	-548
▁봐야	-549
▁독	-550
스터	-551
▁남는	-552
▁손	-553
▁엄청	-554
▁,	-555
▁긴장	-556
▁계속	-557
▁0	-558
▁될	-559
기도	-560
▁시리즈	-561
▁어떻게	-562
▁교	-563
▁악	-564
▁주고	-565
▁것이	-566
▁최악의	-567
▁볼만	-568
하지만	-569
▁그래도	-570
만에	-571
▁중에	-572
▁카	-573
.....	-574
▁싸	-575
▁내용이	-576
▁재미있게	-577
이는	-578
▁앞	-579
▁대단	-580
▁같아	-581
▁그렇	-582
▁부분	-583
들을	-584
▁엉	-585
........	-586
▁연기가	-587
었음	-588
▁근데	-589
▁알바	-590
▁대사	-591
▁케	-592
▁즐	-593
▁베	-594
▁흥미	-595
▁아니다	-596
었던	-597
▁어디	-598
기는	-599
▁이걸	-600
▁아쉽	-601
▁아니고	-602
라도	-603
이라는	-604
▁보면서	-605
▁만드는	-606
▁제목	-607
▁봤습니다	-608
리가	-609
▁형	-610
▁국	-611
했던	-612
▁디	-613
▁싫	-614
▁있고	-615
▁나왔	-616
▁삶	-617
▁나와	-618
▁담	-619
스트	-620
▁그러	-621
▁아쉬	-622
에도	-623
▁조금	-624
수록	-625
▁스릴러	-626
▁잊	-627
▁연기도	-628
이랑	-629
▁이거	-630
▁목	-631
▁재미없다	-632
▁떠	-633
▁잡	-634
▁느껴	-635
▁잠	-636
▁뒤	-637
▁막장	-638
▁진심	-639
메이	-640
▁들어	-641
▁영화로	-642
▁용	-643
▁홍	-644
▁노래	-645
▁부족	-646
▁개인	-647
▁천	-648
▁정신	-649
점도	-650
▁길	-651
▁대박	-652
▁삼	-653
▁제작	-654
엔딩	-655
▁긴장감	-656
▁글	-657
▁내용도	-658
▁빼	-659
▁입	-660
▁제대로	-661
어야	-662
▁보게	-663
▁시작	-664
▁작가	-665
▁감독이	-666
▁여주	-667
기에	-668
▁요즘	-669
나라	-670
점이	-671
▁이것	-672
▁판	-673
보는	-674
▁주는	-675
▁하지	-676
▁제일	-677
▁수가	-678
▁영화라고	-679
▁알았	-680
▁아름다운	-681
▁통	-682
▁이제	-683
▁시간이	-684
성이	-685
▁티	-686
▁잔잔	-687
▁오랜	-688
▁재미도	-689
▁;	-690
라리	-691
▁딴	-692
▁좋고	-693
▁보니	-694
▁?	-695
▁빨	-696
리오	-697
▁당시	-698
▁훌	-699
▁재밌어요	-700
▁점수	-701
었어요	-702
▁모르겠	-703
▁복	-704
▁스토리가	-705
▁기분	-706
▁만화	-707
▁아까운	-708
▁한다	-709
이라고	-710
▁이유	-711
으나	-712
▁영화입니다	-713
기가	-714
▁세상	-715
▁터	-716
▁친구	-717
던데	-718
▁나름	-719
▁놓	-720
▁니	-721
▁사람들	-722
▁봤어요	-723
▁각	-724
▁무서	-725
▁미국	-726
리스	-727
▁출연	-728
▁사람이	-729
▁웃기	-730
▁식	-731
다니	-732
▁갑	-733
▁꺼	-734
▁변	-735
▁따뜻	-736
▁절대	-737
▁훌륭	-738
▁킬	-739
▁살아	-740
한테	-741
▁스타	-742
이지	-743
▁감정	-744
▁양	-745
▁!!	-746
▁너무나	-747
▁정도로	-748
▁봣	-749
치는	-750
▁6	-751
하면서	-752
▁뻔한	-753
▁어이	-754
▁특히	-755
▁느끼	-756
▁영화였	-757
▁감독의	-758
▁보세요	-759
▁아직도	-760
▁C	-761
▁로맨	-762
▁여운이	-763
▁팬	-764
나서	-765
▁시대	-766
년대	-767
▁희	-768
▁만들었	-769
▁산	-770
시간	-771
▁봄	-772
▁황	-773
▁좋아하는	-774
▁답답	-775
▁못한	-776
▁장난	-777
▁OOO	-778
▁없어	-779
되는	-780
▁스토리도	-781
▁종	-782
대체	-783
들도	-784
▁것을	-785
▁어린	-786
▁얼마	-787
▁토	-788
이란	-789
▁어설	-790
▁깨	-791
▁생각이	-792
▁첨	-793
▁무섭	-794
▁차라리	-795
마다	-796
▁수작	-797
▁맛	-798
▁봤던	-799
▁좋았다	-800
▁설정	-801
▁얘	-802
▁괜찮은	-803
▁감동적이	-804
▁거지	-805
▁행복	-806
▁마지막에	-807
▁언제	-808
하네요	-809
▁영화도	-810
▁확	-811
▁그저	-812
▁공포영화	-813
▁뭘	-814
스팅	-815
▁무엇	-816
▁웃음	-817
해요	-818
▁배경	-819
▁나도	-820
▁놈	-821
▁걍	-822
▁자신	-823
▁끌	-824
▁시청	-825
▁초반	-826
▁학	-827
▁말고	-828
▁씨	-829
거리	-830
기를	-831
했는데	-832
▁브	-833
▁재밌는	-834
▁같이	-835
▁된다	-836
▁문제	-837
▁한국영화	-838
▁군	-839
▁신선	-840
▁관객	-841
▁다큐	-842
▁둘	-843
▁전쟁	-844
▁추억	-845
▁B	-846
▁훨	-847
나리오	-848
▁채	-849
▁귀여	-850
▁듯한	-851
▁청	-852
▁총	-853
더니	-854
점은	-855
▁해서	-856
▁태	-857
▁흐	-858
스러운	-859
으로도	-860
▁재밌다	-861
▁배우들의	-862
어도	-863
▁멋진	-864
▁환	-865
▁t	-866
▁궁	-867
배우	-868
▁프로	-869
▁좋아요	-870
▁분위	-871
▁힘들	-872
▁시절	-873
▁민	-874
진다	-875
▁위해	-876
▁오랜만에	-877
로운	-878
▁사실	-879
▁오늘	-880
▁옛	-881
▁혼	-882
▁따라	-883
▁슬프	-884
▁않았	-885
▁테	-886
▁지루함	-887
▁소름	-888
▁끝나	-889
▁재미가	-890
리지	-891
▁가는	-892
▁어떤	-893
▁클	-894
▁있을	-895
▁낭	-896
나요	-897
▁어색	-898
▁시나리오	-899
▁도대체	-900
▁범	-901
▁함께	-902
▁지루하고	-903
▁낚	-904
▁그만	-905
메이션	-906
▁큰	-907
▁허접	-908
▁인상	-909
▁지루한	-910
▁우리나라	-911
▁b	-912
▁마라	-913
이네요	-914
▁괴	-915
???	-916
▁완벽	-917
▁결국	-918
▁나올	-919
▁유쾌	-920
▁찾아	-921
▁지나	-922
타임	-923
▁엄마	-924
▁엔딩	-925
▁역사	-926
▁연기는	-927
▁커	-928
▁나서	-929
▁패	-930
▁킬링	-931
▁영화관	-932
▁뛰	-933
▁해도	-934
▁안타	-935
▁개인적으로	-936
▁러	-937
▁책	-938
▁봐서	-939
▁돋	-940
▁돌아	-941
▁맘	-942
▁의미	-943
▁백	-944
▁헐	-945
▁병	-946
▁얼마나	-947
다면	-948
▁알고	-949
▁코믹	-950
▁암	-951
▁캐스팅	-952
하네	-953
▁했는데	-954
▁애니메이션	-955
성도	-956
▁전에	-957
▁꿈	-958
▁왠	-959
지가	-960
▁졸작	-961
▁후회	-962
▁블	-963
디오	-964
▁포스터	-965
▁하나도	-966
▁폭	-967
▁더빙	-968
▁예술	-969
▁아무리	-970
▁몸	-971
인이	-972
▁진정	-973
▁없었다	-974
▁낫	-975
▁오래	-976
▁어릴	-977
군요	-978
이가	-979
▁광	-980
▁텐	-981
▁영화인	-982
점을	-983
▁같은데	-984
▁흘	-985
▁그렇게	-986
었습니다	-987
▁지루하다	-988
▁빠져	-989
▁취	-990
▁밖에	-991
▁영화라	-992
▁키	-993
보고	-994
▁o	-995
▁만한	-996
▁아름답	-997
▁투	-998
▁개연	-999
▁있게	-1000
▁충격	-1001
▁느낌이	-1002
▁멋있	-1003
▁만에	-1004
▁어울	-1005
▁주제	-1006
▁몰입도	-1007
▁재밌음	-1008
럽게	-1009
▁운	-1010
▁기억에	-1011
▁탄	-1012
▁휴	-1013
려는	-1014
▁만큼	-1015
▁이름	-1016
▁먼	-1017
▁읽	-1018
▁있는데	-1019
이지만	-1020
▁풀	-1021
▁건가	-1022
▁얼굴	-1023
시길	-1024
▁영화네요	-1025
▁위한	-1026
▁텐데	-1027
▁매우	-1028
▁회	-1029
▁궁금	-1030
▁왕	-1031
없는	-1032
▁말도	-1033
▁온	-1034
▁잔인	-1035
▁은	-1036
▁어느	-1037
▁이후	-1038
▁굳	-1039
점대	-1040
▁여러	-1041
▁준다	-1042
해야	-1043
▁불쌍	-1044
▁갈수록	-1045
나마	-1046
▁진부	-1047
▁T	-1048
▁c	-1049
▁색	-1050
▁낭비	-1051
▁있음	-1052
▁주연	-1053
▁꽤	-1054
▁하다	-1055
▁겁	-1056
▁사람들이	-1057
▁딸	-1058
▁소리	-1059
▁모르겠다	-1060
▁숨	-1061
▁씬	-1062
▁장르	-1063
▁집중	-1064
▁충분	-1065
▁순수	-1066
▁있어	-1067
▁히	-1068
▁옛날	-1069
▁않는다	-1070
▁한번	-1071
▁극장에서	-1072
st	-1073
▁없네	-1074
▁다운	-1075
▁거야	-1076
▁보았	-1077
▁대체	-1078
▁마음이	-1079
▁왔	-1080
▁노잼	-1081
▁상황	-1082
정말	-1083
▁동안	-1084
oo	-1085
▁써	-1086
이버	-1087
▁중국	-1088
▁벌	-1089
당히	-1090
▁철	-1091
▁같아요	-1092
▁루	-1093
▁되고	-1094
▁뛰어	-1095
보단	-1096
지지	-1097
▁아님	-1098
▁내용은	-1099
▁감사	-1100
▁것은	-1101
▁봐라	-1102
렸다	-1103
하는데	-1104
▁CG	-1105
▁비슷	-1106
......	-1107
레이	-1108
▁눈물이	-1109
하며	-1110
▁30	-1111
▁하면	-1112
▁꼬	-1113
▁시즌	-1114
▁연기를	-1115
▁영화인데	-1116
적이고	-1117
▁여기	-1118
▁예전	-1119
▁똥	-1120
▁후반	-1121
▁재미없음	-1122
▁애들	-1123
웠다	-1124
▁상상	-1125
▁킬링타임	-1126
난다	-1127
▁제발	-1128
▁세계	-1129
▁다음	-1130
▁봤음	-1131
▁영화임	-1132
▁누가	-1133
▁약간	-1134
▁엉성	-1135
▁훨씬	-1136
▁100	-1137
▁그대로	-1138
▁똑	-1139
기만	-1140
▁사회	-1141
▁인물	-1142
▁마세요	-1143
▁감동이	-1144
▁그래서	-1145
▁장면이	-1146
▁죄	-1147
▁트	-1148
▁갖	-1149
자기	-1150
▁감동도	-1151
▁겨	-1152
▁첫	-1153
▁않다	-1154
소리	-1155
▁걸작	-1156
▁없어서	-1157
들과	-1158
주의	-1159
▁그나마	-1160
▁잇	-1161
▁흔	-1162
▁실화	-1163
▁로맨스	-1164
▁돼	-1165
했음	-1166
▁있어서	-1167
▁있었다	-1168
나게	-1169
▁전체	-1170
▁보여주	-1171
▁재밌고	-1172
▁좋겠	-1173
꿀잼	-1174
들에게	-1175
▁갔	-1176
구요	-1177
함을	-1178
▁대해	-1179
▁늘	-1180
렸을	-1181
이네	-1182
▁머리	-1183
▁미친	-1184
▁19	-1185
▁소설	-1186
▁가슴이	-1187
▁수도	-1188
▁있을까	-1189
▁멜	-1190
▁풍	-1191
▁금	-1192
▁나와서	-1193
▁자체가	-1194
시는	-1195
잖아	-1196
▁비교	-1197
이라도	-1198
성을	-1199
▁같음	-1200
▁귀엽	-1201
▁그것	-1202
▁평가	-1203
▁봤지만	-1204
▁사람은	-1205
▁배우들이	-1206
워서	-1207
▁비디오	-1208
▁보여주는	-1209
▁송	-1210
▁직	-1211
야지	-1212
▁생각을	-1213
▁됨	-1214
▁오글	-1215
▁다들	-1216
▁쓸	-1217
▁방송	-1218
▁이래	-1219
▁것이다	-1220
▁여주인공	-1221
▁S	-1222
▁g	-1223
치고	-1224
▁면	-1225
르는	-1226
해지는	-1227
▁200	-1228
▁높은	-1229
구만	-1230
▁그리	-1231
▁좋은데	-1232
▁....	-1233
▁빵	-1234
▁섹	-1235
▁결말이	-1236
▁이해가	-1237
▁초딩	-1238
▁티비	-1239
으니	-1240
▁순간	-1241
▁영화였다	-1242
에요	-1243
▁있지만	-1244
▁굉	-1245
▁든	-1246
▁으	-1247
▁알게	-1248
력이	-1249
▁때마다	-1250
▁s	-1251
▁묘	-1252
▁승	-1253
▁했다	-1254
▁됐	-1255
▁짓	-1256
▁굉장	-1257
▁구성	-1258
▁느낄	-1259
▁등장	-1260
▁네이버	-1261
▁판타	-1262
▁듣	-1263
▁틀	-1264
▁단순	-1265
▁있어요	-1266
▁혹	-1267
지를	-1268
▁마이	-1269
이야	-1270
함이	-1271
▁맘에	-1272
▁!!!	-1273
▁중간에	-1274
▁영화관에서	-1275
길래	-1276
▁나이	-1277
▁잘못	-1278
▁혼자	-1279
▁끼	-1280
겠지	-1281
▁사이	-1282
▁못하는	-1283
▁바로	-1284
▁영화보다	-1285
▁존재	-1286
▁감독님	-1287
▁어설픈	-1288
▁재미있어요	-1289
등학	-1290
▁다르	-1291
▁어렸을	-1292
▁보다가	-1293
▁합니다	-1294
▁쳐	-1295
라이	-1296
▁가서	-1297
▁아쉽다	-1298
ood	-1299
스럽다	-1300
▁맨	-1301
▁훈	-1302
▁성룡	-1303
▁교훈	-1304
겠지만	-1305
▁감동적인	-1306
▁스토리는	-1307
▁삼류	-1308
▁강추	-1309
이었다	-1310
▁:	-1311
▁멍	-1312
▁뭐지	-1313
▁죽는	-1314
▁영상미	-1315
00	-1316
해도	-1317
▁관람	-1318
▁낮은	-1319
이라면	-1320
▁재미있는	-1321
,,,	-1322
▁분들	-1323
▁화려	-1324
▁보는데	-1325
▁거의	-1326
스가	-1327
▁능	-1328
린다	-1329
▁허무	-1330
으면서	-1331
▁생각보다	-1332
▁까	-1333
▁감동을	-1334
er	-1335
▁밀	-1336
▁당신	-1337
▁빨리	-1338
▁법	-1339
▁윤	-1340
짜리	-1341
▁있다는	-1342
▁항	-1343
려서	-1344
▁멜로	-1345
년도	-1346
▁독특	-1347
▁뭐냐	-1348
▁빼고	-1349
▁밑	-1350
▁벗	-1351
▁쓴	-1352
▁이리	-1353
▁진정한	-1354
라서	-1355
적이다	-1356
▁재미있다	-1357
어나	-1358
▁재미는	-1359
머니	-1360
▁다가	-1361
시키	-1362
▁예상	-1363
거나	-1364
땜에	-1365
▁없을	-1366
인의	-1367
▁건데	-1368
▁아버	-1369
▁빈	-1370
▁얘기	-1371
▁재미없는	-1372
▁잃	-1373
론가	-1374
▁자기	-1375
▁영화에서	-1376
▁권	-1377
만큼	-1378
▁스타일	-1379
▁덕	-1380
▁상당히	-1381
▁평점을	-1382
▁개그	-1383
▁나라	-1384
▁만점	-1385
▁아닌가	-1386
▁없네요	-1387
▁사람들은	-1388
▁착	-1389
▁헤	-1390
▁맞는	-1391
▁어른	-1392
▁주인공이	-1393
▁댓	-1394
디로	-1395
연히	-1396
▁여배우	-1397
▁났	-1398
▁넣	-1399
버린	-1400
▁믿고	-1401
▁타임	-1402
▁괜찮았	-1403
이팅	-1404
▁똑같	-1405
▁재밌네요	-1406
▁비해	-1407
▁예쁘	-1408
▁자연	-1409
▁아까움	-1410
▁마음에	-1411
▁각본	-1412
▁질질	-1413
▁팔	-1414
▁상영	-1415
▁그러나	-1416
▁창	-1417
▁흑	-1418
▁압	-1419
자가	-1420
▁누구	-1421
▁보이	-1422
▁전부	-1423
▁그녀	-1424
▁좀비	-1425
▁갑자기	-1426
▁전개가	-1427
▁훌륭한	-1428
▁슈	-1429
▁본다	-1430
▁척	-1431
▁류	-1432
편이	-1433
▁슬픈	-1434
▁어쩌	-1435
▁가지고	-1436
▁검	-1437
▁년	-1438
정이	-1439
▁하게	-1440
▁하네요	-1441
재미	-1442
▁싶어	-1443
▁이미	-1444
▁줘	-1445
▁찬	-1446
자는	-1447
▁실제	-1448
▁그런지	-1449
▁잔잔한	-1450
▁하는데	-1451
리를	-1452
없이	-1453
▁나의	-1454
▁별점	-1455
▁화면	-1456
▁아까워	-1457
▁복수	-1458
▁시청률	-1459
▁가지	-1460
▁난다	-1461
▁하네	-1462
▁꿀잼	-1463
▁다니	-1464
▁저런	-1465
▁즐거	-1466
▁가치	-1467
▁배우가	-1468
▁좋네요	-1469
졌다	-1470
▁제가	-1471
▁진행	-1472
▁굉장히	-1473
▁보여준	-1474
▁최고다	-1475
▁가능	-1476
▁아프	-1477
▁거다	-1478
▁201	-1479
▁같네요	-1480
▁곳	-1481
▁향	-1482
편은	-1483
▁댓글	-1484
▁않아	-1485
▁이번	-1486
▁해준	-1487
▁크리스	-1488
▁속에	-1489
▁저는	-1490
▁한마	-1491
▁해야	-1492
▁확실	-1493
었고	-1494
▁좋음	-1495
▁어디서	-1496
▁M	-1497
▁빛	-1498
▁쉽	-1499
▁선택	-1500
▁케이	-1501
▁모르고	-1502
▁생각하게	-1503
▁평범	-1504
▁생각해	-1505
▁90	-1506
▁만족	-1507
▁불편	-1508
▁중요	-1509
▁봤네요	-1510
▁원작을	-1511
는다	-1512
▁새로운	-1513
▁흠	-1514
만한	-1515
▁되어	-1516
▁말아	-1517
▁아닐	-1518
했지만	-1519
▁킬링타임용	-1520
▁빌	-1521
라면	-1522
저히	-1523
▁더욱	-1524
▁성우	-1525
▁저도	-1526
▁흥행	-1527
▁관계	-1528
▁예고	-1529
▁급	-1530
▁효	-1531
▁감성	-1532
▁참고	-1533
▁감독은	-1534
▁a	-1535
▁프랑	-1536
▁해주	-1537
▁깔	-1538
▁짝	-1539
노잼	-1540
드는	-1541
▁뭐가	-1542
▁받아	-1543
▁이러	-1544
▁알아	-1545
▁요소	-1546
▁탄탄	-1547
였음	-1548
▁몰랐	-1549
▁살인	-1550
▁항상	-1551
에서도	-1552
▁극장판	-1553
▁만들었다	-1554
감이	-1555
????	-1556
▁뮤	-1557
▁햇	-1558
▁아빠	-1559
▁일단	-1560
▁판타지	-1561
▁평론가	-1562
놓고	-1563
어가	-1564
것도	-1565
▁TV	-1566
▁워	-1567
▁페	-1568
▁묻	-1569
▁멋지	-1570
▁찌	-1571
▁처음부터	-1572
▁싫어	-1573
▁역대	-1574
▁분위기	-1575
▁장면은	-1576
진짜	-1577
▁편집	-1578
!!!!!!!!	-1579
▁섬	-1580
하냐	-1581
▁끝내	-1582
▁돋보	-1583
▁충분히	-1584
▁평점은	-1585
▁짧	-1586
▁카메	-1587
보다는	-1588
▁맥	-1589
▁접	-1590
▁12	-1591
▁전형	-1592
▁알았는데	-1593
도록	-1594
▁개연성	-1595
.,	-1596
여서	-1597
스럽고	-1598
▁이하	-1599
▁알았다	-1600
▁젊	-1601
시고	-1602
우드	-1603
유의	-1604
▁또한	-1605
▁봤을	-1606
▁어려	-1607
▁점점	-1608
▁나오고	-1609
▁만들지	-1610
사가	-1611
▁견	-1612
▁뭐야	-1613
▁않음	-1614
었지만	-1615
▁d	-1616
리티	-1617
▁결혼	-1618
▁자꾸	-1619
▁짜증나	-1620
▁흥미진	-1621
에겐	-1622
하나	-1623
▁라이	-1624
▁의도	-1625
▁깊은	-1626
▁범죄	-1627
▁더럽게	-1628
▁좋겠다	-1629
▁했지만	-1630
▁뜨	-1631
▁리얼	-1632
▁힘든	-1633
▁프랑스	-1634
▁홍콩	-1635
▁나온다	-1636
▁북	-1637
너무	-1638
된다	-1639
연기	-1640
▁나쁜	-1641
▁미화	-1642
▁불륜	-1643
▁설명	-1644
▁소중	-1645
▁자극	-1646
조건	-1647
▁그때	-1648
▁좋을	-1649
▁훈훈	-1650
▁재밌었다	-1651
▁기다	-1652
▁남아	-1653
▁않을	-1654
▁안타까	-1655
▁안타깝	-1656
▁유치한	-1657
in	-1658
▁땐	-1659
▁퍼	-1660
예요	-1661
▁것만	-1662
▁사건	-1663
▁헐리	-1664
▁사랑을	-1665
▁화이팅	-1666
▁엇	-1667
▁거냐	-1668
▁그게	-1669
▁재밌어	-1670
▁식상	-1671
▁웃겨	-1672
▁이것도	-1673
▁흥미진진	-1674
시다	-1675
▁먹먹	-1676
이라니	-1677
▁tv	-1678
▁귀신	-1679
▁엉망	-1680
▁취향	-1681
▁코메	-1682
▁했던	-1683
립니다	-1684
스토리	-1685
한데	-1686
▁그닥	-1687
▁원래	-1688
▁한데	-1689
수를	-1690
주고	-1691
▁물론	-1692
▁에로	-1693
▁죽음	-1694
▁따뜻한	-1695
▁무조건	-1696
▁지금까지	-1697
▁탈	-1698
▁감상	-1699
▁대단한	-1700
▁못하고	-1701
▁보이는	-1702
해라	-1703
▁사는	-1704
▁웃긴	-1705
▁모르는	-1706
▁줄거리	-1707
▁good	-1708
▁m	-1709
으며	-1710
▁유명	-1711
▁있나	-1712
▁참신	-1713
러운	-1714
▁나쁘	-1715
▁망작	-1716
▁바람	-1717
▁황당	-1718
▁그래픽	-1719
▁아쉬운	-1720
▁쁘	-1721
▁체	-1722
했을	-1723
▁영웅	-1724
▁그림	-1725
▁저질	-1726
▁치고	-1727
에서는	-1728
▁같습니다	-1729
▁드라마가	-1730
이크	-1731
조차	-1732
히려	-1733
▁어쩔	-1734
▁이어	-1735
▁;;;	-1736
▁끄	-1737
스의	-1738
오는	-1739
▁게임	-1740
▁알려	-1741
▁희망	-1742
▁닿	-1743
워요	-1744
▁오글거	-1745
▁작품이	-1746
▁골	-1747
만이	-1748
저씨	-1749
▁마무	-1750
▁있네	-1751
▁엄청난	-1752
▁코메디	-1753
▁좋았어요	-1754
▁지루하지	-1755
▁논	-1756
▁돈이	-1757
▁전설	-1758
▁정도면	-1759
에선	-1760
▁놓고	-1761
▁따위	-1762
▁멍청	-1763
▁도저히	-1764
▁목소리	-1765
▁평점에	-1766
▁뜬	-1767
리게	-1768
었을	-1769
촬영	-1770
▁동화	-1771
▁진지	-1772
▁이야기를	-1773
▁합	-1774
리의	-1775
▁80	-1776
▁걸까	-1777
▁느꼈	-1778
▁미안	-1779
▁새끼	-1780
▁유머	-1781
▁학교	-1782
▁특유의	-1783
인다	-1784
▁괜히	-1785
▁여전	-1786
▁있네요	-1787
▁바라	-1788
▁분명	-1789
▁사라	-1790
▁부분이	-1791
만의	-1792
민국	-1793
이건	-1794
▁그럴	-1795
▁먹고	-1796
▁무비	-1797
일까	-1798
중에	-1799
▁과거	-1800
▁후반부	-1801
▁깜	-1802
;;;	-1803
▁그랬	-1804
▁바보	-1805
▁예전에	-1806
▁오히려	-1807
▁지루해	-1808
▁드라마를	-1809
▁던	-1810
▁촬영	-1811
했어요	-1812
▁액션도	-1813
▁재미없어	-1814
▁플	-1815
▁있지	-1816
▁느끼게	-1817
▁앞으로	-1818
▁억지로	-1819
▁응	-1820
같이	-1821
▁독립	-1822
▁ost	-1823
▁인간의	-1824
10	-1825
▁소녀	-1826
▁중반	-1827
▁로맨틱	-1828
▁있었던	-1829
▁노출	-1830
▁억이	-1831
▁흘러	-1832
▁무서운	-1833
▁부족한	-1834
했습니다	-1835
▁멀	-1836
▁쩔	-1837
했고	-1838
▁낫다	-1839
▁대작	-1840
▁든다	-1841
▁뭔지	-1842
▁아는	-1843
▁잊혀	-1844
▁전문	-1845
▁지난	-1846
▁않았다	-1847
▁연기에	-1848
▁연출력	-1849
▁완벽한	-1850
▁가볍	-1851
▁그런데	-1852
▁완성도	-1853
▁재미있고	-1854
▁재밌는데	-1855
내는	-1856
▁최근	-1857
▁말하고	-1858
▁있습니다	-1859
▁됬	-1860
▁핵	-1861
대의	-1862
이면	-1863
▁SF	-1864
▁진실	-1865
▁모습이	-1866
▁봣는데	-1867
▁기대하고	-1868
▁아이들이	-1869
▁짐	-1870
그램	-1871
하니	-1872
▁다행	-1873
▁이쁘	-1874
▁현재	-1875
▁아쉬움	-1876
▁아무것도	-1877
▁움	-1878
어로	-1879
우는	-1880
▁돌려	-1881
▁신기	-1882
▁영원	-1883
▁즐겁	-1884
▁전형적인	-1885
.......	-1886
▁서로	-1887
▁천재	-1888
하다고	-1889
▁비슷한	-1890
""	-1891
대한	-1892
스런	-1893
이냐	-1894
▁경찰	-1895
▁전기	-1896
▁철학	-1897
▁아버지	-1898
▁우연히	-1899
▁해주는	-1900
▁나가	-1901
▁그렇고	-1902
▁처음으로	-1903
▁붙	-1904
겠네	-1905
▁적당	-1906
▁대한민국	-1907
▁노력	-1908
▁못할	-1909
▁풀어	-1910
▁애들이	-1911
▁연출이	-1912
▁지금도	-1913
▁프로그램	-1914
기고	-1915
▁15	-1916
▁부모	-1917
▁꼴	-1918
보게	-1919
▁메세	-1920
▁비추	-1921
▁역할	-1922
▁우울	-1923
▁드는	-1924
었으면	-1925
▁아니면	-1926
▁스토리에	-1927
.5	-1928
▁밤	-1929
▁입니다	-1930
▁폐	-1931
▁,,	-1932
▁그려	-1933
▁누군	-1934
▁여성	-1935
▁청춘	-1936
▁해가	-1937
▁같아서	-1938
▁드라마는	-1939
스를	-1940
▁가득	-1941
▁관심	-1942
▁나옴	-1943
▁눈이	-1944
▁성장	-1945
▁허술	-1946
▁싶네요	-1947
▁D	-1948
기엔	-1949
하여	-1950
▁미래	-1951
▁초등학	-1952
님의	-1953
▁번을	-1954
▁전달	-1955
▁싶은데	-1956
▁영화지만	-1957
ST	-1958
사랑	-1959
▁영환	-1960
▁인정	-1961
▁조연	-1962
▁아저씨	-1963
▁먼저	-1964
▁짱짱	-1965
▁볼만한	-1966
▁이해할	-1967
▁유치하고	-1968
하긴	-1969
▁라니	-1970
▁환상	-1971
▁반전이	-1972
▁속에서	-1973
▁아니지만	-1974
▁촌	-1975
랄까	-1976
▁그럼	-1977
▁행동	-1978
였는데	-1979
▁내용을	-1980
▁어설프	-1981
▁영화이다	-1982
▁샤	-1983
▁침	-1984
님이	-1985
▁말을	-1986
▁연기자	-1987
▁엿	-1988
년에	-1989
웠던	-1990
▁놀라	-1991
▁마음을	-1992
▁아닐까	-1993
▁명작이다	-1994
▁이야기가	-1995
▁증	-1996
▁cg	-1997
▁만나	-1998
▁있다면	-1999
▁재밌었어요	-2000
▁영화였습니다	-2001
▁""	-2002
▁되지	-2003
▁라는	-2004
▁성공	-2005
▁실패	-2006
▁전작	-2007
▁사람을	-2008
▁아닌데	-2009
▁월	-2010
▁스케	-2011
▁아오	-2012
................	-2013
▁춤	-2014
되고	-2015
▁되었다	-2016
▁모습을	-2017
▁여자가	-2018
▁떨어지는	-2019
▁그의	-2020
▁밑에	-2021
▁하루	-2022
▁끝나고	-2023
▁중에서	-2024
▁나면	-2025
▁삶을	-2026
▁시도	-2027
▁어렵	-2028
▁잊을	-2029
▁좋았고	-2030
리아	-2031
부분	-2032
▁마치	-2033
▁선생	-2034
▁정치	-2035
▁졸라	-2036
▁배우의	-2037
▁소재는	-2038
▁줌	-2039
장이	-2040
함과	-2041
▁좋았음	-2042
였습니다	-2043
▁얻	-2044
하던	-2045
▁받았	-2046
▁심리	-2047
▁연애	-2048
▁왠지	-2049
됩니다	-2050
▁불가	-2051
▁기억이	-2052
▁화려한	-2053
he	-2054
▁꾸	-2055
▁쉬	-2056
드가	-2057
▁어찌	-2058
▁올라	-2059
▁나왔으면	-2060
▁좋았습니다	-2061
▁젤	-2062
지루	-2063
▁생애	-2064
▁없나	-2065
▁피해	-2066
▁해피	-2067
▁남주	-2068
▁대충	-2069
▁되게	-2070
▁액션이	-2071
▁좋았을	-2072
▁끊	-2073
▁힐	-2074
르고	-2075
세가	-2076
▁재밋게	-2077
▁재미있음	-2078
▁줬	-2079
소한	-2080
자의	-2081
▁아마	-2082
▁찍은	-2083
봅니다	-2084
▁귀여운	-2085
▁보시길	-2086
▁세상에	-2087
▁카메라	-2088
▁한마디로	-2089
그라	-2090
스로	-2091
지게	-2092
▁간다	-2093
▁봤으면	-2094
▁하면서	-2095
▁너무나도	-2096
▁무엇보다	-2097
▁좋았는데	-2098
▁감사합니다	-2099
▁활	-2100
과는	-2101
였던	-2102
▁안에	-2103
▁알겠	-2104
▁대단하다	-2105
▁주인공의	-2106
▁전체적으로	-2107
▁격	-2108
▁쩌	-2109
▁쪽	-2110
가지	-2111
▁넘어	-2112
▁눈을	-2113
▁싫다	-2114
▁오빠	-2115
▁진부한	-2116
▁봤었는데	-2117
려면	-2118
치게	-2119
▁메시	-2120
▁살다	-2121
▁않게	-2122
▁OST	-2123
▁늙	-2124
▁스트	-2125
▁평생	-2126
▁호러	-2127
하지도	-2128
▁보기엔	-2129
리다	-2130
▁못하	-2131
▁블랙	-2132
▁손발	-2133
▁잊지	-2134
▁자유	-2135
▁보니까	-2136
▁연기와	-2137
▁십	-2138
▁씁	-2139
▁챙	-2140
▁같고	-2141
▁다소	-2142
▁때는	-2143
▁제작비	-2144
▁뒷	-2145
▁듬	-2146
▁미스	-2147
▁만들어진	-2148
▁쇼	-2149
인은	-2150
▁화가	-2151
하기만	-2152
▁사랑이	-2153
▁소재를	-2154
▁저렇게	-2155
▁뜻	-2156
들아	-2157
분에	-2158
식이	-2159
..?	-2160
▁보러	-2161
▁않나	-2162
▁일이	-2163
▁한계	-2164
▁감정이	-2165
▁스케일	-2166
▁케이블	-2167
▁A	-2168
▁군대	-2169
▁나를	-2170
▁남을	-2171
▁느낀	-2172
▁죽을	-2173
▁사람의	-2174
▁자신의	-2175
▁허접한	-2176
▁확실히	-2177
▁찡	-2178
▁컨	-2179
▁퀄	-2180
되어	-2181
▁뮤지	-2182
▁미소	-2183
▁사극	-2184
▁젊은	-2185
하면서도	-2186
▁독립영화	-2187
▁스토리를	-2188
▁웬	-2189
▁윌	-2190
심히	-2191
▁겁나	-2192
▁나타	-2193
▁슬픔	-2194
▁나에게	-2195
▁어색한	-2196
▁없다는	-2197
▁G	-2198
▁꼽	-2199
▁밝	-2200
▁축	-2201
▁모자	-2202
▁외로	-2203
▁수준이	-2204
▁액션은	-2205
▁영화냐	-2206
▁필요한	-2207
▁걸로	-2208
▁결론	-2209
▁괴물	-2210
▁무지	-2211
만으로도	-2212
▁매력적인	-2213
▁i	-2214
▁잤	-2215
리도	-2216
▁고민	-2217
▁나머	-2218
▁레이	-2219
▁외국	-2220
▁채널	-2221
점짜리	-2222
▁간만에	-2223
▁봤다가	-2224
▁예고편	-2225
▁스토리와	-2226
▁뭉	-2227
동안	-2228
이트	-2229
인을	-2230
▁굿굿	-2231
▁떠나	-2232
▁잘생	-2233
▁표정	-2234
▁역시나	-2235
▁제작진	-2236
▁엑	-2237
감을	-2238
리에	-2239
스는	-2240
이게	-2241
▁광고	-2242
▁번째	-2243
▁유쾌한	-2244
▁이유가	-2245
▁느껴지는	-2246
re	-2247
▁f	-2248
로서	-2249
마저	-2250
▁가끔	-2251
▁일상	-2252
▁기대를	-2253
▁기분이	-2254
▁없지만	-2255
▁징	-2256
기로	-2257
▁개도	-2258
▁글쎄	-2259
▁깊게	-2260
▁아놔	-2261
▁특별	-2262
▁매력이	-2263
▁볼수록	-2264
▁순수한	-2265
▁감동적이고	-2266
▁재밌었는데	-2267
대는	-2268
예산	-2269
절한	-2270
▁감탄	-2271
▁섹시	-2272
▁흐름	-2273
▁귀엽고	-2274
▁추천합니다	-2275
▁뻐	-2276
그래	-2277
▁가진	-2278
▁거기	-2279
▁없지	-2280
▁유일	-2281
하려는	-2282
▁보지마	-2283
▁어린이	-2284
▁이유는	-2285
▁생각한다	-2286
▁영화라는	-2287
이코	-2288
▁동생	-2289
▁두고	-2290
▁말로	-2291
▁못해	-2292
▁묘사	-2293
▁슈퍼	-2294
▁아침	-2295
▁커플	-2296
▁좋아서	-2297
▁밥	-2298
▁칼	-2299
▁펑	-2300
져서	-2301
드라마	-2302
스럽게	-2303
한다는	-2304
▁뮤지컬	-2305
▁음악이	-2306
▁푸	-2307
▁국민	-2308
▁리뷰	-2309
▁오락	-2310
▁사랑하는	-2311
▁녹	-2312
▁나만	-2313
▁땜에	-2314
▁쓰는	-2315
▁예쁜	-2316
▁지루할	-2317
.2	-2318
심을	-2319
하자	-2320
▁문화	-2321
▁아나	-2322
▁좋게	-2323
었네요	-2324
▁독특한	-2325
▁뿐이다	-2326
▁있으면	-2327
▁n	-2328
▁거임	-2329
▁통해	-2330
면서도	-2331
▁슬프다	-2332
▁여전히	-2333
▁정도의	-2334
▁연기력이	-2335
▁w	-2336
성애	-2337
▁능력	-2338
▁뜬금	-2339
▁몸매	-2340
▁연예	-2341
▁전편	-2342
▁열심히	-2343
▁이후로	-2344
▁정말로	-2345
▁영화보는	-2346
▁티비에서	-2347
라니	-2348
정을	-2349
터리	-2350
파이	-2351
▁살짝	-2352
▁싶을	-2353
▁언니	-2354
▁그들의	-2355
▁다큐멘	-2356
자를	-2357
▁개판	-2358
▁쓰래	-2359
▁희생	-2360
주세요	-2361
▁감동적	-2362
▁아름답고	-2363
던가	-2364
사회	-2365
저럭	-2366
▁깊이	-2367
▁남녀	-2368
▁동물	-2369
▁포기	-2370
▁오그라	-2371
▁평범한	-2372
▁덜	-2373
으론	-2374
▁깔끔	-2375
▁미치	-2376
▁보자	-2377
▁북한	-2378
▁불쾌	-2379
▁시원	-2380
▁느끼는	-2381
▁몰라도	-2382
▁소재로	-2383
▁흥미롭	-2384
▁생각합니다	-2385
▁재밌습니다	-2386
▁썩	-2387
▁업	-2388
▁짠	-2389
시면	-2390
▁굳이	-2391
▁무시	-2392
▁소장	-2393
▁악역	-2394
▁정서	-2395
▁종교	-2396
▁신선한	-2397
▁하는지	-2398
▁너무너무	-2399
들만	-2400
심이	-2401
▁끌어	-2402
▁혹시	-2403
▁홍보	-2404
하다는	-2405
▁몰입이	-2406
▁사랑에	-2407
▁헛	-2408
소년	-2409
원이	-2410
트가	-2411
▁그걸	-2412
▁그다	-2413
▁까지	-2414
▁설레	-2415
▁안보	-2416
▁오버	-2417
▁좋았던	-2418
▁중요한	-2419
▁처음엔	-2420
▁장면에서	-2421
▁엘	-2422
▁풋	-2423
되지	-2424
레스	-2425
았던	-2426
▁압권	-2427
▁포장	-2428
럭저럭	-2429
▁공감이	-2430
▁그렇다	-2431
▁없는데	-2432
▁작품성	-2433
ou	-2434
▁납	-2435
▁퇴	-2436
니아	-2437
인물	-2438
▁난해	-2439
▁막판	-2440
▁사기	-2441
▁쉽게	-2442
▁조폭	-2443
▁크게	-2444
▁만들고	-2445
▁싶어요	-2446
▁추억의	-2447
▁현실을	-2448
▁아름답다	-2449
▁I	-2450
▁젠	-2451
▁쿠	-2452
시켜	-2453
신이	-2454
▁고생	-2455
▁드러	-2456
▁쓰고	-2457
▁아들	-2458
▁이기	-2459
▁전투	-2460
▁지도	-2461
였어요	-2462
▁남는다	-2463
▁빠져들	-2464
▁어이없	-2465
▁퀄리티	-2466
▁있었는데	-2467
▁진심으로	-2468
▁겉	-2469
▁늦	-2470
▁잭	-2471
시아	-2472
음악	-2473
현실	-2474
▁것들	-2475
▁상처	-2476
▁시선	-2477
▁왠만	-2478
▁이젠	-2479
▁일어	-2480
▁분들은	-2481
▁시간을	-2482
▁언제나	-2483
▁재미를	-2484
▁그럭저럭	-2485
▁떡	-2486
▁쥐	-2487
감독	-2488
즈니	-2489
▁라고	-2490
▁무협	-2491
▁분노	-2492
▁현대	-2493
▁후속	-2494
더라도	-2495
했다는	-2496
▁낮아서	-2497
끼리	-2498
수가	-2499
었나	-2500
지의	-2501
▁감명	-2502
▁신경	-2503
▁표절	-2504
▁우리가	-2505
▁좋아할	-2506
▁최악이다	-2507
."	-2508
▁맡	-2509
▁몽	-2510
▁톰	-2511
어라	-2512
히는	-2513
▁눈빛	-2514
▁많다	-2515
▁폭력	-2516
▁하하	-2517
이라서	-2518
▁덕분에	-2519
▁별로다	-2520
▁시간에	-2521
▁아깝지	-2522
▁주기도	-2523
▁전기세가	-2524
▁좋습니다	-2525
▁뉴	-2526
구려	-2527
말로	-2528
▁11	-2529
▁13	-2530
▁용서	-2531
▁재난	-2532
▁테러	-2533
▁말하는	-2534
▁사랑과	-2535
▁소재가	-2536
▁생각나는	-2537
▁재미있네요	-2538
▁쫌	-2539
디어	-2540
▁남겨	-2541
▁높아	-2542
▁여행	-2543
▁웃겼	-2544
▁이루	-2545
▁있던	-2546
▁해라	-2547
▁마무리	-2548
▁싸이코	-2549
▁저예산	-2550
▁점수를	-2551
▁드립니다	-2552
준다	-2553
▁거짓	-2554
▁다만	-2555
▁말할	-2556
▁할까	-2557
▁감동과	-2558
▁생각나	-2559
▁아이들	-2560
▁잘하는	-2561
▁농	-2562
▁닥	-2563
▁뿌	-2564
럽다	-2565
막장	-2566
주얼	-2567
▁40	-2568
▁놀랍	-2569
▁많아	-2570
▁부터	-2571
▁쓸데	-2572
지네요	-2573
▁그다지	-2574
▁없어요	-2575
▁없었던	-2576
▁영화들	-2577
겠습니다	-2578
▁등장인물	-2579
▁해피엔딩	-2580
까진	-2581
서야	-2582
움을	-2583
▁가까	-2584
▁공부	-2585
▁받을	-2586
▁삶의	-2587
▁아픈	-2588
▁연결	-2589
▁작은	-2590
▁조절	-2591
▁중의	-2592
▁못했다	-2593
▁반전도	-2594
▁보인다	-2595
▁봅니다	-2596
▁상상력	-2597
▁쓰래기	-2598
▁인생을	-2599
▁닮	-2600
▁기술	-2601
▁부끄	-2602
▁통쾌	-2603
▁펑펑	-2604
▁형편	-2605
▁힐링	-2606
▁남자가	-2607
▁아이가	-2608
▁연출도	-2609
▁음악도	-2610
▁뇌	-2611
었어	-2612
이에	-2613
이터	-2614
평가	-2615
평점	-2616
화가	-2617
▁그립	-2618
▁김기	-2619
▁못함	-2620
▁반성	-2621
▁산만	-2622
▁생겼	-2623
▁스크	-2624
▁지구	-2625
으로서	-2626
▁끝나는	-2627
▁뽑	-2628
감동	-2629
려다	-2630
학교	-2631
▁겨울	-2632
▁높다	-2633
▁뒤로	-2634
▁러브	-2635
▁스포	-2636
▁자막	-2637
만으로	-2638
했으면	-2639
▁슬프고	-2640
▁않지만	-2641
▁제목이	-2642
▁지루해서	-2643
▁꽃	-2644
▁익	-2645
▁좌	-2646
기의	-2647
▁보내	-2648
▁불구	-2649
▁심한	-2650
▁아픔	-2651
▁일부	-2652
▁디즈니	-2653
▁빼고는	-2654
▁어머니	-2655
줌마	-2656
▁1,	-2657
▁70	-2658
▁드림	-2659
▁바뀌	-2660
▁살고	-2661
▁스티	-2662
▁씁쓸	-2663
▁아련	-2664
▁태어	-2665
▁모르게	-2666
▁비주얼	-2667
▁배우들도	-2668
▁재밌었음	-2669
▁싱	-2670
▁썼	-2671
른다	-2672
사를	-2673
와는	-2674
▁많고	-2675
▁믿을	-2676
▁반복	-2677
▁보아	-2678
▁비극	-2679
▁적이	-2680
장에서	-2681
▁결말도	-2682
▁넘치는	-2683
▁뻔하고	-2684
▁밋	-2685
났다	-2686
내용	-2687
대가	-2688
상을	-2689
▁거라	-2690
▁먹는	-2691
▁슬퍼	-2692
▁연속	-2693
▁오랫	-2694
▁가볍게	-2695
▁있어야	-2696
▁출연진	-2697
▁끔	-2698
개도	-2699
분이	-2700
▁나은	-2701
▁때가	-2702
▁심각	-2703
▁싶지	-2704
▁악당	-2705
▁나중에	-2706
▁싸구려	-2707
▁아이돌	-2708
▁여기서	-2709
▁이제야	-2710
▁작품을	-2711
▁표현한	-2712
▁!!!!	-2713
an	-2714
▁쌍	-2715
▁쵝	-2716
는가	-2717
시킨	-2718
었네	-2719
▁강렬	-2720
▁끝난	-2721
▁노답	-2722
▁말자	-2723
▁무언	-2724
▁발전	-2725
▁주변	-2726
▁되네요	-2727
▁볼만함	-2728
▁작가가	-2729
!!!!!	-2730
▁재미있었다	-2731
▁앤	-2732
▁폴	-2733
간다	-2734
웠음	-2735
▁러닝	-2736
▁받는	-2737
▁새벽	-2738
▁인터	-2739
한다면	-2740
,,,,	-2741
▁어려운	-2742
▁엉성한	-2743
▁청소년	-2744
▁잊혀지지	-2745
▁쏘	-2746
▁흡	-2747
르노	-2748
상이	-2749
▁깨닫	-2750
▁내려	-2751
▁비판	-2752
▁올리	-2753
▁올해	-2754
▁한심	-2755
▁효과	-2756
까지는	-2757
▁베스트	-2758
▁처음이다	-2759
▁쩐	-2760
▁늘어	-2761
▁심심	-2762
▁하이	-2763
▁나오면	-2764
▁눈물을	-2765
▁느낌을	-2766
▁정도는	-2767
▁집에서	-2768
▁생각하고	-2769
▁찝	-2770
▁혐	-2771
로는	-2772
스타	-2773
▁가면	-2774
▁것에	-2775
▁놀랐	-2776
▁들고	-2777
▁맞아	-2778
▁맞추	-2779
▁방금	-2780
▁인지	-2781
▁존경	-2782
▁챙겨	-2783
▁결말은	-2784
▁뛰어난	-2785
▁산으로	-2786
▁인생의	-2787
▁불구하고	-2788
▁하나하나	-2789
▁좋아하는데	-2790
▁끈	-2791
다른	-2792
▁그린	-2793
▁눈에	-2794
▁니콜	-2795
▁발견	-2796
▁섬세	-2797
▁평이	-2798
▁아줌마	-2799
.1	-2800
▁E	-2801
독교	-2802
자들	-2803
▁로그	-2804
▁인도	-2805
▁조잡	-2806
;;;;	-2807
▁때까지	-2808
▁알바들	-2809
▁초반에	-2810
▁낳	-2811
움이	-2812
▁내고	-2813
▁올려	-2814
▁우주	-2815
▁일반	-2816
▁풋풋	-2817
해주는	-2818
▁시대를	-2819
▁잘하고	-2820
▁재밌을	-2821
▁죽이고	-2822
▁그렇다고	-2823
▁재미없어요	-2824
▁옆	-2825
이며	-2826
키는	-2827
학생	-2828
▁검색	-2829
▁나게	-2830
▁대표	-2831
▁딱히	-2832
▁때도	-2833
▁받은	-2834
▁방법	-2835
▁시각	-2836
에서의	-2837
▁됩니다	-2838
▁정신병	-2839
▁히어로	-2840
▁헐리우드	-2841
▁사랑스러운	-2842
▁푹	-2843
이니	-2844
이의	-2845
▁기본	-2846
▁끝날	-2847
▁받고	-2848
▁자식	-2849
...?	-2850
▁되는데	-2851
▁드럽게	-2852
▁무언가	-2853
▁없었음	-2854
▁울었다	-2855
▁재미잇	-2856
▁전문가	-2857
▁좋아하	-2858
▁하나의	-2859
on	-2860
▁h	-2861
▁섞	-2862
▁탐	-2863
내가	-2864
수의	-2865
▁같았	-2866
▁결과	-2867
▁데이	-2868
▁듣고	-2869
▁밋밋	-2870
▁그런가	-2871
▁남자의	-2872
▁마이너	-2873
▁무섭지도	-2874
▁좋아해서	-2875
느라	-2876
드의	-2877
었지	-2878
학년	-2879
해진	-2880
▁50	-2881
▁상업	-2882
▁외모	-2883
▁편의	-2884
더군요	-2885
▁만든다	-2886
▁애들은	-2887
▁웃음이	-2888
▁지금은	-2889
▁센	-2890
가고	-2891
구니	-2892
이를	-2893
▁꿈을	-2894
▁단지	-2895
▁되서	-2896
▁모를	-2897
▁죽은	-2898
▁필름	-2899
▁대사가	-2900
▁질리지	-2901
▁최악이	-2902
ad	-2903
▁빡	-2904
대를	-2905
▁00	-2906
▁고통	-2907
▁로봇	-2908
▁뭉클	-2909
▁별루	-2910
▁생생	-2911
▁섹스	-2912
▁암튼	-2913
▁찝찝	-2914
▁떠나서	-2915
▁스스로	-2916
▁있는지	-2917
▁자체는	-2918
▁처음이	-2919
라스	-2920
사의	-2921
이션	-2922
인들	-2923
전에	-2924
친구	-2925
▁가져	-2926
▁맨날	-2927
▁아류	-2928
▁외계	-2929
▁지켜	-2930
코미디	-2931
▁이상한	-2932
▁아직까지	-2933
▁없습니다	-2934
▁현실적인	-2935
▁냉	-2936
▁멘	-2937
와르	-2938
▁그거	-2939
▁놓은	-2940
▁명품	-2941
▁벌써	-2942
▁움직	-2943
▁전반	-2944
▁최강	-2945
▁특수	-2946
▁패러	-2947
▁하기	-2948
▁김기덕	-2949
▁단순한	-2950
▁멍청한	-2951
▁무엇을	-2952
▁옛날에	-2953
▁유치함	-2954
▁긴장감도	-2955
▁모르겠고	-2956
▁몰입해서	-2957
▁따뜻해지는	-2958
▁최고입니다	-2959
▁흉	-2960
가락	-2961
로우	-2962
줘서	-2963
▁경험	-2964
▁고양	-2965
▁누나	-2966
▁보긴	-2967
▁시트	-2968
▁짝퉁	-2969
▁타고	-2970
▁포인	-2971
▁"""	-2972
▁누구나	-2973
▁로그인	-2974
▁한다는	-2975
아버	-2976
우고	-2977
편을	-2978
편의	-2979
▁18	-2980
▁국내	-2981
▁떠오	-2982
▁로버	-2983
▁사고	-2984
▁울고	-2985
▁인해	-2986
▁크레	-2987
▁특이	-2988
▁학생	-2989
▁나오지	-2990
▁봤더니	-2991
▁잔인한	-2992
▁장면도	-2993
▁즐겁게	-2994
▁탄탄한	-2995
▁생각하는	-2996
▁재미있었어요	-2997
▁엠	-2998
거운	-2999
겟다	-3000
티비	-3001
▁국가	-3002
▁끝이	-3003
▁바꿔	-3004
▁보길	-3005
▁불러	-3006
▁빠진	-3007
▁안나	-3008
▁영국	-3009
▁주말	-3010
▁흔한	-3011
랍니다	-3012
하세요	-3013
▁보았다	-3014
▁사랑의	-3015
▁정도가	-3016
▁힘들다	-3017
▁생각으로	-3018
▁아쉽네요	-3019
▁좋겠어요	-3020
▁콜	-3021
피소	-3022
▁극치	-3023
▁발로	-3024
▁오는	-3025
▁자살	-3026
▁집에	-3027
▁하시	-3028
거리는	-3029
하기도	-3030
..;;	-3031
▁기독교	-3032
▁보려고	-3033
▁좋지만	-3034
▁앞으로도	-3035
▁영화였어요	-3036
or	-3037
▁l	-3038
방송	-3039
별로	-3040
장면	-3041
짜증	-3042
하하	-3043
▁가고	-3044
▁과장	-3045
▁레전	-3046
▁망한	-3047
▁어제	-3048
▁코난	-3049
▁투자	-3050
집니다	-3051
▁때부터	-3052
▁마이클	-3053
▁보겠다	-3054
▁위대한	-3055
▁유명한	-3056
▁전개도	-3057
▁유쾌하고	-3058
ie	-3059
▁웨	-3060
계의	-3061
하라	-3062
▁다이	-3063
▁되나	-3064
▁생활	-3065
▁이용	-3066
▁조선	-3067
▁치밀	-3068
▁해요	-3069
점주는	-3070
▁고등학	-3071
▁나오네	-3072
▁들었다	-3073
▁수준의	-3074
▁주세요	-3075
▁즐거운	-3076
▁모르겠지만	-3077
▁보았습니다	-3078
▁줍	-3079
겨운	-3080
과의	-3081
셔서	-3082
요일	-3083
ing	-3084
ver	-3085
▁거슬	-3086
▁망쳐	-3087
▁봐요	-3088
▁실력	-3089
▁우정	-3090
으로써	-3091
▁나쁘지	-3092
▁부분도	-3093
▁않을까	-3094
▁영화만	-3095
▁컴	-3096
란다	-3097
럽고	-3098
석이	-3099
성에	-3100
쳤다	-3101
▁구만	-3102
▁달라	-3103
▁무척	-3104
▁보겠	-3105
▁찌질	-3106
▁199	-3107
▁감정을	-3108
▁누군가	-3109
▁명작이	-3110
▁몰입감	-3111
▁무섭다	-3112
▁본다면	-3113
▁분들이	-3114
▁시사회	-3115
▁사람들의	-3116
▁재미없네	-3117
▁옥	-3118
테일	-3119
▁끌고	-3120
▁넘게	-3121
▁대화	-3122
▁빌려	-3123
▁성인	-3124
▁세월	-3125
▁죽이	-3126
▁짱이	-3127
▁헤어	-3128
시키는	-3129
였지만	-3130
▁멋있다	-3131
▁사람도	-3132
▁에피소	-3133
▁음악과	-3134
▁작품은	-3135
▁내용인지	-3136
BS	-3137
▁봉	-3138
▁틈	-3139
마스	-3140
▁병맛	-3141
▁새롭	-3142
▁슬펐	-3143
▁이연	-3144
▁제로	-3145
▁틀어	-3146
하다가	-3147
▁그렇지	-3148
▁대부분	-3149
▁인간이	-3150
▁잔잔하고	-3151
▁육	-3152
▁콩	-3153
관이	-3154
지마	-3155
▁갈등	-3156
▁고마	-3157
▁고전	-3158
▁달달	-3159
▁민망	-3160
▁삶에	-3161
▁아역	-3162
▁예뻐	-3163
▁오바	-3164
▁와우	-3165
▁우와	-3166
▁이럴	-3167
더라면	-3168
보다가	-3169
▁겁니다	-3170
▁사랑은	-3171
▁아깝고	-3172
▁영화네	-3173
▁위해서	-3174
▁죽이는	-3175
▁안타깝다	-3176
▁땅	-3177
▁맹	-3178
▁뱀	-3179
가서	-3180
미가	-3181
지금	-3182
호가	-3183
▁놈들	-3184
▁다양	-3185
▁먹은	-3186
▁봐주	-3187
▁사진	-3188
▁살려	-3189
▁영혼	-3190
▁조합	-3191
▁처럼	-3192
▁해리	-3193
▁007	-3194
▁개봉한	-3195
▁대해서	-3196
▁헐리웃	-3197
더라구요	-3198
▁있었지만	-3199
▁술	-3200
씨가	-3201
영이	-3202
완전	-3203
이거	-3204
▁개뿔	-3205
▁범인	-3206
▁보며	-3207
▁복잡	-3208
▁신파	-3209
▁오브	-3210
▁의문	-3211
▁조용	-3212
▁조작	-3213
스러움	-3214
▁답답한	-3215
▁멋지다	-3216
▁박수를	-3217
▁연기력도	-3218
at	-3219
▁e	-3220
▁냄	-3221
▁탑	-3222
▁튀	-3223
▁픽	-3224
겹다	-3225
하신	-3226
▁갖고	-3227
▁없게	-3228
▁풍경	-3229
▁힘이	-3230
리스마	-3231
메이크	-3232
용으로	-3233
했는지	-3234
▁갑니다	-3235
▁스크린	-3236
▁이유를	-3237
▁작가님	-3238
▁만들어도	-3239
▁영화인가	-3240
▁유치하다	-3241
▁지루했다	-3242
▁초등학생	-3243
.4	-3244
?!	-3245
▁팀	-3246
본다	-3247
와의	-3248
▁교육	-3249
▁나을	-3250
▁더불	-3251
▁미모	-3252
▁웃고	-3253
▁인기	-3254
▁장애	-3255
▁정체	-3256
▁죽여	-3257
▁포르노	-3258
▁하나로	-3259
▁행복한	-3260
▁좋았으나	-3261
▁캐릭터가	-3262
▁깎	-3263
▁옷	-3264
더만	-3265
들에	-3266
시에	-3267
에만	-3268
▁기가	-3269
▁남기	-3270
▁봤네	-3271
▁설마	-3272
▁어우	-3273
▁응원	-3274
▁제이	-3275
▁주지	-3276
▁직접	-3277
▁했음	-3278
▁노래도	-3279
▁봐야지	-3280
▁생각함	-3281
▁아니야	-3282
▁개연성이	-3283
▁리메이크	-3284
▁보여주고	-3285
▁어울리는	-3286
▁좋았지만	-3287
bs	-3288
▁갠	-3289
▁런	-3290
▁빅	-3291
▁엽	-3292
보면	-3293
아가	-3294
져요	-3295
트맨	-3296
▁그지	-3297
▁따로	-3298
▁맛이	-3299
▁적은	-3300
▁정의	-3301
▁팬이	-3302
▁해결	-3303
▁더불어	-3304
▁똑같은	-3305
▁만점에	-3306
▁아까울	-3307
▁역대급	-3308
▁이상의	-3309
▁패러디	-3310
▁학교에서	-3311
▁감동적이다	-3312
ll	-3313
ov	-3314
▁p	-3315
▁님	-3316
▁죠	-3317
리기	-3318
와서	-3319
쳐서	-3320
▁김민	-3321
▁깜짝	-3322
▁때의	-3323
▁박진	-3324
▁변태	-3325
▁신고	-3326
▁아닙	-3327
▁점이	-3328
야말로	-3329
하려고	-3330
▁레전드	-3331
▁배우를	-3332
▁비현실	-3333
▁않네요	-3334
▁자신을	-3335
▁할머니	-3336
▁느껴진다	-3337
▁신선하고	-3338
▁재밌다고	-3339
▁지루하게	-3340
▁기대했는데	-3341
▁떄	-3342
근데	-3343
니깐	-3344
지어	-3345
함에	-3346
▁내면	-3347
▁다룬	-3348
▁방식	-3349
▁브라	-3350
▁유발	-3351
▁주성	-3352
▁한참	-3353
▁허세	-3354
버리고	-3355
으니까	-3356
▁가슴에	-3357
▁손발이	-3358
▁원작의	-3359
▁있구나	-3360
▁있다고	-3361
▁자신이	-3362
▁점수가	-3363
▁카리스마	-3364
om	-3365
▁묵	-3366
▁쏟	-3367
▁앉	-3368
▁탁	-3369
로도	-3370
친다	-3371
▁게이	-3372
▁기준	-3373
▁둘이	-3374
▁말았	-3375
▁미드	-3376
▁블록	-3377
▁빼면	-3378
▁쁘고	-3379
▁시걸	-3380
▁자주	-3381
▁찍어	-3382
▁하도	-3383
▁해안	-3384
▁the	-3385
▁것인가	-3386
▁싶어서	-3387
▁장면을	-3388
▁했으면	-3389
▁생각나서	-3390
▁흥미로운	-3391
▁다큐멘터리	-3392
명이	-3393
▁관한	-3394
▁남은	-3395
▁넘는	-3396
▁여름	-3397
▁잠깐	-3398
▁타이	-3399
▁감동의	-3400
▁개막장	-3401
▁만하다	-3402
▁볼거리	-3403
▁않아서	-3404
▁재밌네	-3405
▁지나도	-3406
▁웃기지도	-3407
▁P	-3408
▁탓	-3409
냐고	-3410
도가	-3411
있는	-3412
재밌	-3413
▁레알	-3414
▁맞지	-3415
▁몇몇	-3416
▁상한	-3417
▁속의	-3418
▁야동	-3419
▁여태	-3420
편보다	-3421
▁것들이	-3422
▁더러운	-3423
▁완전히	-3424
▁우리는	-3425
▁의미를	-3426
▁추억이	-3427
▁k	-3428
▁꽝	-3429
▁염	-3430
려나	-3431
보기	-3432
였고	-3433
화를	-3434
▁기회	-3435
▁아기	-3436
▁아냐	-3437
▁화끈	-3438
었는지	-3439
▁만들면	-3440
▁못한다	-3441
▁배우도	-3442
▁예쁘고	-3443
.........	-3444
▁찰	-3445
해주	-3446
▁강력	-3447
▁겨우	-3448
▁무리	-3449
▁무술	-3450
▁의심	-3451
버렸다	-3452
▁가치가	-3453
▁메이크	-3454
▁모두가	-3455
▁심하게	-3456
▁우리의	-3457
▁원작이	-3458
▁현실성	-3459
▁봤는데도	-3460
OO	-3461
VD	-3462
▁댄	-3463
▁멈	-3464
기지	-3465
나고	-3466
로만	-3467
웃음	-3468
이자	-3469
▁김수	-3470
▁낮지	-3471
▁번도	-3472
▁스페	-3473
▁영어	-3474
▁우려	-3475
▁이가	-3476
▁일품	-3477
▁후에	-3478
봤는데	-3479
▁그녀의	-3480
▁느와르	-3481
▁디테일	-3482
▁웃기고	-3483
▁전설의	-3484
▁주성치	-3485
▁한마디	-3486
▁괜찮은데	-3487
▁모르겠음	-3488
▁아름다움	-3489
▁재밋어요	-3490
두고	-3491
리네	-3492
없다	-3493
▁감흥	-3494
▁많았	-3495
▁뭐라	-3496
▁버린	-3497
▁빼곤	-3498
▁살린	-3499
▁성격	-3500
▁수고	-3501
▁아동	-3502
▁악마	-3503
▁와서	-3504
▁욕망	-3505
▁하늘	-3506
▁가능한	-3507
▁구성이	-3508
▁장르가	-3509
▁재미와	-3510
▁만들다니	-3511
▁이제서야	-3512
▁이해하기	-3513
▁지나치게	-3514
▁갓	-3515
▁엔	-3516
사는	-3517
함은	-3518
▁14	-3519
▁나니	-3520
▁낮게	-3521
▁높게	-3522
▁목소	-3523
▁바꾸	-3524
▁비밀	-3525
▁상관	-3526
▁세련	-3527
▁싸움	-3528
▁최초	-3529
▁편견	-3530
▁DVD	-3531
▁데리고	-3532
▁반개도	-3533
▁봤을까	-3534
▁소설을	-3535
▁소중한	-3536
▁재밋음	-3537
▁크레딧	-3538
▁포인트	-3539
▁스토리의	-3540
▁주인공은	-3541
▁초등학교	-3542
▁y	-3543
만을	-3544
운드	-3545
▁21	-3546
▁공짜	-3547
▁깨달	-3548
▁다를	-3549
▁담아	-3550
▁되면	-3551
▁배역	-3552
▁아래	-3553
▁오로	-3554
▁위로	-3555
하다니	-3556
▁느낌의	-3557
▁많은데	-3558
▁무서워	-3559
▁보여줬	-3560
▁세상을	-3561
▁있었음	-3562
▁재밋다	-3563
▁참으로	-3564
▁최고인	-3565
▁훈훈한	-3566
▁분위기가	-3567
▁휘	-3568
해지	-3569
▁갔다	-3570
▁그건	-3571
▁당연	-3572
▁류의	-3573
▁보던	-3574
▁보통	-3575
▁유지	-3576
▁이도	-3577
▁정보	-3578
▁주기	-3579
▁짝이	-3580
▁흉내	-3581
▁미스터	-3582
▁생각할	-3583
▁이래서	-3584
▁이상은	-3585
▁인생에	-3586
▁2014	-3587
▁긴장감이	-3588
▁작품이다	-3589
▁한국영화는	-3590
▁낙	-3591
년이	-3592
놓은	-3593
라가	-3594
로써	-3595
명의	-3596
이스	-3597
자단	-3598
줘야	-3599
하시	-3600
▁감각	-3601
▁떠올	-3602
▁모험	-3603
▁예능	-3604
▁잘한	-3605
▁착한	-3606
▁할리	-3607
자들이	-3608
▁관객을	-3609
▁깨닫게	-3610
▁다시는	-3611
▁다운받	-3612
▁문제가	-3613
▁영원히	-3614
▁영화나	-3615
▁줍니다	-3616
▁부족하다	-3617
▁비디오로	-3618
▁재미없게	-3619
▁재미있습니다	-3620
▁X	-3621
▁r	-3622
루스	-3623
사수	-3624
삭제	-3625
오글	-3626
작이	-3627
토록	-3628
▁감히	-3629
▁관련	-3630
▁냄새	-3631
▁대중	-3632
▁생긴	-3633
▁설득	-3634
▁숨겨	-3635
▁양심	-3636
▁연걸	-3637
▁있냐	-3638
▁제시	-3639
▁쵝오	-3640
▁파이	-3641
▁나네요	-3642
▁스파이	-3643
▁하다가	-3644
▁답답하고	-3645
▁생각하면	-3646
▁시리즈는	-3647
▁쩝	-3648
▁칭	-3649
도는	-3650
리언	-3651
임스	-3652
정은	-3653
▁근래	-3654
▁끝났	-3655
▁다루	-3656
▁드라	-3657
▁모양	-3658
▁뭐니	-3659
▁방영	-3660
▁보단	-3661
▁왜곡	-3662
▁읽어	-3663
해진다	-3664
▁시대에	-3665
▁아깝네	-3666
▁아들이	-3667
▁바랍니다	-3668
▁이야기는	-3669
▁껐	-3670
▁뎁	-3671
▁왤	-3672
▁택	-3673
▁홀	-3674
내요	-3675
드라	-3676
식을	-3677
어진	-3678
포터	-3679
하셨	-3680
..1	-3681
▁거면	-3682
▁낮아	-3683
▁도망	-3684
▁뒤에	-3685
▁부실	-3686
▁아내	-3687
▁잡아	-3688
▁지났	-3689
▁최민	-3690
▁해석	-3691
인들이	-3692
▁가슴을	-3693
▁결말을	-3694
▁막판에	-3695
▁배우는	-3696
▁비하면	-3697
▁영화제	-3698
▁있다니	-3699
▁친구가	-3700
▁;;;;	-3701
▁떼	-3702
▁몬	-3703
러워	-3704
음이	-3705
최고	-3706
하겠	-3707
▁결정	-3708
▁남편	-3709
▁돈을	-3710
▁부부	-3711
▁수는	-3712
▁심오	-3713
▁아예	-3714
▁애기	-3715
▁야구	-3716
▁없냐	-3717
▁열받	-3718
▁인가	-3719
▁작위	-3720
▁잔뜩	-3721
▁전율	-3722
▁중독	-3723
▁짧은	-3724
▁찍고	-3725
▁하던	-3726
▁형님	-3727
버스터	-3728
▁남네요	-3729
▁떨어지	-3730
▁마시길	-3731
▁영화와	-3732
▁점수는	-3733
▁겪	-3734
▁씹	-3735
하진	-3736
▁같지	-3737
▁보시	-3738
▁봐줄	-3739
▁은근	-3740
▁탄생	-3741
▁공포물	-3742
▁없다고	-3743
▁웃기다	-3744
▁의미가	-3745
▁개연성도	-3746
▁보여준다	-3747
▁재밌다는	-3748
▁명작입니다	-3749
▁억지스러운	-3750
▁N	-3751
▁벨	-3752
느니	-3753
당한	-3754
리면	-3755
인간	-3756
▁메이	-3757
▁부자	-3758
▁선물	-3759
▁조니	-3760
▁편이	-3761
스럽지	-3762
▁감동받	-3763
▁노래가	-3764
▁동성애	-3765
▁마디로	-3766
▁말고는	-3767
▁매니아	-3768
▁발연기	-3769
▁소름이	-3770
▁수밖에	-3771
▁연출과	-3772
▁특별한	-3773
▁떨어지고	-3774
▁배우들은	-3775
▁쓰레기다	-3776
▁좋겠네요	-3777
▁하나같이	-3778
▁마지막까지	-3779
▁옴	-3780
감도	-3781
년의	-3782
라기	-3783
시대	-3784
원의	-3785
편에	-3786
▁감안	-3787
▁결코	-3788
▁둘째	-3789
▁때려	-3790
▁신비	-3791
▁어두	-3792
▁줄은	-3793
▁클레	-3794
영화의	-3795
했네요	-3796
▁거짓말	-3797
▁공감할	-3798
▁명작을	-3799
▁반전은	-3800
▁식으로	-3801
▁여러분	-3802
▁에피소드	-3803
▁만들었는지	-3804
▁K	-3805
▁L	-3806
▁콤	-3807
구로	-3808
무섭	-3809
수는	-3810
임을	-3811
▁단연	-3812
▁맞고	-3813
▁보신	-3814
▁볼려	-3815
▁상태	-3816
▁앞뒤	-3817
▁인디	-3818
▁짜임	-3819
▁흔들	-3820
버리는	-3821
적이지	-3822
▁가족이	-3823
▁견자단	-3824
▁나왔다	-3825
▁느꼈다	-3826
▁많아서	-3827
▁버렸다	-3828
▁살면서	-3829
▁없으면	-3830
▁영상이	-3831
▁출연한	-3832
▁표현할	-3833
▁핵노잼	-3834
▁흥미로	-3835
▁아닙니다	-3836
▁안타까운	-3837
▁알겠는데	-3838
ar	-3839
▁껄	-3840
▁옹	-3841
▁쥬	-3842
리카	-3843
버그	-3844
보지	-3845
봐야	-3846
쟁이	-3847
하구	-3848
000	-3849
▁거죠	-3850
▁낚시	-3851
▁대본	-3852
▁목숨	-3853
▁버려	-3854
▁왔다	-3855
▁잡고	-3856
▁찍는	-3857
▁파괴	-3858
▁폐지	-3859
▁하며	-3860
▁받아서	-3861
▁보다는	-3862
▁봤다면	-3863
▁색다른	-3864
▁시대의	-3865
▁싶었다	-3866
▁아니지	-3867
▁아쉬웠	-3868
▁어이가	-3869
▁여운을	-3870
▁여자의	-3871
▁오래된	-3872
▁진짜로	-3873
▁하세요	-3874
▁아까웠다	-3875
▁영화에요	-3876
▁진부하고	-3877
▁생각했는데	-3878
▁킹	-3879
개봉	-3880
내고	-3881
냈다	-3882
드시	-3883
많은	-3884
보니	-3885
성은	-3886
인과	-3887
편도	-3888
▁같네	-3889
▁대가	-3890
▁버렸	-3891
▁에이	-3892
▁열정	-3893
▁울컥	-3894
▁자랑	-3895
▁제외	-3896
▁좋앗	-3897
▁충실	-3898
▁혹은	-3899
겠네요	-3900
겠어요	-3901
었을까	-3902
주인공	-3903
했다고	-3904
▁거기에	-3905
▁건가요	-3906
▁귀여워	-3907
▁그것도	-3908
▁된다는	-3909
▁듯하다	-3910
▁매력을	-3911
▁생각도	-3912
▁소소한	-3913
▁심지어	-3914
▁스트레스	-3915
▁엉성하고	-3916
▁최고였다	-3917
▁크리스마스	-3918
en	-3919
▁낯	-3920
▁첩	-3921
성의	-3922
통령	-3923
트의	-3924
▁개념	-3925
▁거부	-3926
▁길게	-3927
▁남긴	-3928
▁대신	-3929
▁무한	-3930
▁비행	-3931
▁연극	-3932
▁열연	-3933
▁으리	-3934
▁일깨	-3935
▁잇는	-3936
▁잔혹	-3937
▁정확	-3938
▁좋네	-3939
▁확인	-3940
▁그만큼	-3941
▁당시에	-3942
▁보다니	-3943
▁아무런	-3944
▁여주가	-3945
▁참신한	-3946
▁최고로	-3947
▁하길래	-3948
▁드라마의	-3949
▁보기에는	-3950
▁아쉽지만	-3951
▁재미있어	-3952
▁깍	-3953
▁깡	-3954
▁넌	-3955
▁를	-3956
▁붕	-3957
▁펼	-3958
▁헬	-3959
명을	-3960
비가	-3961
였어	-3962
우가	-3963
장을	-3964
특히	-3965
▁꼬마	-3966
▁달리	-3967
▁되네	-3968
▁명화	-3969
▁바다	-3970
▁신세	-3971
▁앞에	-3972
▁유아	-3973
▁쩐다	-3974
▁차이	-3975
▁책을	-3976
▁캐리	-3977
듭니다	-3978
보다도	-3979
▁감독을	-3980
▁기대했	-3981
▁부모님	-3982
▁싸우는	-3983
▁연예인	-3984
▁이것이	-3985
▁제임스	-3986
▁최고임	-3987
▁할아버	-3988
▁시청률이	-3989
▁영화였음	-3990
▁훌륭하다	-3991
▁낸	-3992
▁덩	-3993
번째	-3994
형래	-3995
▁간의	-3996
▁대로	-3997
▁무료	-3998
▁뭘까	-3999
▁미쳤	-4000
▁생에	-4001
▁아파	-4002
▁자동	-4003
▁줘야	-4004
▁형제	-4005
들이랑	-4006
려다가	-4007
영화를	-4008
▁감동은	-4009
▁부분은	-4010
▁소재도	-4011
▁실제로	-4012
▁안하고	-4013
▁적당히	-4014
▁처구니	-4015
▁떨어진다	-4016
▁말하고자	-4017
▁무엇인지	-4018
▁인상적이	-4019
▁정말이지	-4020
▁집중해서	-4021
▁품	-4022
감은	-4023
나가	-4024
대사	-4025
드로	-4026
멘타	-4027
미네	-4028
부작	-4029
우기	-4030
피스	-4031
▁끝도	-4032
▁낮다	-4033
▁담배	-4034
▁베이	-4035
▁부탁	-4036
▁빈약	-4037
▁손에	-4038
▁적임	-4039
▁조아	-4040
▁크루	-4041
▁형사	-4042
년도에	-4043
어지는	-4044
으로는	-4045
▁빠지는	-4046
▁사랑해	-4047
▁선생님	-4048
▁실망이	-4049
▁엄마가	-4050
▁영화화	-4051
▁줄이야	-4052
▁첫사랑	-4053
▁한국인	-4054
▁한다고	-4055
▁살아가는	-4056
▁연기하는	-4057
▁짜증난다	-4058
▁x	-4059
▁겹	-4060
버렸	-4061
스키	-4062
씨의	-4063
티브	-4064
했네	-4065
▁??	-4066
▁가르	-4067
▁기법	-4068
▁다섯	-4069
▁단편	-4070
▁듯이	-4071
▁마리	-4072
▁맞춰	-4073
▁본방	-4074
▁서부	-4075
▁시키	-4076
▁신의	-4077
▁쓰지	-4078
▁이쁜	-4079
▁죽고	-4080
▁첨엔	-4081
▁추격	-4082
쓰레기	-4083
에게는	-4084
▁나머지	-4085
▁떨어진	-4086
▁버리고	-4087
▁싶었던	-4088
▁이쁘다	-4089
▁최근에	-4090
▁한국의	-4091
▁몰입도가	-4092
▁처음에는	-4093
▁태어나서	-4094
▁블록버스터	-4095
▁땡	-4096
▁벤	-4097
▁샘	-4098
▁습	-4099
▁앗	-4100
거지	-4101
과서	-4102
드를	-4103
물이	-4104
하려	-4105
▁be	-4106
▁기발	-4107
▁났다	-4108
▁낮네	-4109
▁따름	-4110
▁수입	-4111
▁제니	-4112
▁조카	-4113
▁짜집	-4114
▁탈출	-4115
▁파워	-4116
▁편안	-4117
▁플롯	-4118
▁하여	-4119
▁하자	-4120
▁화장	-4121
겠다는	-4122
인가요	-4123
▁것처럼	-4124
▁교훈을	-4125
▁머리가	-4126
▁심형래	-4127
▁안보는	-4128
▁영환데	-4129
▁좋다고	-4130
▁주제를	-4131
▁처음에	-4132
▁하나가	-4133
▁현실이	-4134
▁사랑하고	-4135
▁않았지만	-4136
▁재밌어서	-4137
,.	-4138
▁칠	-4139
▁콘	-4140
공포	-4141
든지	-4142
듯이	-4143
뭥미	-4144
체가	-4145
▁60	-4146
▁bb	-4147
▁다크	-4148
▁당황	-4149
▁로드	-4150
▁매일	-4151
▁부르	-4152
▁싶음	-4153
▁영향	-4154
▁일을	-4155
▁읽고	-4156
▁집착	-4157
▁찬란	-4158
▁괜찮다	-4159
▁낚였다	-4160
▁내용과	-4161
▁당신은	-4162
▁대통령	-4163
▁식상한	-4164
▁약간의	-4165
▁역사를	-4166
▁예쁘다	-4167
▁그야말로	-4168
▁만들어서	-4169
..........	-4170
vd	-4171
▁띄	-4172
▁웰	-4173
건만	-4174
게요	-4175
려요	-4176
복을	-4177
이로	-4178
즈의	-4179
했어	-4180
▁김혜	-4181
▁담겨	-4182
▁만난	-4183
▁무너	-4184
▁베드	-4185
▁사상	-4186
▁사투	-4187
▁새로	-4188
▁서울	-4189
▁스텝	-4190
▁우뢰	-4191
▁위험	-4192
▁임팩	-4193
▁잠시	-4194
▁찾는	-4195
▁하니	-4196
▁하아	-4197
점대는	-4198
▁교과서	-4199
▁높아서	-4200
▁돌아가	-4201
▁러시아	-4202
▁보기에	-4203
▁브루스	-4204
▁설정이	-4205
▁수많은	-4206
▁스릴도	-4207
▁스티븐	-4208
▁시간만	-4209
▁아프다	-4210
▁알았음	-4211
▁얼굴이	-4212
▁엔딩이	-4213
▁여자는	-4214
▁일부러	-4215
▁재미로	-4216
▁전개와	-4217
▁정신이	-4218
▁짜임새	-4219
▁흐르는	-4220
▁궁금하다	-4221
▁나오는데	-4222
▁드라마에	-4223
▁따뜻하고	-4224
▁연기력은	-4225
▁모르겠네요	-4226
▁객	-4227
▁르	-4228
▁헌	-4229
▁혜	-4230
벼운	-4231
세기	-4232
온다	-4233
전이	-4234
"""	-4235
▁공간	-4236
▁끄는	-4237
▁바탕	-4238
▁보셈	-4239
▁빠른	-4240
▁싫은	-4241
▁안됨	-4242
▁어지	-4243
▁어휴	-4244
▁언젠	-4245
▁자세	-4246
▁장국	-4247
▁흑인	-4248
심으로	-4249
▁같았다	-4250
▁다양한	-4251
▁않은데	-4252
▁없나요	-4253
▁여자들	-4254
▁원작에	-4255
▁일깨워	-4256
▁아니었다	-4257
▁아이들과	-4258
▁포스터가	-4259
▁W	-4260
▁밖	-4261
▁캬	-4262
겨서	-4263
부를	-4264
음을	-4265
일이	-4266
퓨터	-4267
▁꽤나	-4268
▁끼워	-4269
▁내게	-4270
▁따듯	-4271
▁마냥	-4272
▁손색	-4273
▁시점	-4274
▁안습	-4275
▁웃을	-4276
▁있긴	-4277
▁좋지	-4278
시간이	-4279
하는지	-4280
▁너무도	-4281
▁놀라운	-4282
▁놀랍다	-4283
▁느낌은	-4284
▁당연히	-4285
▁몰랐다	-4286
▁반드시	-4287
▁소름돋	-4288
▁숨겨진	-4289
▁영화야	-4290
▁오랜만	-4291
▁유일한	-4292
▁이연걸	-4293
▁있었고	-4294
▁편인데	-4295
미네이터	-4296
▁싶습니다	-4297
▁아쉬움이	-4298
▁웃으면서	-4299
▁유일하게	-4300
▁걱	-4301
▁덤	-4302
▁뽀	-4303
▁숙	-4304
▁쭉	-4305
라의	-4306
리며	-4307
만은	-4308
속에	-4309
티즌	-4310
함의	-4311
▁개성	-4312
▁나랑	-4313
▁달려	-4314
▁딴걸	-4315
▁면이	-4316
▁번씩	-4317
▁속편	-4318
▁승리	-4319
▁주윤	-4320
▁클래	-4321
▁터짐	-4322
▁한편	-4323
▁할지	-4324
거리가	-4325
그래도	-4326
영화는	-4327
?...	-4328
▁dvd	-4329
▁괜찮음	-4330
▁로버트	-4331
▁만드네	-4332
▁면에서	-4333
▁반전을	-4334
▁소재와	-4335
▁아류작	-4336
▁주제가	-4337
▁중학교	-4338
▁마음으로	-4339
▁사랑해요	-4340
▁쓸데없이	-4341
▁어색하고	-4342
▁주인공들	-4343
▁사람이라면	-4344
▁재미없어서	-4345
▁F	-4346
▁굴	-4347
▁늑	-4348
▁링	-4349
▁컬	-4350
더군	-4351
먹는	-4352
바이	-4353
어리	-4354
효과	-4355
▁김지	-4356
▁마르	-4357
▁못생	-4358
▁빠졌	-4359
▁씬은	-4360
▁애국	-4361
▁애매	-4362
▁오프	-4363
▁위대	-4364
▁재능	-4365
▁저급	-4366
▁적절	-4367
▁정작	-4368
▁컨셉	-4369
▁프리	-4370
▁드네요	-4371
▁뭐하는	-4372
▁불쌍한	-4373
▁시청자	-4374
▁영상과	-4375
▁주윤발	-4376
▁하나는	-4377
▁희망을	-4378
▁나름대로	-4379
▁해리포터	-4380
▁맙	-4381
▁왓	-4382
▁을	-4383
▁팝	-4384
▁혁	-4385
겠음	-4386
나다	-4387
돌아	-4388
래곤	-4389
리나	-4390
박한	-4391
신은	-4392
아아	-4393
으신	-4394
할까	-4395
▁가요	-4396
▁먹을	-4397
▁바이	-4398
▁반대	-4399
▁빠르	-4400
▁사용	-4401
▁아우	-4402
▁우연	-4403
▁정우	-4404
▁하품	-4405
▁환경	-4406
비디오	-4407
인데도	-4408
▁you	-4409
▁감독과	-4410
▁같지만	-4411
▁그립다	-4412
▁내용에	-4413
▁대박이	-4414
▁들어가	-4415
▁말아야	-4416
▁못하다	-4417
▁배트맨	-4418
▁불편한	-4419
▁속으로	-4420
▁손가락	-4421
▁왔는데	-4422
▁요소가	-4423
▁울리는	-4424
▁이름이	-4425
▁작가의	-4426
▁재밋는	-4427
▁집중이	-4428
▁추천해	-4429
▁아름답게	-4430
▁재미있을	-4431
▁재밌던데	-4432
▁클레멘타	-4433
▁곧	-4434
▁곽	-4435
▁앨	-4436
겠죠	-4437
물을	-4438
자나	-4439
주가	-4440
지요	-4441
치노	-4442
치지	-4443
▁of	-4444
▁동네	-4445
▁두려	-4446
▁마약	-4447
▁말해	-4448
▁망친	-4449
▁밀려	-4450
▁배신	-4451
▁법한	-4452
▁변화	-4453
▁보구	-4454
▁이렇	-4455
▁이은	-4456
▁인형	-4457
▁자본	-4458
▁잤다	-4459
▁죽어	-4460
▁진리	-4461
▁착각	-4462
▁추리	-4463
▁폭발	-4464
레이션	-4465
▁강렬한	-4466
▁들어서	-4467
▁멋지고	-4468
▁명장면	-4469
▁새벽에	-4470
▁짜증이	-4471
▁해야지	-4472
▁혹시나	-4473
▁궁금해서	-4474
▁드라마로	-4475
▁목소리가	-4476
▁여자친구	-4477
▁왔습니다	-4478
▁이상으로	-4479
▁재미없을	-4480
▁추천하고	-4481
▁케이블에서	-4482
▁꿀	-4483
▁랑	-4484
▁짬	-4485
보자	-4486
스크	-4487
슨이	-4488
영상	-4489
인도	-4490
장한	-4491
▁관점	-4492
▁극단	-4493
▁끝에	-4494
▁나무	-4495
▁루즈	-4496
▁망가	-4497
▁뭥미	-4498
▁미녀	-4499
▁볼까	-4500
▁시끄	-4501
▁죽인	-4502
▁했을	-4503
▁홍상	-4504
였으면	-4505
▁결론은	-4506
▁떨어짐	-4507
▁심하다	-4508
▁액션을	-4509
▁연출은	-4510
▁제니퍼	-4511
▁지금의	-4512
▁했더니	-4513
▁했어요	-4514
▁돋보이는	-4515
▁어이없는	-4516
▁영화감독	-4517
▁괜찮았는데	-4518
▁재미없다고	-4519
.0	-4520
ut	-4521
▁및	-4522
거든	-4523
나오	-4524
대박	-4525
함도	-4526
▁가야	-4527
▁감이	-4528
▁과학	-4529
▁독일	-4530
▁박수	-4531
▁배급	-4532
▁번쯤	-4533
▁부담	-4534
▁불안	-4535
▁뻐서	-4536
▁사무	-4537
▁선정	-4538
▁소피	-4539
▁실험	-4540
▁어째	-4541
▁이민	-4542
▁이소	-4543
▁즐겨	-4544
▁판단	-4545
▁평균	-4546
▁프레	-4547
▁하정	-4548
▁가득한	-4549
▁개노잼	-4550
▁끝나서	-4551
▁다르게	-4552
▁다르다	-4553
▁보이고	-4554
▁영화이	-4555
▁이해를	-4556
▁자체도	-4557
▁고등학교	-4558
▁터미네이터	-4559
▁u	-4560
▁액	-4561
▁잉	-4562
간도	-4563
든다	-4564
류의	-4565
묘한	-4566
분을	-4567
생에	-4568
전을	-4569
▁과정	-4570
▁덕에	-4571
▁몰라	-4572
▁묻어	-4573
▁보일	-4574
▁봤어	-4575
▁시시	-4576
▁아놀	-4577
▁와이	-4578
▁익숙	-4579
▁잊고	-4580
▁잠들	-4581
▁죽기	-4582
그리고	-4583
었다는	-4584
으려고	-4585
잖아요	-4586
▁그동안	-4587
▁단순히	-4588
▁멋있는	-4589
▁배경이	-4590
▁보이지	-4591
▁사운드	-4592
▁실화를	-4593
▁일본의	-4594
▁자동차	-4595
▁잘못된	-4596
▁제목만	-4597
▁컴퓨터	-4598
▁희대의	-4599
▁마이너스	-4600
▁아깝네요	-4601
▁할리우드	-4602
!!!!!!!!!!!!!!!!	-4603
.3	-4604
▁V	-4605
▁는	-4606
나이	-4607
던지	-4608
이제	-4609
▁김태	-4610
▁답이	-4611
▁디워	-4612
▁말은	-4613
▁봤지	-4614
▁분량	-4615
▁소개	-4616
▁웃는	-4617
▁유덕	-4618
▁유행	-4619
▁집어	-4620
▁풍자	-4621
▁호구	-4622
영화가	-4623
으로만	-4624
▁고양이	-4625
▁나이가	-4626
▁듭니다	-4627
▁만화책	-4628
▁매력에	-4629
▁모르겟	-4630
▁무서움	-4631
▁번이나	-4632
▁보라고	-4633
▁봤다는	-4634
▁사이코	-4635
▁스포츠	-4636
▁시트콤	-4637
▁앞에서	-4638
▁어른이	-4639
▁영화랑	-4640
▁일본은	-4641
▁전쟁의	-4642
▁최고봉	-4643
▁케릭터	-4644
▁2000	-4645
▁Good	-4646
▁배경음악	-4647
▁보았는데	-4648
▁불쌍하다	-4649
▁오랫만에	-4650
▁있었어요	-4651
▁한국에서	-4652
▁뗄	-4653
▁뭣	-4654
▁웅	-4655
▁쫓	-4656
▁털	-4657
강호	-4658
력을	-4659
분들	-4660
선을	-4661
어의	-4662
▁거북	-4663
▁늦게	-4664
▁담은	-4665
▁동양	-4666
▁두근	-4667
▁로코	-4668
▁뭐고	-4669
▁밤에	-4670
▁싶네	-4671
▁씬이	-4672
▁음식	-4673
▁힘내	-4674
만큼은	-4675
차라리	-4676
하고자	-4677
▁귀엽다	-4678
▁내용의	-4679
▁미치는	-4680
▁빠져서	-4681
▁사실을	-4682
▁싶다면	-4683
▁알겠다	-4684
▁어우러	-4685
▁제목을	-4686
▁조금은	-4687
▁소중함을	-4688
▁여주인공이	-4689
▁한국영화의	-4690
it	-4691
le	-4692
▁녀	-4693
▁앵	-4694
동생	-4695
말이	-4696
미는	-4697
아라	-4698
았을	-4699
주일	-4700
▁각색	-4701
▁거품	-4702
▁그들	-4703
▁길이	-4704
▁끔찍	-4705
▁당할	-4706
▁데뷔	-4707
▁되요	-4708
▁막히	-4709
▁반담	-4710
▁없었	-4711
▁유럽	-4712
▁이동	-4713
▁입장	-4714
▁잠이	-4715
▁천국	-4716
들이나	-4717
웠어요	-4718
점이다	-4719
한다고	-4720
...;	-4721
▁나에겐	-4722
▁네티즌	-4723
▁명복을	-4724
▁명작은	-4725
▁불가능	-4726
▁영화지	-4727
▁인생이	-4728
▁저평가	-4729
▁찾아볼	-4730
▁괜찮았다	-4731
▁드라마다	-4732
▁사람들을	-4733
▁재미있는데	-4734
▁땀	-4735
▁린	-4736
▁빙	-4737
▁쫄	-4738
▁쿵	-4739
▁협	-4740
랜드	-4741
러스	-4742
로의	-4743
봤다	-4744
시오	-4745
지면	-4746
▁극복	-4747
▁다녀	-4748
▁보려	-4749
▁삶이	-4750
▁서양	-4751
▁예산	-4752
▁우는	-4753
▁책임	-4754
▁한숨	-4755
▁흑백	-4756
캐스팅	-4757
▁무섭고	-4758
▁액션과	-4759
▁영원한	-4760
▁이보다	-4761
▁인터넷	-4762
▁적어도	-4763
▁찾아서	-4764
▁터지는	-4765
▁피해자	-4766
▁필요가	-4767
▁한국판	-4768
▁그렇지만	-4769
▁나오네요	-4770
▁시작부터	-4771
▁장면들이	-4772
▁킬링타임용으로	-4773
is	-4774
▁쪼	-4775
낸다	-4776
되서	-4777
드만	-4778
버스	-4779
보영	-4780
사에	-4781
상의	-4782
직한	-4783
했지	-4784
▁가수	-4785
▁강간	-4786
▁개나	-4787
▁글을	-4788
▁네요	-4789
▁됐다	-4790
▁런닝	-4791
▁번은	-4792
▁삭제	-4793
▁소화	-4794
▁어쩜	-4795
▁정상	-4796
▁쩌는	-4797
▁케빈	-4798
▁폭풍	-4799
▁혐오	-4800
기까지	-4801
나오는	-4802
보는데	-4803
식으로	-4804
어야지	-4805
해지고	-4806
.,.,	-4807
▁가까운	-4808
▁가족의	-4809
▁감독도	-4810
▁괜찮고	-4811
▁귀여움	-4812
▁드래곤	-4813
▁말밖에	-4814
▁소름끼	-4815
▁소재의	-4816
▁안에서	-4817
▁알았네	-4818
▁역사상	-4819
▁울면서	-4820
▁이토록	-4821
▁인간은	-4822
▁재개봉	-4823
▁했는지	-4824
▁기억나는	-4825
▁소장하고	-4826
▁시리즈의	-4827
▁아까워서	-4828
▁영상미가	-4829
▁영화예요	-4830
▁유치해서	-4831
▁재난영화	-4832
▁탄탄하고	-4833
▁포스터에	-4834
▁만들었을까	-4835
▁작품입니다	-4836
▁R	-4837
▁곰	-4838
▁널	-4839
▁맴	-4840
놨네	-4841
레인	-4842
분의	-4843
서는	-4844
세포	-4845
식의	-4846
아요	-4847
았음	-4848
였네	-4849
정한	-4850
했나	-4851
희가	-4852
▁거랑	-4853
▁거에	-4854
▁고맙	-4855
▁김치	-4856
▁꿈꾸	-4857
▁달콤	-4858
▁봤고	-4859
▁봤는	-4860
▁블루	-4861
▁빛을	-4862
▁쉽지	-4863
▁예수	-4864
▁읽는	-4865
▁자리	-4866
▁잡는	-4867
▁죄송	-4868
▁축구	-4869
▁흡입	-4870
스러워	-4871
었구나	-4872
▁갔는데	-4873
▁동시에	-4874
▁보시면	-4875
▁생각한	-4876
▁수준을	-4877
▁어렵다	-4878
▁적당한	-4879
▁짜집기	-4880
▁친구랑	-4881
▁허술한	-4882
▁황당한	-4883
▁느낌이다	-4884
▁드라마도	-4885
▁만들었나	-4886
▁쓸데없는	-4887
▁있었으면	-4888
▁전체적인	-4889
▁것만으로도	-4890
80	-4891
▁곡	-4892
▁뽕	-4893
▁삽	-4894
가에	-4895
기대	-4896
둥이	-4897
분한	-4898
제로	-4899
졌음	-4900
트는	-4901
▁걱정	-4902
▁것과	-4903
▁공주	-4904
▁기존	-4905
▁단어	-4906
▁담백	-4907
▁맞음	-4908
▁바닥	-4909
▁벗어	-4910
▁압도	-4911
▁잃어	-4912
▁제왕	-4913
▁조화	-4914
▁지경	-4915
▁최소	-4916
▁클라	-4917
▁테이	-4918
▁평소	-4919
▁피아	-4920
▁했나	-4921
▁호기	-4922
ovie	-4923
▁공짜로	-4924
▁교훈도	-4925
▁그것을	-4926
▁놀랐다	-4927
▁돈으로	-4928
▁메세지	-4929
▁생각만	-4930
▁세상이	-4931
▁아무튼	-4932
▁영상도	-4933
▁오프닝	-4934
▁웃기는	-4935
▁웃음만	-4936
▁기대하지	-4937
▁리얼리티	-4938
▁매력적이	-4939
▁자극적인	-4940
▁사랑합니다	-4941
▁시나리오가	-4942
▁재미있었음	-4943
99	-4944
강추	-4945
럽지	-4946
로드	-4947
성과	-4948
씬은	-4949
잡을	-4950
점주	-4951
정화	-4952
제가	-4953
지다	-4954
치가	-4955
트를	-4956
▁공중	-4957
▁김희	-4958
▁다신	-4959
▁들이	-4960
▁말투	-4961
▁무겁	-4962
▁무게	-4963
▁버전	-4964
▁브래	-4965
▁안감	-4966
▁역량	-4967
▁웬만	-4968
▁윌리	-4969
▁전화	-4970
▁줄리	-4971
▁쩔어	-4972
▁하셨	-4973
는데도	-4974
메이드	-4975
▁가벼운	-4976
▁거라고	-4977
▁것보다	-4978
▁게다가	-4979
▁그것이	-4980
▁인간들	-4981
▁자기가	-4982
▁전개는	-4983
▁제이슨	-4984
▁하자는	-4985
▁했으나	-4986
▁현실과	-4987
웠습니다	-4988
▁마지막엔	-4989
▁무엇인가	-4990
▁유쾌하게	-4991
▁있었습니다	-4992
▁전반적으로	-4993
...........	-4994
▁뚝	-4995
▁팍	-4996
란티	-4997
리와	-4998
마자	-4999
무지	-5000
버리	-5001
버림	-5002
봐도	-5003
부는	-5004
부로	-5005
상은	-5006
스릴	-5007
전쟁	-5008
후의	-5009
▁갖다	-5010
▁객관	-5011
▁거장	-5012
▁구조	-5013
▁난잡	-5014
▁되냐	-5015
▁드문	-5016
▁류승	-5017
▁분이	-5018
▁비중	-5019
▁빨갱	-5020
▁아담	-5021
▁아만	-5022
▁아팠	-5023
▁없던	-5024
▁요새	-5025
▁잘해	-5026
▁즐길	-5027
▁콜린	-5028
▁허허	-5029
▁힘을	-5030
임에도	-5031
▁당시엔	-5032
▁미국의	-5033
▁빛나는	-5034
▁상하고	-5035
▁윌리스	-5036
▁일어나	-5037
▁적절한	-5038
▁짜증만	-5039
▁최소한	-5040
▁배우들을	-5041
▁싶었는데	-5042
▁영화라서	-5043
▁장난하냐	-5044
▁빕	-5045
▁씀	-5046
▁옳	-5047
▁젖	-5048
▁큐	-5049
기와	-5050
상에	-5051
씨는	-5052
우의	-5053
웠고	-5054
정의	-5055
하길	-5056
▁개똥	-5057
▁고독	-5058
▁기자	-5059
▁담긴	-5060
▁도둑	-5061
▁들게	-5062
▁몽환	-5063
▁반영	-5064
▁부정	-5065
▁어쨌	-5066
▁엑소	-5067
▁엑스	-5068
▁열자	-5069
▁왤케	-5070
▁일으	-5071
▁잃은	-5072
▁진한	-5073
▁찾을	-5074
▁첩보	-5075
▁키스	-5076
▁파격	-5077
들한테	-5078
자들의	-5079
적으론	-5080
하거나	-5081
▁드디어	-5082
▁라스트	-5083
▁반전에	-5084
▁보기가	-5085
▁아무도	-5086
▁아진짜	-5087
▁않았던	-5088
▁여자를	-5089
▁연기의	-5090
▁왠만한	-5091
▁은근히	-5092
▁의도가	-5093
▁이미지	-5094
▁인생은	-5095
▁첨부터	-5096
▁하다니	-5097
▁화장실	-5098
▁후속작	-5099
▁갠적으로	-5100
▁나레이션	-5101
▁수작이다	-5102
▁시작해서	-5103
▁언제까지	-5104
▁특수효과	-5105
▁포스터만	-5106
▁해주세요	-5107
▁드라마입니다	-5108
▁재미있었습니다	-5109
ow	-5110
▁v	-5111
▁값	-5112
▁곱	-5113
▁껏	-5114
▁엮	-5115
도를	-5116
들고	-5117
래도	-5118
모로	-5119
아야	-5120
아주	-5121
애가	-5122
였나	-5123
였을	-5124
으리	-5125
최악	-5126
▁기고	-5127
▁깡패	-5128
▁깨알	-5129
▁나간	-5130
▁도시	-5131
▁도전	-5132
▁돋는	-5133
▁듣는	-5134
▁등록	-5135
▁로빈	-5136
▁리즈	-5137
▁매미	-5138
▁묘한	-5139
▁무의	-5140
▁밝혀	-5141
▁빵빵	-5142
▁빵점	-5143
▁선동	-5144
▁속이	-5145
▁신이	-5146
▁애가	-5147
▁어둡	-5148
▁요리	-5149
▁자아	-5150
▁잘하	-5151
▁장동	-5152
▁재수	-5153
▁잼잇	-5154
▁졸업	-5155
▁즐기	-5156
▁짜릿	-5157
▁차별	-5158
▁탁월	-5159
들끼리	-5160
라이언	-5161
▁누군지	-5162
▁라이언	-5163
▁모습은	-5164
▁사람만	-5165
▁소리가	-5166
▁역겨운	-5167
▁외계인	-5168
▁이름을	-5169
▁전개에	-5170
▁표현이	-5171
...;;	-5172
▁2012	-5173
▁귀여워요	-5174
▁모르지만	-5175
▁배경으로	-5176
▁시리즈를	-5177
▁울었어요	-5178
▁이것보단	-5179
▁블랙코미디	-5180
▁영화라지만	-5181
as	-5182
od	-5183
▁찢	-5184
▁획	-5185
가요	-5186
번은	-5187
스와	-5188
원은	-5189
자로	-5190
중훈	-5191
진이	-5192
판이	-5193
▁강한	-5194
▁나고	-5195
▁내일	-5196
▁리의	-5197
▁만약	-5198
▁말씀	-5199
▁망할	-5200
▁매끄	-5201
▁모아	-5202
▁무난	-5203
▁믿지	-5204
▁부활	-5205
▁상징	-5206
▁속지	-5207
▁약한	-5208
▁억울	-5209
▁연습	-5210
▁준비	-5211
▁직업	-5212
▁키드	-5213
▁킬러	-5214
란티노	-5215
인들의	-5216
▁,,,	-5217
▁4.4	-5218
▁공감도	-5219
▁구성도	-5220
▁남기는	-5221
▁동영상	-5222
▁들어간	-5223
▁말인가	-5224
▁보아도	-5225
▁살인마	-5226
▁상황이	-5227
▁설득력	-5228
▁싶지만	-5229
▁아이를	-5230
▁아이언	-5231
▁알바가	-5232
▁영화란	-5233
▁요즘은	-5234
▁이소룡	-5235
▁진지한	-5236
▁크루즈	-5237
▁괜찮았음	-5238
▁되었는데	-5239
▁뜬금없는	-5240
▁만들어낸	-5241
▁없었는데	-5242
▁짜증나게	-5243
▁최고네요	-5244
▁.....	-5245
▁캐릭터들이	-5246
▁감동적이네요	-5247
▁H	-5248
▁걷	-5249
▁석	-5250
▁섭	-5251
▁쌩	-5252
▁앙	-5253
▁컷	-5254
구가	-5255
라노	-5256
먹고	-5257
슨의	-5258
어이	-5259
영의	-5260
재밋	-5261
▁괜찬	-5262
▁내는	-5263
▁녹아	-5264
▁던져	-5265
▁될까	-5266
▁많네	-5267
▁맞춘	-5268
▁머릿	-5269
▁목적	-5270
▁뮤직	-5271
▁보라	-5272
▁선사	-5273
▁소년	-5274
▁시켜	-5275
▁쏟아	-5276
▁아아	-5277
▁알파	-5278
▁원숭	-5279
▁이지	-5280
▁인종	-5281
▁절망	-5282
▁정준	-5283
▁캐릭	-5284
▁코드	-5285
▁평화	-5286
레이드	-5287
습니까	-5288
재미없	-5289
프리오	-5290
하시는	-5291
▁괜찮게	-5292
▁느끼고	-5293
▁모른다	-5294
▁보느니	-5295
▁뻔했다	-5296
▁상황을	-5297
▁시절의	-5298
▁아프고	-5299
▁허무한	-5300
았습니다	-5301
▁감정이입	-5302
▁돌아보게	-5303
▁오글오글	-5304
▁짜증나는	-5305
▁했습니다	-5306
▁사람들에게	-5307
▁재미있었는데	-5308
ot	-5309
▁쁜	-5310
가족	-5311
그러	-5312
더맨	-5313
도의	-5314
들러	-5315
라에	-5316
민이	-5317
악한	-5318
의를	-5319
잖은	-5320
쥬얼	-5321
▁고뇌	-5322
▁그로	-5323
▁기획	-5324
▁내요	-5325
▁놀란	-5326
▁놀래	-5327
▁돼지	-5328
▁되야	-5329
▁만남	-5330
▁배꼽	-5331
▁버림	-5332
▁베리	-5333
▁봤나	-5334
▁숨은	-5335
▁신은	-5336
▁신인	-5337
▁쓸쓸	-5338
▁역겹	-5339
▁일베	-5340
▁임창	-5341
▁잠을	-5342
▁저냥	-5343
▁전성	-5344
▁절제	-5345
▁짬뽕	-5346
▁트랜	-5347
▁평을	-5348
▁향연	-5349
...1	-5350
▁게스트	-5351
▁공포를	-5352
▁빕니다	-5353
▁살아야	-5354
▁시간도	-5355
▁싶으면	-5356
▁영화일	-5357
▁있으나	-5358
▁제시카	-5359
▁풋풋한	-5360
▁했을까	-5361
▁홍상수	-5362
으면서도	-5363
했었는데	-5364
▁모르겠네	-5365
▁못하겠다	-5366
▁부분에서	-5367
▁어설프고	-5368
▁연기력에	-5369
▁예술영화	-5370
▁인상적인	-5371
▁입장에서	-5372
▁잔잔하게	-5373
▁재밌었던	-5374
▁캐릭터를	-5375
zz	-5376
▁덴	-5377
▁벅	-5378
▁찔	-5379
▁핑	-5380
님들	-5381
님은	-5382
므로	-5383
부가	-5384
성한	-5385
우스	-5386
작가	-5387
..!	-5388
▁16	-5389
▁말라	-5390
▁망치	-5391
▁멋짐	-5392
▁버튼	-5393
▁별반	-5394
▁아카	-5395
▁양아	-5396
▁오우	-5397
▁재방	-5398
▁점은	-5399
▁정당	-5400
▁줘도	-5401
▁지지	-5402
▁찍지	-5403
▁총체	-5404
▁치유	-5405
▁포함	-5406
▁피터	-5407
▁황정	-5408
기에는	-5409
시키지	-5410
었다고	-5411
▁EBS	-5412
▁그들이	-5413
▁나가는	-5414
▁당신의	-5415
▁더빙이	-5416
▁똑같이	-5417
▁메시지	-5418
▁문제를	-5419
▁뭐라고	-5420
▁미스테	-5421
▁박중훈	-5422
▁보았던	-5423
▁어두운	-5424
▁영화평	-5425
▁웃었다	-5426
▁있었을	-5427
▁장면만	-5428
▁지루하	-5429
▁하이틴	-5430
▁만들어라	-5431
▁말하려는	-5432
▁세상에서	-5433
▁순수하고	-5434
▁아이디어	-5435
▁웰메이드	-5436
▁잘하네요	-5437
▁사랑스럽다	-5438
▁아이들에게	-5439
▁좋겠습니다	-5440
20	-5441
▁람	-5442
▁몫	-5443
▁뺏	-5444
▁숀	-5445
▁쿨	-5446
나도	-5447
니가	-5448
드리	-5449
로로	-5450
민의	-5451
발이	-5452
분은	-5453
사와	-5454
웨이	-5455
위원	-5456
이걸	-5457
졌던	-5458
..;	-5459
▁2,	-5460
▁th	-5461
▁개콘	-5462
▁공유	-5463
▁끝을	-5464
▁남고	-5465
▁담담	-5466
▁대결	-5467
▁뒤죽	-5468
▁드니	-5469
▁디카	-5470
▁마누	-5471
▁보나	-5472
▁부산	-5473
▁불과	-5474
▁비호	-5475
▁생명	-5476
▁소지	-5477
▁소통	-5478
▁심장	-5479
▁예측	-5480
▁온다	-5481
▁우선	-5482
▁워낙	-5483
▁위에	-5484
▁자고	-5485
▁절로	-5486
▁좋겟	-5487
▁찍을	-5488
▁창피	-5489
▁초중	-5490
까지만	-5491
인지도	-5492
점부터	-5493
▁개그맨	-5494
▁그럴듯	-5495
▁깔끔한	-5496
▁나올까	-5497
▁낫겠다	-5498
▁다시금	-5499
▁당신이	-5500
▁대사도	-5501
▁만들기	-5502
▁별로임	-5503
▁보고도	-5504
▁생각은	-5505
▁섬세한	-5506
▁아쉬울	-5507
▁어디로	-5508
▁원하는	-5509
▁유치해	-5510
▁중학생	-5511
▁쓰레기는	-5512
▁아버지의	-5513
▁어울리지	-5514
▁영화들이	-5515
▁제작비가	-5516
▁진지하게	-5517
▁캐릭터도	-5518
▁되었습니다	-5519
▁생각해보게	-5520
▁영화보다가	-5521
▁오글거리는	-5522
▁좋아하지만	-5523
ck	-5524
es	-5525
▁J	-5526
▁뎅	-5527
▁삐	-5528
▁족	-5529
▁핸	-5530
▁혀	-5531
감과	-5532
개가	-5533
개는	-5534
겼다	-5535
들로	-5536
여진	-5537
워즈	-5538
인에	-5539
일본	-5540
져야	-5541
초에	-5542
팔이	-5543
희의	-5544
▁가히	-5545
▁격투	-5546
▁공룡	-5547
▁공연	-5548
▁그가	-5549
▁글고	-5550
▁맡은	-5551
▁미션	-5552
▁보임	-5553
▁본질	-5554
▁부러	-5555
▁않네	-5556
▁암울	-5557
▁어리	-5558
▁원조	-5559
▁지겨	-5560
▁찾기	-5561
▁칭찬	-5562
▁것인지	-5563
▁공포가	-5564
▁굿굿굿	-5565
▁그려낸	-5566
▁극장에	-5567
▁뒤죽박	-5568
▁멋있고	-5569
▁멋지게	-5570
▁무거운	-5571
▁미국식	-5572
▁보지도	-5573
▁아이유	-5574
▁연기로	-5575
▁이제는	-5576
▁취향은	-5577
▁하나요	-5578
▁하정우	-5579
▁긴장감을	-5580
▁마지막은	-5581
▁만들었냐	-5582
▁볼만하다	-5583
▁아이들의	-5584
▁연출력이	-5585
▁재미없고	-5586
▁캐스팅이	-5587
▁타란티노	-5588
!!!!!!	-5589
▁아깝습니다	-5590
▁둔	-5591
▁짤	-5592
▁홈	-5593
림이	-5594
봐라	-5595
습니	-5596
아나	-5597
아이	-5598
위가	-5599
으러	-5600
일관	-5601
조현	-5602
줬다	-5603
쯧쯧	-5604
패스	-5605
하러	-5606
?..	-5607
▁고딩	-5608
▁고어	-5609
▁굳굳	-5610
▁난리	-5611
▁넣은	-5612
▁높지	-5613
▁늑대	-5614
▁단체	-5615
▁데스	-5616
▁뜨고	-5617
▁리암	-5618
▁만났	-5619
▁맞나	-5620
▁매번	-5621
▁명이	-5622
▁밑도	-5623
▁방향	-5624
▁보네	-5625
▁스피	-5626
▁실수	-5627
▁엘리	-5628
▁올레	-5629
▁욕이	-5630
▁유리	-5631
▁지가	-5632
▁참나	-5633
▁커서	-5634
▁하냐	-5635
▁혼란	-5636
까지도	-5637
적이라	-5638
했으나	-5639
▁나오나	-5640
▁낮네요	-5641
▁내생에	-5642
▁눈으로	-5643
▁달리는	-5644
▁됐는데	-5645
▁미소가	-5646
▁방사수	-5647
▁보여줄	-5648
▁비쥬얼	-5649
▁빠지게	-5650
▁송강호	-5651
▁연기만	-5652
▁유덕화	-5653
▁음악은	-5654
▁일주일	-5655
▁좋으나	-5656
▁하지도	-5657
▁답답하다	-5658
▁생각난다	-5659
▁아니잖아	-5660
▁이거보다	-5661
▁충격적이	-5662
▁형편없는	-5663
▁흘러가는	-5664
▁옮	-5665
▁찐	-5666
▁쾌	-5667
가를	-5668
든가	-5669
들어	-5670
선이	-5671
셔야	-5672
아누	-5673
엇다	-5674
트로	-5675
▁17	-5676
▁23	-5677
▁MB	-5678
▁가짜	-5679
▁고문	-5680
▁곳이	-5681
▁나빠	-5682
▁넣어	-5683
▁도와	-5684
▁듣기	-5685
▁맞다	-5686
▁모욕	-5687
▁물어	-5688
▁민주	-5689
▁방해	-5690
▁버릴	-5691
▁본지	-5692
▁분은	-5693
▁비하	-5694
▁삶과	-5695
▁실감	-5696
▁어딘	-5697
▁여친	-5698
▁엽기	-5699
▁우디	-5700
▁의외	-5701
▁전도	-5702
▁지상	-5703
▁차승	-5704
▁찬양	-5705
▁클로	-5706
더라고	-5707
▁2.2	-5708
▁가네요	-5709
▁관객이	-5710
▁그리워	-5711
▁김수현	-5712
▁남자는	-5713
▁못해서	-5714
▁벗어나	-5715
▁부자연	-5716
▁브래드	-5717
▁살렸다	-5718
▁시도는	-5719
▁어쩌면	-5720
▁없어도	-5721
▁우리나	-5722
▁웃음을	-5723
▁이루어	-5724
▁조금만	-5725
▁첨이다	-5726
▁한번쯤	-5727
▁뒤죽박죽	-5728
▁아쉬워요	-5729
▁알파치노	-5730
▁어설프다	-5731
▁영화인지	-5732
▁장난하나	-5733
▁충격적인	-5734
al	-5735
▁덮	-5736
▁락	-5737
▁뻥	-5738
▁컸	-5739
▁쿡	-5740
▁폰	-5741
갔다	-5742
나의	-5743
다시	-5744
바로	-5745
신을	-5746
요즘	-5747
원을	-5748
제발	-5749
증이	-5750
치의	-5751
형님	-5752
후반	-5753
▁25	-5754
▁is	-5755
▁긴박	-5756
▁길을	-5757
▁남성	-5758
▁다름	-5759
▁당장	-5760
▁대부	-5761
▁레옹	-5762
▁마법	-5763
▁말까	-5764
▁머냐	-5765
▁머야	-5766
▁명의	-5767
▁박신	-5768
▁빠질	-5769
▁소유	-5770
▁에드	-5771
▁에서	-5772
▁오지	-5773
▁올드	-5774
▁우린	-5775
▁이다	-5776
▁이쁨	-5777
▁이성	-5778
▁지는	-5779
▁치곤	-5780
▁치는	-5781
▁태국	-5782
▁하긴	-5783
가지고	-5784
겠다고	-5785
라이즈	-5786
점이나	-5787
했다면	-5788
▁가족을	-5789
▁기다려	-5790
▁나왔던	-5791
▁넘어서	-5792
▁떨어뜨	-5793
▁만드나	-5794
▁무간도	-5795
▁바라는	-5796
▁박진감	-5797
▁설정은	-5798
▁아니네	-5799
▁애니는	-5800
▁액션의	-5801
▁어디에	-5802
▁없을까	-5803
▁역사에	-5804
▁영상은	-5805
▁오로지	-5806
▁있으니	-5807
▁재밋고	-5808
▁티비로	-5809
▁표현해	-5810
드립니다	-5811
▁독특하고	-5812
▁만화영화	-5813
▁바탕으로	-5814
▁스타워즈	-5815
▁시리즈가	-5816
▁않습니다	-5817
▁엄청나게	-5818
▁이야기의	-5819
▁최고라고	-5820
▁캐릭터들	-5821
▁디카프리오	-5822
▁만들었으면	-5823
▁미스캐스팅	-5824
▁스파이더맨	-5825
????????	-5826
.!	-5827
90	-5828
▁갱	-5829
▁곤	-5830
▁롤	-5831
▁쏠	-5832
▁얄	-5833
▁측	-5834
늦게	-5835
로그	-5836
불가	-5837
생이	-5838
스에	-5839
연이	-5840
였지	-5841
요한	-5842
이든	-5843
▁건질	-5844
▁낮추	-5845
▁놈이	-5846
▁닿는	-5847
▁들여	-5848
▁마찬	-5849
▁멋져	-5850
▁무식	-5851
▁민족	-5852
▁반응	-5853
▁비록	-5854
▁뻔뻔	-5855
▁수록	-5856
▁쉬운	-5857
▁시험	-5858
▁앞서	-5859
▁애잔	-5860
▁역겨	-5861
▁연상	-5862
▁옆에	-5863
▁왕가	-5864
▁이란	-5865
▁이정	-5866
▁조지	-5867
▁참을	-5868
▁틈이	-5869
▁펼쳐	-5870
▁했네	-5871
년대에	-5872
답니다	-5873
졌어요	-5874
졌으면	-5875
한테는	-5876
▁공포는	-5877
▁과정이	-5878
▁끼치는	-5879
▁나와야	-5880
▁닥치고	-5881
▁따위로	-5882
▁무섭지	-5883
▁믿기지	-5884
▁별점이	-5885
▁부르는	-5886
▁빨갱이	-5887
▁성룡의	-5888
▁세월이	-5889
▁아무나	-5890
▁안무섭	-5891
▁애니를	-5892
▁애니매	-5893
▁영화계	-5894
▁웃겼다	-5895
▁치고는	-5896
▁페이크	-5897
▁하기엔	-5898
▁현실은	-5899
▁흥미를	-5900
▁별로였다	-5901
▁살아있는	-5902
▁스토리나	-5903
▁쓰레기를	-5904
▁아깝다는	-5905
▁아닌가요	-5906
▁여러모로	-5907
▁완성도가	-5908
▁지루하기	-5909
▁현실적이	-5910
▁드라마라고	-5911
▁사랑스럽고	-5912
▁억지스럽고	-5913
ay	-5914
ed	-5915
▁규	-5916
▁껀	-5917
▁샌	-5918
▁셈	-5919
▁쌓	-5920
▁썰	-5921
▁찜	-5922
관계	-5923
께서	-5924
능력	-5925
롭고	-5926
루토	-5927
리로	-5928
만도	-5929
문에	-5930
순이	-5931
없고	-5932
워드	-5933
위를	-5934
으셨	-5935
지현	-5936
치를	-5937
▁to	-5938
▁국어	-5939
▁기적	-5940
▁나중	-5941
▁남친	-5942
▁대학	-5943
▁마녀	-5944
▁모른	-5945
▁발랄	-5946
▁사과	-5947
▁섬뜩	-5948
▁스톤	-5949
▁시종	-5950
▁싶게	-5951
▁어떠	-5952
▁연관	-5953
▁의사	-5954
▁재앙	-5955
▁절정	-5956
▁정재	-5957
▁코스	-5958
▁포켓	-5959
▁호불	-5960
▁화질	-5961
리스트	-5962
시리즈	-5963
하고는	-5964
▁가족애	-5965
▁괜찮을	-5966
▁놈들은	-5967
▁느껴질	-5968
▁만화가	-5969
▁말았다	-5970
▁모습에	-5971
▁무서웠	-5972
▁바란다	-5973
▁박보영	-5974
▁받았다	-5975
▁봤는지	-5976
▁살아가	-5977
▁속았다	-5978
▁시간은	-5979
▁아마추	-5980
▁여운도	-5981
▁왕조현	-5982
▁있나요	-5983
▁점에서	-5984
▁트랜스	-5985
▁만들었네	-5986
▁아기자기	-5987
▁아니라면	-5988
▁있겠지만	-5989
▁캐릭터는	-5990
▁movie	-5991
▁애니매이션	-5992
bb	-5993
im	-5994
tt	-5995
▁탕	-5996
▁힙	-5997
구라	-5998
다운	-5999
답게	-6000
도로	-6001
렸던	-6002
번에	-6003
살인	-6004
스틱	-6005
어스	-6006
트릭	-6007
..2	-6008
▁가라	-6009
▁감수	-6010
▁구경	-6011
▁꺼면	-6012
▁끝남	-6013
▁나왓	-6014
▁남의	-6015
▁녀석	-6016
▁노무	-6017
▁담고	-6018
▁떡밥	-6019
▁미쳐	-6020
▁반도	-6021
▁발음	-6022
▁베일	-6023
▁상큼	-6024
▁스펙	-6025
▁안쓰	-6026
▁여신	-6027
▁영구	-6028
▁오해	-6029
▁이나	-6030
▁이때	-6031
▁이를	-6032
▁인권	-6033
▁중딩	-6034
▁출신	-6035
▁호흡	-6036
납니다	-6037
던데요	-6038
리네요	-6039
리면서	-6040
였다면	-6041
▁고인의	-6042
▁다니는	-6043
▁되돌아	-6044
▁된다고	-6045
▁마르소	-6046
▁만화를	-6047
▁명배우	-6048
▁무섭게	-6049
▁받아야	-6050
▁봣어요	-6051
▁시대가	-6052
▁여기에	-6053
▁영화적	-6054
▁웃겨서	-6055
▁있어도	-6056
▁조잡한	-6057
▁죽음을	-6058
▁키아누	-6059
▁포켓몬	-6060
▁하시는	-6061
▁후하게	-6062
▁괜찮네요	-6063
▁나머지는	-6064
▁몰입도도	-6065
▁싶어지는	-6066
▁알려주는	-6067
▁정신병자	-6068
▁짜증나서	-6069
▁할아버지	-6070
▁행복하게	-6071
▁하나하나가	-6072
▁감동적입니다	-6073
.8	-6074
11	-6075
am	-6076
ig	-6077
▁록	-6078
▁벽	-6079
▁콧	-6080
▁퀴	-6081
▁탱	-6082
▁혈	-6083
관을	-6084
더더	-6085
동근	-6086
롭게	-6087
무슨	-6088
버릴	-6089
아무	-6090
어를	-6091
예진	-6092
원에	-6093
저리	-6094
점준	-6095
제를	-6096
▁간에	-6097
▁끄고	-6098
▁납득	-6099
▁넘은	-6100
▁넘쳐	-6101
▁능가	-6102
▁딸이	-6103
▁맞은	-6104
▁모니	-6105
▁박찬	-6106
▁분장	-6107
▁브로	-6108
▁새록	-6109
▁수면	-6110
▁싸우	-6111
▁쓰러	-6112
▁온갖	-6113
▁인류	-6114
▁주면	-6115
▁중심	-6116
▁지옥	-6117
▁진수	-6118
▁참여	-6119
▁초월	-6120
▁티가	-6121
▁하군	-6122
▁감성이	-6123
▁곳에서	-6124
▁그럴싸	-6125
▁그림체	-6126
▁도무지	-6127
▁멋져요	-6128
▁못했던	-6129
▁살아남	-6130
▁쓰는데	-6131
▁아만다	-6132
▁애들도	-6133
▁양아치	-6134
▁이상이	-6135
▁재밋어	-6136
▁절대로	-6137
▁짜증남	-6138
▁차이가	-6139
▁첨으로	-6140
▁충분한	-6141
▁카메론	-6142
▁피아노	-6143
▁4.44	-6144
▁괜찮았던	-6145
▁분위기는	-6146
▁빠져들게	-6147
▁사람에게	-6148
▁스릴러물	-6149
▁여자들이	-6150
▁중에서도	-6151
▁쁨	-6152
▁셋	-6153
▁숭	-6154
▁쉴	-6155
▁폼	-6156
겠어	-6157
데미	-6158
스텔	-6159
일러	-6160
임이	-6161
장난	-6162
주행	-6163
차피	-6164
프레	-6165
▁갖게	-6166
▁걸린	-6167
▁고향	-6168
▁권상	-6169
▁난무	-6170
▁날아	-6171
▁니가	-6172
▁니네	-6173
▁로망	-6174
▁마니	-6175
▁먹칠	-6176
▁멋잇	-6177
▁몰아	-6178
▁방황	-6179
▁본색	-6180
▁부인	-6181
▁살았	-6182
▁상대	-6183
▁생기	-6184
▁성형	-6185
▁센스	-6186
▁스필	-6187
▁심사	-6188
▁씨가	-6189
▁아메	-6190
▁앉아	-6191
▁애틋	-6192
▁우왕	-6193
▁원주	-6194
▁의견	-6195
▁입고	-6196
▁자는	-6197
▁조기	-6198
▁채워	-6199
▁패션	-6200
▁피식	-6201
▁해외	-6202
▁허나	-6203
시키고	-6204
옵니다	-6205
하기에	-6206
▁com	-6207
▁감성을	-6208
▁같다는	-6209
▁거기다	-6210
▁관심이	-6211
▁기대되	-6212
▁나왔을	-6213
▁느낌도	-6214
▁니들이	-6215
▁덩어리	-6216
▁때리고	-6217
▁떨어져	-6218
▁사회의	-6219
▁설명이	-6220
▁소리만	-6221
▁수작이	-6222
▁슈퍼맨	-6223
▁아빠가	-6224
▁않았음	-6225
▁애초에	-6226
▁얘기를	-6227
▁어울림	-6228
▁없으니	-6229
▁영화판	-6230
▁오리지	-6231
▁음악을	-6232
▁이라는	-6233
▁이러지	-6234
▁이만한	-6235
▁이상도	-6236
▁작가는	-6237
▁장르를	-6238
▁재밌었	-6239
▁제목에	-6240
▁좋더라	-6241
▁충격이	-6242
▁취향이	-6243
▁표정이	-6244
▁한심한	-6245
▁햇는데	-6246
▁감독에게	-6247
▁느껴지지	-6248
▁보이지만	-6249
▁스토리로	-6250
▁아니네요	-6251
▁아버지가	-6252
▁오랫동안	-6253
▁완벽하게	-6254
▁완벽하다	-6255
▁지루함을	-6256
▁놔	-6257
▁똘	-6258
▁밴	-6259
▁핀	-6260
가가	-6261
구의	-6262
내지	-6263
느냐	-6264
르게	-6265
몰입	-6266
문화	-6267
바타	-6268
보네	-6269
분도	-6270
살이	-6271
승우	-6272
싸움	-6273
이도	-6274
자와	-6275
한국	-6276
해져	-6277
▁99	-6278
▁곳에	-6279
▁극본	-6280
▁길래	-6281
▁나열	-6282
▁낚인	-6283
▁넘치	-6284
▁더더	-6285
▁문득	-6286
▁반갑	-6287
▁버무	-6288
▁번역	-6289
▁보소	-6290
▁본격	-6291
▁본능	-6292
▁불법	-6293
▁비참	-6294
▁스토	-6295
▁없구	-6296
▁연인	-6297
▁웃김	-6298
▁작화	-6299
▁저러	-6300
▁조차	-6301
▁최대	-6302
▁치료	-6303
▁커버	-6304
▁편은	-6305
▁하드	-6306
▁한효	-6307
▁회상	-6308
도대체	-6309
라지만	-6310
보세요	-6311
원에서	-6312
하자는	-6313
하자면	-6314
했을까	-6315
...!	-6316
very	-6317
▁결국은	-6318
▁나이트	-6319
▁다세포	-6320
▁데이빗	-6321
▁따라가	-6322
▁때우기	-6323
▁맙시다	-6324
▁맞추기	-6325
▁매력적	-6326
▁명성에	-6327
▁못하네	-6328
▁비호감	-6329
▁살리지	-6330
▁성인이	-6331
▁않아도	-6332
▁임팩트	-6333
▁정도다	-6334
▁진실을	-6335
▁최악임	-6336
▁타임이	-6337
▁편하게	-6338
▁풀어낸	-6339
▁해준다	-6340
▁당시에는	-6341
▁시종일관	-6342
▁억지스런	-6343
▁영상미도	-6344
▁오글거림	-6345
▁왠만하면	-6346
▁우리에게	-6347
▁인생에서	-6348
▁힘들었다	-6349
▁영화였는데	-6350
▁오그라드는	-6351
▁이렇게까지	-6352
▁자연스럽게	-6353
▁주인공들이	-6354
▁애니메이션이	-6355
▁재밌었습니다	-6356
▁썸	-6357
▁즉	-6358
▁짙	-6359
간에	-6360
극장	-6361
대에	-6362
되게	-6363
렸음	-6364
버려	-6365
사람	-6366
스레	-6367
스카	-6368
아리	-6369
았네	-6370
영은	-6371
저것	-6372
주지	-6373
타쿠	-6374
회가	-6375
히고	-6376
▁it	-6377
▁가정	-6378
▁간단	-6379
▁김명	-6380
▁넘넘	-6381
▁더러	-6382
▁등이	-6383
▁멘탈	-6384
▁모독	-6385
▁무어	-6386
▁미학	-6387
▁배울	-6388
▁보석	-6389
▁수사	-6390
▁신화	-6391
▁엉뚱	-6392
▁연주	-6393
▁완젼	-6394
▁외면	-6395
▁욕심	-6396
▁욕을	-6397
▁우승	-6398
▁월드	-6399
▁위안	-6400
▁음모	-6401
▁음향	-6402
▁이럼	-6403
▁이탈	-6404
▁재탕	-6405
▁졸리	-6406
▁주관	-6407
▁짜리	-6408
▁쳐도	-6409
▁터져	-6410
▁파고	-6411
내용도	-6412
부터는	-6413
점으로	-6414
하기는	-6415
하기엔	-6416
해야지	-6417
..!!	-6418
▁가족과	-6419
▁같기도	-6420
▁개꿀잼	-6421
▁나왔음	-6422
▁남기고	-6423
▁넘어가	-6424
▁노래는	-6425
▁놈들이	-6426
▁되어야	-6427
▁뒤늦게	-6428
▁마시고	-6429
▁문제는	-6430
▁밋밋한	-6431
▁보여서	-6432
▁새끼들	-6433
▁세계를	-6434
▁세련된	-6435
▁스타뎀	-6436
▁심장이	-6437
▁얘기가	-6438
▁어린애	-6439
▁엔딩은	-6440
▁왔어요	-6441
▁윌리엄	-6442
▁잊혀지	-6443
▁장르의	-6444
▁타임용	-6445
스러웠다	-6446
▁개인적인	-6447
▁느껴졌다	-6448
▁마찬가지	-6449
▁부족하고	-6450
▁생각하지	-6451
▁싫어하는	-6452
▁아까워요	-6453
▁아니라는	-6454
▁재밋네요	-6455
▁캐스팅은	-6456
▁크리스찬	-6457
▁자연스러운	-6458
▁좋아하네요	-6459
▁주인공들의	-6460
!?	-6461
▁딜	-6462
▁쏴	-6463
가운	-6464
구역	-6465
기나	-6466
나와	-6467
무서	-6468
부의	-6469
비에	-6470
스코	-6471
시가	-6472
실망	-6473
의식	-6474
자면	-6475
쩡한	-6476
▁가네	-6477
▁가만	-6478
▁강아	-6479
▁갖춘	-6480
▁개잼	-6481
▁과도	-6482
▁구할	-6483
▁권력	-6484
▁귀찮	-6485
▁노는	-6486
▁던지	-6487
▁따분	-6488
▁막상	-6489
▁말지	-6490
▁매주	-6491
▁미달	-6492
▁박시	-6493
▁쁘다	-6494
▁삶은	-6495
▁색채	-6496
▁생존	-6497
▁설경	-6498
▁성의	-6499
▁실사	-6500
▁알지	-6501
▁여유	-6502
▁열라	-6503
▁외엔	-6504
▁인건	-6505
▁저지	-6506
▁주온	-6507
▁중년	-6508
▁지겹	-6509
▁지독	-6510
▁지원	-6511
▁집단	-6512
▁찾고	-6513
▁처절	-6514
▁커피	-6515
▁특집	-6516
▁bad	-6517
▁가까이	-6518
▁가치도	-6519
▁거기서	-6520
▁게임을	-6521
▁나루토	-6522
▁남자를	-6523
▁당연한	-6524
▁대사와	-6525
▁들어도	-6526
▁뛰어나	-6527
▁만드냐	-6528
▁만들다	-6529
▁박찬욱	-6530
▁반지의	-6531
▁비해서	-6532
▁사회적	-6533
▁상처를	-6534
▁세상의	-6535
▁슬퍼요	-6536
▁아놀드	-6537
▁아이디	-6538
▁어쨌든	-6539
▁유치원	-6540
▁의도는	-6541
▁인상적	-6542
▁작품에	-6543
▁장면과	-6544
▁재밌긴	-6545
▁책으로	-6546
▁했다는	-6547
▁화끈한	-6548
▁귀여워서	-6549
▁긴장감과	-6550
▁다행이다	-6551
▁만들겠다	-6552
▁몰입하게	-6553
▁미안하다	-6554
▁사람들도	-6555
▁쓰레기가	-6556
▁아이언맨	-6557
▁이거보단	-6558
▁이것저것	-6559
▁좋아했던	-6560
▁드라마네요	-6561
▁클레멘타인	-6562
............	-6563
▁롱	-6564
▁맑	-6565
▁쩜	-6566
가의	-6567
국이	-6568
니의	-6569
미를	-6570
미의	-6571
받고	-6572
스케	-6573
씨도	-6574
원작	-6575
으려	-6576
장에	-6577
제목	-6578
진심	-6579
▁re	-6580
▁강동	-6581
▁같애	-6582
▁거듭	-6583
▁깜놀	-6584
▁꺼져	-6585
▁껐다	-6586
▁꿈과	-6587
▁날이	-6588
▁낭만	-6589
▁노튼	-6590
▁높이	-6591
▁늙은	-6592
▁니들	-6593
▁다리	-6594
▁당한	-6595
▁대역	-6596
▁뒤집	-6597
▁따스	-6598
▁마블	-6599
▁많음	-6600
▁맛에	-6601
▁먹어	-6602
▁소나	-6603
▁소품	-6604
▁스콧	-6605
▁쓰나	-6606
▁안성	-6607
▁에휴	-6608
▁완성	-6609
▁우롱	-6610
▁유승	-6611
▁이별	-6612
▁이병	-6613
▁이종	-6614
▁일찍	-6615
▁자격	-6616
▁지식	-6617
▁지하	-6618
▁크다	-6619
▁한테	-6620
관에서	-6621
분짜리	-6622
엇는데	-6623
영화로	-6624
점대가	-6625
줬으면	-6626
하기가	-6627
▁MBC	-6628
▁결국엔	-6629
▁때리는	-6630
▁무의미	-6631
▁뻔하다	-6632
▁설정과	-6633
▁시간과	-6634
▁시대적	-6635
▁싶다는	-6636
▁액션만	-6637
▁어울려	-6638
▁역겹다	-6639
▁연기한	-6640
▁우뢰매	-6641
▁웃다가	-6642
▁웃으며	-6643
▁이것은	-6644
▁이러냐	-6645
▁이상을	-6646
▁이상함	-6647
▁장면에	-6648
▁전라도	-6649
▁제목은	-6650
▁초반엔	-6651
▁총체적	-6652
▁추억을	-6653
▁코드가	-6654
▁키드먼	-6655
▁기대했던	-6656
▁나온다는	-6657
▁마무리가	-6658
▁사람으로	-6659
▁생각나게	-6660
▁스필버그	-6661
▁이야기에	-6662
▁이어지는	-6663
▁지루했음	-6664
▁코미디는	-6665
▁평론가들	-6666
▁후반부로	-6667
▁후반부에	-6668
ce	-6669
id	-6670
▁곁	-6671
▁멤	-6672
▁퓨	-6673
▁헉	-6674
감한	-6675
구는	-6676
리즘	-6677
리한	-6678
상한	-6679
새록	-6680
생활	-6681
승전	-6682
승헌	-6683
시의	-6684
시지	-6685
신의	-6686
에로	-6687
움과	-6688
주연	-6689
치곤	-6690
태현	-6691
해선	-6692
..,	-6693
▁가게	-6694
▁개발	-6695
▁경악	-6696
▁고스	-6697
▁공허	-6698
▁국산	-6699
▁내리	-6700
▁레오	-6701
▁마다	-6702
▁만세	-6703
▁맞게	-6704
▁모방	-6705
▁민폐	-6706
▁바가	-6707
▁본인	-6708
▁브리	-6709
▁비정	-6710
▁빠짐	-6711
▁뻔함	-6712
▁새삼	-6713
▁소소	-6714
▁승부	-6715
▁안녕	-6716
▁어땠	-6717
▁여고	-6718
▁예뻤	-6719
▁욕만	-6720
▁운명	-6721
▁유익	-6722
▁으로	-6723
▁재치	-6724
▁저리	-6725
▁조정	-6726
▁지르	-6727
▁태양	-6728
▁틀림	-6729
▁팔아	-6730
▁평론	-6731
▁픽션	-6732
스릴러	-6733
▁과장된	-6734
▁군더더	-6735
▁귀신이	-6736
▁김희선	-6737
▁나오게	-6738
▁느껴지	-6739
▁다니엘	-6740
▁답답해	-6741
▁더러워	-6742
▁말아라	-6743
▁무서울	-6744
▁보네요	-6745
▁부분에	-6746
▁부분을	-6747
▁사람과	-6748
▁상하게	-6749
▁설정에	-6750
▁소재만	-6751
▁송승헌	-6752
▁아니냐	-6753
▁예뻐서	-6754
▁원숭이	-6755
▁원작은	-6756
▁이해도	-6757
▁즐겁고	-6758
▁2.22	-6759
▁걸작이다	-6760
▁긴장감은	-6761
▁니콜라스	-6762
▁답답해서	-6763
▁몰랐는데	-6764
▁불쌍해서	-6765
▁사람마다	-6766
▁스타일이	-6767
▁심각하게	-6768
▁연기력과	-6769
▁지금이나	-6770
▁파워레인	-6771
▁필요한가	-6772
▁호불호가	-6773
▁감동입니다	-6774
▁아쉬웠지만	-6775
▁좋아하시는	-6776
nd	-6777
▁닭	-6778
▁뚫	-6779
▁뿜	-6780
▁웹	-6781
▁캠	-6782
▁홧	-6783
급도	-6784
데렐	-6785
머리	-6786
물로	-6787
부지	-6788
스틴	-6789
여년	-6790
자도	-6791
자인	-6792
장애	-6793
정신	-6794
졸작	-6795
플린	-6796
혀서	-6797
▁가을	-6798
▁강요	-6799
▁강호	-6800
▁그대	-6801
▁까는	-6802
▁놀랬	-6803
▁놈은	-6804
▁농담	-6805
▁눈치	-6806
▁다려	-6807
▁러셀	-6808
▁멈추	-6809
▁미야	-6810
▁믿는	-6811
▁박정	-6812
▁보인	-6813
▁부드	-6814
▁빨간	-6815
▁사망	-6816
▁사장	-6817
▁살리	-6818
▁삼가	-6819
▁상실	-6820
▁선수	-6821
▁성적	-6822
▁수십	-6823
▁숨어	-6824
▁없애	-6825
▁영광	-6826
▁오페	-6827
▁위트	-6828
▁유령	-6829
▁유혹	-6830
▁이딴	-6831
▁이라	-6832
▁일일	-6833
▁적에	-6834
▁정사	-6835
▁줘서	-6836
▁지워	-6837
▁질문	-6838
▁짓을	-6839
▁짱임	-6840
▁쩌네	-6841
▁찡한	-6842
▁추구	-6843
▁커녕	-6844
▁피곤	-6845
▁향한	-6846
다니는	-6847
▁???	-6848
▁개봉을	-6849
▁공포도	-6850
▁기발한	-6851
▁넘치고	-6852
▁대사는	-6853
▁데뷔작	-6854
▁마누라	-6855
▁만나는	-6856
▁머리에	-6857
▁비행기	-6858
▁시절을	-6859
▁아바타	-6860
▁아이와	-6861
▁애니가	-6862
▁액션씬	-6863
▁어차피	-6864
▁언젠가	-6865
▁엉망이	-6866
▁영향을	-6867
▁욕하는	-6868
▁우울한	-6869
▁이후에	-6870
▁있는가	-6871
▁잘해서	-6872
▁장난치	-6873
▁전율이	-6874
▁정주행	-6875
▁줄리아	-6876
▁테이큰	-6877
▁통해서	-6878
▁평점도	-6879
▁하던데	-6880
더라고요	-6881
졌습니다	-6882
▁등장하는	-6883
▁메세지가	-6884
▁메세지를	-6885
▁쓰레기네	-6886
▁알았더니	-6887
▁어디까지	-6888
▁영상미와	-6889
▁영화라면	-6890
▁인물들의	-6891
▁좋아지는	-6892
▁진행되는	-6893
▁초반부터	-6894
▁초반에는	-6895
▁환상적인	-6896
▁훈훈하고	-6897
▁흥미롭게	-6898
▁명작이라고	-6899
▁스토리지만	-6900
▁아직까지도	-6901
▁울었습니다	-6902
▁재미있어서	-6903
▁흥미진진한	-6904
▁U	-6905
▁j	-6906
▁꽉	-6907
▁닫	-6908
▁멸	-6909
▁붉	-6910
간의	-6911
간히	-6912
같은	-6913
되면	-6914
뭔가	-6915
생의	-6916
석규	-6917
수정	-6918
심에	-6919
왔다	-6920
운데	-6921
저나	-6922
전의	-6923
즈가	-6924
짱짱	-6925
포머	-6926
희는	-6927
▁sf	-6928
▁개망	-6929
▁고증	-6930
▁고질	-6931
▁깨끗	-6932
▁꺼야	-6933
▁끝판	-6934
▁날려	-6935
▁납치	-6936
▁눈요	-6937
▁달아	-6938
▁만날	-6939
▁말만	-6940
▁머지	-6941
▁명확	-6942
▁몰락	-6943
▁무대	-6944
▁미니	-6945
▁백인	-6946
▁벌어	-6947
▁보셨	-6948
▁색깔	-6949
▁시골	-6950
▁엠마	-6951
▁열광	-6952
▁오마	-6953
▁오직	-6954
▁운동	-6955
▁의상	-6956
▁이끌	-6957
▁이승	-6958
▁장소	-6959
▁재현	-6960
▁정석	-6961
▁종영	-6962
▁출발	-6963
▁클리	-6964
▁태권	-6965
▁터지	-6966
▁학창	-6967
▁해보	-6968
▁핸드	-6969
▁했어	-6970
▁히로	-6971
▁힙합	-6972
라에몽	-6973
었다면	-6974
재미도	-6975
평점이	-6976
하던데	-6977
▁300	-6978
▁것들은	-6979
▁것들을	-6980
▁공중파	-6981
▁관람객	-6982
▁나와도	-6983
▁나이에	-6984
▁되어서	-6985
▁만큼은	-6986
▁명대사	-6987
▁뭐랄까	-6988
▁분명히	-6989
▁소지섭	-6990
▁심오한	-6991
▁아련한	-6992
▁아이고	-6993
▁아이러	-6994
▁아픔을	-6995
▁않으면	-6996
▁알바생	-6997
▁약하다	-6998
▁엄정화	-6999
▁없었고	-7000
▁역할을	-7001
▁의도를	-7002
▁의미도	-7003
▁있겠지	-7004
▁주연의	-7005
▁중후반	-7006
▁채플린	-7007
▁최대의	-7008
▁2015	-7009
▁OOOO	-7010
▁나온다고	-7011
▁다큐멘터	-7012
▁때문이다	-7013
▁바라보는	-7014
▁분위기를	-7015
▁새록새록	-7016
▁생각했던	-7017
▁어설프게	-7018
▁여태까지	-7019
▁이것보다	-7020
▁재미나게	-7021
▁좋아해요	-7022
▁줄거리가	-7023
▁지루함이	-7024
▁충분하다	-7025
▁허접하고	-7026
▁여주인공의	-7027
▁우리나라의	-7028
▁현실적이고	-7029
▁감동적이었다	-7030
▁개인적으로는	-7031
ct	-7032
il	-7033
▁닌	-7034
▁뚜	-7035
▁숲	-7036
▁훔	-7037
간이	-7038
다만	-7039
실히	-7040
아는	-7041
연출	-7042
율이	-7043
이해	-7044
▁거고	-7045
▁거리	-7046
▁경우	-7047
▁고작	-7048
▁괴담	-7049
▁금지	-7050
▁김선	-7051
▁나아	-7052
▁노동	-7053
▁돈과	-7054
▁되도	-7055
▁드물	-7056
▁들을	-7057
▁라면	-7058
▁마구	-7059
▁마시	-7060
▁말에	-7061
▁미술	-7062
▁보진	-7063
▁상어	-7064
▁순진	-7065
▁식의	-7066
▁안본	-7067
▁오유	-7068
▁요약	-7069
▁용기	-7070
▁유사	-7071
▁잡을	-7072
▁적극	-7073
▁조심	-7074
▁준거	-7075
▁쥐어	-7076
▁지저	-7077
▁지키	-7078
▁출현	-7079
▁팍팍	-7080
▁한지	-7081
▁할배	-7082
▁혁명	-7083
▁환타	-7084
▁황금	-7085
그래서	-7086
마저도	-7087
스러울	-7088
았는데	-7089
였네요	-7090
인지는	-7091
▁123	-7092
▁8.5	-7093
▁기억나	-7094
▁낚여서	-7095
▁당하는	-7096
▁되다니	-7097
▁마스터	-7098
▁배우와	-7099
▁불쾌한	-7100
▁상황에	-7101
▁스페인	-7102
▁않았나	-7103
▁알아야	-7104
▁어쩌다	-7105
▁엑소시	-7106
▁외에는	-7107
▁요소를	-7108
▁인물이	-7109
▁임창정	-7110
▁작품인	-7111
▁잘한다	-7112
▁잼나요	-7113
▁초반부	-7114
▁초중반	-7115
▁클래식	-7116
▁통쾌한	-7117
▁하니까	-7118
▁하려고	-7119
▁한계를	-7120
▁한석규	-7121
▁기대된다	-7122
▁다음으로	-7123
▁두고두고	-7124
▁보지마셈	-7125
▁슬프네요	-7126
▁실망이다	-7127
▁어이없고	-7128
▁에드워드	-7129
▁영화처럼	-7130
▁이상하게	-7131
▁이야기도	-7132
▁이탈리아	-7133
▁잔인하고	-7134
▁좋아하고	-7135
▁좋아하지	-7136
▁영화에서는	-7137
▁인간적으로	-7138
.6	-7139
et	-7140
▁낼	-7141
▁됫	-7142
▁래	-7143
▁뼈	-7144
▁싼	-7145
▁좆	-7146
▁칸	-7147
가며	-7148
구를	-7149
나올	-7150
땜시	-7151
물의	-7152
성우	-7153
작품	-7154
장센	-7155
질이	-7156
치다	-7157
크로	-7158
▁각각	-7159
▁거니	-7160
▁건강	-7161
▁경계	-7162
▁고소	-7163
▁구지	-7164
▁깊고	-7165
▁깊다	-7166
▁난국	-7167
▁노예	-7168
▁높네	-7169
▁달고	-7170
▁닿지	-7171
▁따구	-7172
▁로마	-7173
▁로멘	-7174
▁맞을	-7175
▁멤버	-7176
▁배드	-7177
▁배워	-7178
▁백배	-7179
▁변신	-7180
▁본거	-7181
▁볼일	-7182
▁색다	-7183
▁서스	-7184
▁솔까	-7185
▁싶고	-7186
▁아끼	-7187
▁애로	-7188
▁양반	-7189
▁울어	-7190
▁이순	-7191
▁있겠	-7192
▁있으	-7193
▁전의	-7194
▁점도	-7195
▁정이	-7196
▁정통	-7197
▁주먹	-7198
▁줬다	-7199
▁추가	-7200
▁편을	-7201
▁한정	-7202
▁흐지	-7203
더라구	-7204
버리지	-7205
편까지	-7206
편에서	-7207
▁197	-7208
▁관객들	-7209
▁김민종	-7210
▁나오기	-7211
▁낚이지	-7212
▁노래를	-7213
▁대놓고	-7214
▁대학생	-7215
▁더더욱	-7216
▁로버츠	-7217
▁모르나	-7218
▁미래를	-7219
▁배경도	-7220
▁배급사	-7221
▁보니깐	-7222
▁보시는	-7223
▁샌들러	-7224
▁손색이	-7225
▁시절에	-7226
▁신데렐	-7227
▁않는데	-7228
▁액션에	-7229
▁없구나	-7230
▁엑스맨	-7231
▁원주율	-7232
▁의문이	-7233
▁일본인	-7234
▁일어날	-7235
▁잘하네	-7236
▁장국영	-7237
▁재밌당	-7238
▁재방송	-7239
▁적나라	-7240
▁전지현	-7241
▁주제에	-7242
▁태어나	-7243
▁평가를	-7244
▁하지원	-7245
▁함부로	-7246
▁혼자서	-7247
▁힘들게	-7248
스토리가	-7249
해주세요	-7250
▁개봉했을	-7251
▁다운받아	-7252
▁만들어야	-7253
▁미스터리	-7254
▁사이에서	-7255
▁실화라는	-7256
▁아니라서	-7257
▁아카데미	-7258
▁연기자들	-7259
▁영화계의	-7260
▁일본에서	-7261
▁주인공을	-7262
▁캐릭터의	-7263
▁코미디가	-7264
▁재미없네요	-7265
▁킬링타임용으로도	-7266
▁셀	-7267
▁솜	-7268
▁쉐	-7269
▁져	-7270
▁톱	-7271
긴다	-7272
까요	-7273
대고	-7274
롭다	-7275
명작	-7276
봤던	-7277
세여	-7278
시나	-7279
시킬	-7280
여주	-7281
유리	-7282
주면	-7283
지에	-7284
지환	-7285
차별	-7286
치기	-7287
탈출	-7288
혜교	-7289
▁3,	-7290
▁in	-7291
▁가자	-7292
▁감옥	-7293
▁괴수	-7294
▁그는	-7295
▁그에	-7296
▁기록	-7297
▁났음	-7298
▁논리	-7299
▁놀이	-7300
▁돈만	-7301
▁되었	-7302
▁드리	-7303
▁디젤	-7304
▁또는	-7305
▁라인	-7306
▁망설	-7307
▁면도	-7308
▁몸을	-7309
▁물고	-7310
▁뭔데	-7311
▁바꾼	-7312
▁박평	-7313
▁부각	-7314
▁성숙	-7315
▁속도	-7316
▁쓰렉	-7317
▁아가	-7318
▁애절	-7319
▁없군	-7320
▁역작	-7321
▁였다	-7322
▁우월	-7323
▁잔한	-7324
▁주네	-7325
▁주신	-7326
▁지배	-7327
▁카피	-7328
▁컬트	-7329
▁토끼	-7330
▁팝콘	-7331
▁학살	-7332
▁환장	-7333
▁흥분	-7334
러티브	-7335
리지만	-7336
..."	-7337
▁것이지	-7338
▁결과는	-7339
▁깊었다	-7340
▁나서도	-7341
▁납니다	-7342
▁누구도	-7343
▁느낀다	-7344
▁더럽고	-7345
▁막장이	-7346
▁미장센	-7347
▁보낸다	-7348
▁사투리	-7349
▁사회에	-7350
▁소재에	-7351
▁신세경	-7352
▁않아요	-7353
▁않았고	-7354
▁여자애	-7355
▁연출을	-7356
▁울었던	-7357
▁웃음과	-7358
▁이들이	-7359
▁이번에	-7360
▁정신을	-7361
▁주제도	-7362
▁집중도	-7363
▁친구들	-7364
▁타이틀	-7365
▁특이한	-7366
▁편견을	-7367
▁하려는	-7368
▁현실감	-7369
▁흐름이	-7370
▁2013	-7371
▁고등학생	-7372
▁관람불가	-7373
▁나오다니	-7374
▁나왔는데	-7375
▁떠오르는	-7376
▁아이들은	-7377
▁아프리카	-7378
▁없었으면	-7379
▁영화들은	-7380
▁영화로서	-7381
▁움직이는	-7382
▁이기적인	-7383
▁재밌기만	-7384
▁볼만합니다	-7385
▁아름다웠다	-7386
▁오글거려서	-7387
▁재미있었고	-7388
▁트랜스포머	-7389
.?	-7390
▁끓	-7391
▁릴	-7392
▁묶	-7393
▁밉	-7394
▁밧	-7395
▁뻤	-7396
▁싹	-7397
▁쌈	-7398
▁툭	-7399
▁헷	-7400
고한	-7401
극을	-7402
돌이	-7403
들리	-7404
란히	-7405
론의	-7406
맹이	-7407
받은	-7408
보이	-7409
비는	-7410
시켰	-7411
역사	-7412
연의	-7413
원도	-7414
이요	-7415
장의	-7416
전은	-7417
점줌	-7418
펙트	-7419
.."	-7420
▁vs	-7421
▁가난	-7422
▁거는	-7423
▁과연	-7424
▁괴로	-7425
▁구려	-7426
▁그나	-7427
▁글로	-7428
▁기타	-7429
▁길다	-7430
▁김윤	-7431
▁노골	-7432
▁대기	-7433
▁덴젤	-7434
▁돈은	-7435
▁동감	-7436
▁되니	-7437
▁마틴	-7438
▁모호	-7439
▁몸이	-7440
▁밀라	-7441
▁밀어	-7442
▁바래	-7443
▁배가	-7444
▁베트	-7445
▁변호	-7446
▁봐왔	-7447
▁봣다	-7448
▁샤론	-7449
▁서서	-7450
▁성경	-7451
▁스킵	-7452
▁시스	-7453
▁안겨	-7454
▁에릭	-7455
▁여왕	-7456
▁예쁨	-7457
▁오오	-7458
▁오인	-7459
▁우아	-7460
▁이영	-7461
▁읽은	-7462
▁임청	-7463
▁자가	-7464
▁장미	-7465
▁장진	-7466
▁재발	-7467
▁잼나	-7468
▁저게	-7469
▁정리	-7470
▁제국	-7471
▁종합	-7472
▁증명	-7473
▁지극	-7474
▁집안	-7475
▁징징	-7476
▁최하	-7477
▁취급	-7478
▁토할	-7479
▁피디	-7480
▁하구	-7481
▁허탈	-7482
▁홍진	-7483
▁흐르	-7484
방에서	-7485
이에요	-7486
함으로	-7487
해가는	-7488
▁강하게	-7489
▁관람가	-7490
▁괜찮아	-7491
▁굉장한	-7492
▁국어책	-7493
▁그들을	-7494
▁기대할	-7495
▁남았다	-7496
▁도움이	-7497
▁뜨거운	-7498
▁레이첼	-7499
▁마음속	-7500
▁만나고	-7501
▁만나서	-7502
▁매력은	-7503
▁배우만	-7504
▁빈약한	-7505
▁사실이	-7506
▁생각에	-7507
▁선택한	-7508
▁성우가	-7509
▁실패작	-7510
▁아닌지	-7511
▁아쉽긴	-7512
▁엄마랑	-7513
▁없구만	-7514
▁웃겼음	-7515
▁원작과	-7516
▁이스트	-7517
▁일본이	-7518
▁장동건	-7519
▁정우성	-7520
▁주제는	-7521
▁지겹다	-7522
▁차태현	-7523
▁참고로	-7524
▁추천할	-7525
▁현실에	-7526
만큼이나	-7527
▁2005	-7528
▁감독님의	-7529
▁도라에몽	-7530
▁만으로도	-7531
▁미스테리	-7532
▁볼만했다	-7533
▁분위기도	-7534
▁상상력이	-7535
▁식상하다	-7536
▁오그라들	-7537
▁작품이라	-7538
▁전편보다	-7539
▁캐스팅도	-7540
▁필요하다	-7541
▁허무하게	-7542
▁공포영화가	-7543
▁공포영화는	-7544
▁명작이네요	-7545
▁모르겠는데	-7546
▁처음이네요	-7547
.7	-7548
cn	-7549
▁갇	-7550
▁겸	-7551
▁긍	-7552
▁덧	-7553
▁뜯	-7554
▁멕	-7555
▁캡	-7556
▁켄	-7557
결말	-7558
광구	-7559
그리	-7560
급의	-7561
급이	-7562
내기	-7563
년을	-7564
데요	-7565
들인	-7566
따위	-7567
보긴	-7568
시기	-7569
아의	-7570
이즈	-7571
주기	-7572
천원	-7573
타는	-7574
하균	-7575
호의	-7576
효진	-7577
ttp	-7578
▁28	-7579
▁가깝	-7580
▁걸릴	-7581
▁관대	-7582
▁극찬	-7583
▁김영	-7584
▁뉴욕	-7585
▁닮은	-7586
▁되길	-7587
▁뚝뚝	-7588
▁맘이	-7589
▁멀리	-7590
▁사나	-7591
▁성찰	-7592
▁스탈	-7593
▁안다	-7594
▁얻어	-7595
▁없엇	-7596
▁이자	-7597
▁잃지	-7598
▁잘만	-7599
▁잠수	-7600
▁잡은	-7601
▁재료	-7602
▁졸려	-7603
▁줄도	-7604
▁지적	-7605
▁징그	-7606
▁쯧쯧	-7607
▁총격	-7608
▁토니	-7609
▁트라	-7610
▁특징	-7611
▁피라	-7612
기보단	-7613
니버스	-7614
렸는데	-7615
하고도	-7616
하시길	-7617
▁7.5	-7618
▁거지만	-7619
▁검색해	-7620
▁경의를	-7621
▁공감을	-7622
▁남자와	-7623
▁노력이	-7624
▁대사를	-7625
▁되는지	-7626
▁따구로	-7627
▁마음은	-7628
▁만화는	-7629
▁머리를	-7630
▁보여줌	-7631
▁보였다	-7632
▁불륜을	-7633
▁뻔해서	-7634
▁손예진	-7635
▁솔직한	-7636
▁수준은	-7637
▁심리를	-7638
▁아쉽고	-7639
▁않았을	-7640
▁어떠한	-7641
▁엉망진	-7642
▁오늘도	-7643
▁오우삼	-7644
▁우려먹	-7645
▁이들의	-7646
▁인물들	-7647
▁인물의	-7648
▁자유를	-7649
▁작품의	-7650
▁잘생겼	-7651
▁재미만	-7652
▁재밌지	-7653
▁조기종	-7654
▁좋다는	-7655
▁최악인	-7656
▁최초의	-7657
▁탁월한	-7658
▁하더라	-7659
▁한효주	-7660
▁행복을	-7661
▁결말까지	-7662
▁만들려고	-7663
▁메시지를	-7664
▁무서워서	-7665
▁봐야겠다	-7666
▁부끄러운	-7667
▁분위기에	-7668
▁사랑으로	-7669
▁상업영화	-7670
▁아마추어	-7671
▁여배우의	-7672
▁연기까지	-7673
▁영화인거	-7674
▁영화제목	-7675
▁재미있네	-7676
▁졸작이다	-7677
▁중반부터	-7678
▁퀄리티가	-7679
▁힘내세요	-7680
▁시나리오도	-7681
▁존경합니다	-7682
▁최고였습니다	-7683
.9	-7684
▁겟	-7685
▁넓	-7686
▁밍	-7687
▁빗	-7688
▁쫒	-7689
개를	-7690
니스	-7691
동이	-7692
받을	-7693
서트	-7694
소설	-7695
스턴	-7696
심한	-7697
었냐	-7698
요미	-7699
위에	-7700
저기	-7701
줘요	-7702
치만	-7703
형이	-7704
화는	-7705
ove	-7706
▁강조	-7707
▁광팬	-7708
▁군인	-7709
▁꼬라	-7710
▁끊임	-7711
▁끝은	-7712
▁남발	-7713
▁년이	-7714
▁다케	-7715
▁단역	-7716
▁대비	-7717
▁대상	-7718
▁돼는	-7719
▁들지	-7720
▁똥을	-7721
▁람보	-7722
▁마케	-7723
▁맛을	-7724
▁맛있	-7725
▁모델	-7726
▁모야	-7727
▁모여	-7728
▁무색	-7729
▁믿음	-7730
▁불허	-7731
▁뻔히	-7732
▁사다	-7733
▁사로	-7734
▁생략	-7735
▁송지	-7736
▁수선	-7737
▁시기	-7738
▁쓴다	-7739
▁어떨	-7740
▁예의	-7741
▁워커	-7742
▁의해	-7743
▁이수	-7744
▁일관	-7745
▁입은	-7746
▁잇고	-7747
▁자단	-7748
▁저거	-7749
▁저주	-7750
▁저희	-7751
▁전락	-7752
▁절반	-7753
▁접근	-7754
▁정화	-7755
▁조직	-7756
▁지역	-7757
▁짧게	-7758
▁창의	-7759
▁처리	-7760
▁천만	-7761
▁크로	-7762
▁퇴보	-7763
▁패턴	-7764
▁했고	-7765
였구나	-7766
▁같지도	-7767
▁것으로	-7768
▁결말에	-7769
▁과거를	-7770
▁과정을	-7771
▁관계를	-7772
▁관심을	-7773
▁구성은	-7774
▁그들은	-7775
▁그러지	-7776
▁기억될	-7777
▁나와라	-7778
▁됬는데	-7779
▁마음의	-7780
▁말이다	-7781
▁모자라	-7782
▁묘사가	-7783
▁배경과	-7784
▁베드신	-7785
▁부족함	-7786
▁사기꾼	-7787
▁사랑도	-7788
▁살아있	-7789
▁소리를	-7790
▁송혜교	-7791
▁스릴이	-7792
▁슬펐다	-7793
▁신세계	-7794
▁심심할	-7795
▁아쉽네	-7796
▁알려준	-7797
▁엄마의	-7798
▁엉터리	-7799
▁역사적	-7800
▁웃기네	-7801
▁있겠다	-7802
▁잘했다	-7803
▁재밌던	-7804
▁정확히	-7805
▁쥬라기	-7806
▁지나서	-7807
▁찬사를	-7808
▁처음인	-7809
▁하하하	-7810
▁후에도	-7811
▁후회함	-7812
▁흡입력	-7813
스토리도	-7814
재미없다	-7815
프라이즈	-7816
▁2003	-7817
▁best	-7818
▁http	-7819
▁감성팔이	-7820
▁군더더기	-7821
▁그럼에도	-7822
▁남자라면	-7823
▁내용으로	-7824
▁듯합니다	-7825
▁메시지가	-7826
▁보기에도	-7827
▁보이는데	-7828
▁비교하면	-7829
▁생각해도	-7830
▁않았을까	-7831
▁알겠지만	-7832
▁여기저기	-7833
▁여배우가	-7834
▁영상미는	-7835
▁재밌었고	-7836
▁지루함의	-7837
▁철학적인	-7838
▁크리스토	-7839
하겠습니다	-7840
▁강추합니다	-7841
▁잔잔하지만	-7842
▁좋아한다면	-7843
.............	-7844
▁깝	-7845
▁눌	-7846
▁뚱	-7847
▁벼	-7848
▁얽	-7849
▁펭	-7850
▁훼	-7851
감에	-7852
거워	-7853
라인	-7854
불허	-7855
뿐인	-7856
상욱	-7857
시네	-7858
아님	-7859
여행	-7860
이었	-7861
자에	-7862
킬링	-7863
편과	-7864
현준	-7865
형제	-7866
.10	-7867
▁24	-7868
▁45	-7869
▁간지	-7870
▁걸어	-7871
▁경제	-7872
▁구멍	-7873
▁그를	-7874
▁남매	-7875
▁눈만	-7876
▁도로	-7877
▁돈도	-7878
▁등등	-7879
▁마디	-7880
▁막힌	-7881
▁머가	-7882
▁목사	-7883
▁발레	-7884
▁버리	-7885
▁부디	-7886
▁부른	-7887
▁불행	-7888
▁비롯	-7889
▁비싼	-7890
▁빠지	-7891
▁빨고	-7892
▁뽕짝	-7893
▁상식	-7894
▁소문	-7895
▁속은	-7896
▁신념	-7897
▁억남	-7898
▁역을	-7899
▁연장	-7900
▁이겨	-7901
▁이외	-7902
▁이태	-7903
▁잃고	-7904
▁임신	-7905
▁자위	-7906
▁장혁	-7907
▁정부	-7908
▁조낸	-7909
▁직장	-7910
▁짓게	-7911
▁찜찜	-7912
▁차마	-7913
▁체험	-7914
▁초기	-7915
▁총알	-7916
▁퍼즐	-7917
▁포스	-7918
▁풍부	-7919
▁하균	-7920
▁혹평	-7921
▁홧팅	-7922
▁후기	-7923
▁흐뭇	-7924
▁힘드	-7925
겠는데	-7926
로서는	-7927
에서야	-7928
였다는	-7929
이였다	-7930
입니까	-7931
자들은	-7932
조차도	-7933
파이어	-7934
판으로	-7935
하더라	-7936
회부터	-7937
▁198	-7938
▁CGV	-7939
▁The	-7940
▁가져다	-7941
▁가치를	-7942
▁것일까	-7943
▁구성과	-7944
▁기대도	-7945
▁김혜수	-7946
▁노력한	-7947
▁다큐를	-7948
▁다행이	-7949
▁대단히	-7950
▁더빙은	-7951
▁돌려줘	-7952
▁똑바로	-7953
▁말라고	-7954
▁말하면	-7955
▁먹먹한	-7956
▁명불허	-7957
▁명성을	-7958
▁명연기	-7959
▁모성애	-7960
▁보기는	-7961
▁불쌍해	-7962
▁브레이	-7963
▁상당한	-7964
▁상상을	-7965
▁신기한	-7966
▁오로라	-7967
▁올라가	-7968
▁외국인	-7969
▁원피스	-7970
▁이병헌	-7971
▁잘해요	-7972
▁전쟁을	-7973
▁제목과	-7974
▁조금씩	-7975
▁조용히	-7976
▁주상욱	-7977
▁주셔서	-7978
▁한다면	-7979
▁해놓고	-7980
▁2004	-7981
▁very	-7982
▁개봉하는	-7983
▁대표적인	-7984
▁말았어야	-7985
▁먹먹하다	-7986
▁모르겟다	-7987
▁무서웠다	-7988
▁받아들이	-7989
▁스릴러를	-7990
▁스타일의	-7991
▁울었네요	-7992
▁재밋는데	-7993
▁존재하는	-7994
▁주인공도	-7995
▁훌륭하고	-7996
▁드라마보다	-7997
▁매력적이다	-7998
▁안타깝네요	-7999
▁오글거리고	-8000
▁재미있다고	-8001
▁현실적으로	-8002
▁......	-8003
ch	-8004
▁깁	-8005
▁맺	-8006
▁셧	-8007
▁슴	-8008
▁잣	-8009
▁춘	-8010
가슴	-8011
들여	-8012
리칸	-8013
먹을	-8014
비아	-8015
세계	-8016
슬리	-8017
시스	-8018
오래	-8019
일의	-8020
지로	-8021
치도	-8022
피아	-8023
하늘	-8024
해준	-8025
▁가해	-8026
▁간직	-8027
▁개소	-8028
▁관리	-8029
▁교회	-8030
▁구분	-8031
▁기념	-8032
▁기도	-8033
▁김소	-8034
▁김재	-8035
▁나갈	-8036
▁낮음	-8037
▁너희	-8038
▁넘기	-8039
▁느슨	-8040
▁닥터	-8041
▁동료	-8042
▁둘의	-8043
▁똑똑	-8044
▁말길	-8045
▁모순	-8046
▁무기	-8047
▁믿어	-8048
▁바랬	-8049
▁배려	-8050
▁배틀	-8051
▁벗고	-8052
▁불면	-8053
▁불필	-8054
▁빅뱅	-8055
▁세트	-8056
▁시체	-8057
▁써라	-8058
▁엇다	-8059
▁엉덩	-8060
▁엉엉	-8061
▁에너	-8062
▁연령	-8063
▁영활	-8064
▁욕할	-8065
▁우익	-8066
▁웃게	-8067
▁일은	-8068
▁장군	-8069
▁재주	-8070
▁저녁	-8071
▁지니	-8072
▁진작	-8073
▁침묵	-8074
▁퀴어	-8075
▁파악	-8076
▁편도	-8077
▁하디	-8078
▁향해	-8079
▁활용	-8080
▁휴먼	-8081
뭡니까	-8082
스에서	-8083
스트라	-8084
에서나	-8085
으세요	-8086
점준다	-8087
주의를	-8088
지라도	-8089
▁강아지	-8090
▁거라는	-8091
▁겁니까	-8092
▁권상우	-8093
▁글쎄요	-8094
▁기대가	-8095
▁기대한	-8096
▁기회가	-8097
▁나오길	-8098
▁남긴다	-8099
▁냄새가	-8100
▁넘어선	-8101
▁눈물도	-8102
▁다음에	-8103
▁더럽다	-8104
▁돌아오	-8105
▁드니로	-8106
▁따뜻해	-8107
▁마케팅	-8108
▁많네요	-8109
▁말해서	-8110
▁머릿속	-8111
▁모자란	-8112
▁뭔가가	-8113
▁반전의	-8114
▁배우로	-8115
▁버리는	-8116
▁보고서	-8117
▁보자고	-8118
▁복수극	-8119
▁분들께	-8120
▁빠지고	-8121
▁사라진	-8122
▁사랑할	-8123
▁설명할	-8124
▁시원한	-8125
▁실망한	-8126
▁아오이	-8127
▁액션물	-8128
▁어둡고	-8129
▁영화면	-8130
▁예쁘게	-8131
▁올라갈	-8132
▁유지태	-8133
▁있다가	-8134
▁작품도	-8135
▁장면들	-8136
▁절제된	-8137
▁주려고	-8138
▁지극히	-8139
▁짜여진	-8140
▁짱짱맨	-8141
▁찝찝한	-8142
▁파이어	-8143
▁훌륭함	-8144
▁흠잡을	-8145
▁관객에게	-8146
▁기대되는	-8147
▁러닝타임	-8148
▁마음속에	-8149
▁본방사수	-8150
▁수고하셨	-8151
▁아까웠던	-8152
▁아이들도	-8153
▁안타까울	-8154
▁안타까움	-8155
▁않았는데	-8156
▁어울린다	-8157
▁어쩌라고	-8158
▁엉망진창	-8159
▁오래전에	-8160
▁인간들이	-8161
▁있었다니	-8162
▁지루하네	-8163
▁진부하다	-8164
▁캐릭터와	-8165
▁표현했다	-8166
▁후회하지	-8167
▁뮤직비디오	-8168
▁없었습니다	-8169
▁재미없다는	-8170
▁재미있었던	-8171
op	-8172
ve	-8173
▁델	-8174
▁롯	-8175
▁맷	-8176
고를	-8177
께요	-8178
녀의	-8179
랐다	-8180
래셔	-8181
려니	-8182
리라	-8183
맹랑	-8184
센스	-8185
소가	-8186
식은	-8187
어마	-8188
여자	-8189
오오	-8190
입니	-8191
점인	-8192
졌을	-8193
증을	-8194
진희	-8195
치면	-8196
크의	-8197
판을	-8198
함만	-8199
햇다	-8200
▁,.	-8201
▁1.	-8202
▁PD	-8203
▁계획	-8204
▁과대	-8205
▁구역	-8206
▁구혜	-8207
▁극한	-8208
▁길고	-8209
▁김남	-8210
▁김성	-8211
▁내놓	-8212
▁너는	-8213
▁눈과	-8214
▁댄스	-8215
▁데려	-8216
▁도입	-8217
▁등을	-8218
▁딱딱	-8219
▁먼지	-8220
▁메리	-8221
▁뭐임	-8222
▁받지	-8223
▁발연	-8224
▁번만	-8225
▁법정	-8226
▁뻐요	-8227
▁스틸	-8228
▁신민	-8229
▁씨의	-8230
▁알렉	-8231
▁에러	-8232
▁여튼	-8233
▁예매	-8234
▁웃길	-8235
▁위주	-8236
▁의리	-8237
▁일탈	-8238
▁임권	-8239
▁있죠	-8240
▁주옥	-8241
▁증거	-8242
▁지어	-8243
▁찢어	-8244
▁참다	-8245
▁총을	-8246
▁최후	-8247
▁춤추	-8248
▁클린	-8249
▁타락	-8250
▁하차	-8251
▁해줄	-8252
▁헷갈	-8253
▁화나	-8254
▁획을	-8255
▁흑흑	-8256
달라고	-8257
배우들	-8258
십니다	-8259
았어요	-8260
이었던	-8261
▁감흥이	-8262
▁개소리	-8263
▁괜찮네	-8264
▁그래요	-8265
▁꿈꾸는	-8266
▁끝난다	-8267
▁나라를	-8268
▁나쁘진	-8269
▁되나요	-8270
▁드림웍	-8271
▁듯해요	-8272
▁류승범	-8273
▁만점을	-8274
▁많지만	-8275
▁말하지	-8276
▁모티브	-8277
▁무엇이	-8278
▁미국이	-8279
▁방법이	-8280
▁범인이	-8281
▁별점을	-8282
▁복수를	-8283
▁복잡한	-8284
▁봤다고	-8285
▁분들도	-8286
▁뿐이고	-8287
▁세상은	-8288
▁섹시한	-8289
▁시키는	-8290
▁실패한	-8291
▁아니죠	-8292
▁아침에	-8293
▁앞부분	-8294
▁양동근	-8295
▁어울리	-8296
▁억난다	-8297
▁영화죠	-8298
▁인터뷰	-8299
▁일요일	-8300
▁자체를	-8301
▁장난감	-8302
▁장면의	-8303
▁젊은이	-8304
▁지나친	-8305
▁진행이	-8306
▁철학적	-8307
▁클라이	-8308
▁태어난	-8309
▁편집이	-8310
▁하나만	-8311
▁하는가	-8312
스럽네요	-8313
하기까지	-8314
▁감독님이	-8315
▁고스란히	-8316
▁나오는지	-8317
▁대박이다	-8318
▁만들어졌	-8319
▁배우들로	-8320
▁보이네요	-8321
▁봣습니다	-8322
▁빠져드는	-8323
▁생각하며	-8324
▁생각해서	-8325
▁생각했다	-8326
▁스릴러가	-8327
▁슬프지만	-8328
▁아니었음	-8329
▁않았으면	-8330
▁어른들이	-8331
▁없었지만	-8332
▁예고편이	-8333
▁오글거리	-8334
▁인간들은	-8335
▁인간적인	-8336
▁캐릭터에	-8337
▁팬이라면	-8338
▁흐지부지	-8339
▁흥미롭고	-8340
▁감동적으로	-8341
▁감동적이에	-8342
▁생각나네요	-8343
▁시나리오를	-8344
▁지루하기만	-8345
▁최고였어요	-8346
TV	-8347
▁꾹	-8348
▁며	-8349
▁밟	-8350
▁밨	-8351
▁톤	-8352
▁펜	-8353
경이	-8354
기다	-8355
년간	-8356
님을	-8357
라를	-8358
박이	-8359
반전	-8360
받는	-8361
봐서	-8362
봐요	-8363
빨리	-8364
살에	-8365
시원	-8366
저링	-8367
절대	-8368
점에	-8369
티가	-8370
하디	-8371
est	-8372
▁개가	-8373
▁곱씹	-8374
▁국제	-8375
▁김대	-8376
▁김정	-8377
▁김준	-8378
▁꺼내	-8379
▁꿈이	-8380
▁나네	-8381
▁난생	-8382
▁내서	-8383
▁내심	-8384
▁냉정	-8385
▁느린	-8386
▁늙어	-8387
▁단언	-8388
▁더럽	-8389
▁더한	-8390
▁로렌	-8391
▁마을	-8392
▁매혹	-8393
▁메가	-8394
▁무관	-8395
▁물을	-8396
▁박해	-8397
▁방에	-8398
▁복선	-8399
▁부조	-8400
▁빛이	-8401
▁뽑아	-8402
▁색감	-8403
▁섞어	-8404
▁싫음	-8405
▁십점	-8406
▁싶었	-8407
▁싸울	-8408
▁쌩뚱	-8409
▁써도	-8410
▁써서	-8411
▁안의	-8412
▁애쓰	-8413
▁역활	-8414
▁열린	-8415
▁우스	-8416
▁워싱	-8417
▁웹툰	-8418
▁이랬	-8419
▁인데	-8420
▁장근	-8421
▁잭슨	-8422
▁저기	-8423
▁좋구	-8424
▁짐승	-8425
▁천사	-8426
▁총질	-8427
▁최저	-8428
▁추락	-8429
▁파트	-8430
▁펭귄	-8431
▁푸른	-8432
▁행크	-8433
▁활동	-8434
▁활약	-8435
▁회사	-8436
갑니다	-8437
되었다	-8438
마지막	-8439
부터가	-8440
았지만	-8441
에게도	-8442
였으나	-8443
영화제	-8444
재미있	-8445
편으로	-8446
하니까	-8447
0000	-8448
▁KBS	-8449
▁ebs	-8450
▁가끔씩	-8451
▁갔다가	-8452
▁강지환	-8453
▁개인의	-8454
▁거리가	-8455
▁겨울왕	-8456
▁관계가	-8457
▁그러고	-8458
▁그러면	-8459
▁기대는	-8460
▁기대에	-8461
▁김구라	-8462
▁끝판왕	-8463
▁나라의	-8464
▁능력이	-8465
▁만했다	-8466
▁명작인	-8467
▁모습과	-8468
▁못하게	-8469
▁뭡니까	-8470
▁범죄자	-8471
▁보기도	-8472
▁봤었던	-8473
▁비교해	-8474
▁사건을	-8475
▁산만한	-8476
▁생겨서	-8477
▁성룡이	-8478
▁송지효	-8479
▁스텝업	-8480
▁시간의	-8481
▁시작한	-8482
▁씁쓸한	-8483
▁아이의	-8484
▁어딘가	-8485
▁언제쯤	-8486
▁얼굴도	-8487
▁웃긴다	-8488
▁이쁘고	-8489
▁이상해	-8490
▁임권택	-8491
▁임청하	-8492
▁있던데	-8493
▁장르는	-8494
▁전쟁이	-8495
▁정당화	-8496
▁지르고	-8497
▁차승원	-8498
▁컨저링	-8499
▁클라스	-8500
▁파라노	-8501
▁풀어나	-8502
▁플레이	-8503
▁현실의	-8504
▁희망이	-8505
렸습니다	-8506
▁것입니다	-8507
▁그래픽이	-8508
▁깔끔하고	-8509
▁남기는데	-8510
▁다운로드	-8511
▁돋보인다	-8512
▁막장으로	-8513
▁만드네요	-8514
▁말해주는	-8515
▁미치도록	-8516
▁별로였음	-8517
▁신데렐라	-8518
▁어린이용	-8519
▁어우러진	-8520
▁영상으로	-8521
▁잃어버린	-8522
▁작품인데	-8523
▁지났지만	-8524
▁최고라는	-8525
▁추천한다	-8526
▁허술하고	-8527
▁현실성이	-8528
▁만들었다는	-8529
▁서프라이즈	-8530
▁영화인데도	-8531
!!!!!!!	-8532
!"	-8533
el	-8534
▁Y	-8535
▁꽁	-8536
▁딩	-8537
▁랩	-8538
▁빚	-8539
▁윈	-8540
▁쟁	-8541
가리	-8542
구리	-8543
더스	-8544
두근	-8545
려진	-8546
력에	-8547
림을	-8548
미도	-8549
미스	-8550
방의	-8551
서블	-8552
씨를	-8553
아오	-8554
없음	-8555
오빠	-8556
자리	-8557
절로	-8558
카이	-8559
쾌한	-8560
프다	-8561
.,.	-8562
ion	-8563
▁98	-8564
▁or	-8565
▁간첩	-8566
▁강제	-8567
▁거여	-8568
▁거창	-8569
▁건너	-8570
▁검은	-8571
▁고래	-8572
▁곳곳	-8573
▁그와	-8574
▁김강	-8575
▁김동	-8576
▁김현	-8577
▁깎아	-8578
▁꼽을	-8579
▁끌지	-8580
▁나누	-8581
▁대안	-8582
▁데드	-8583
▁된장	-8584
▁드립	-8585
▁라마	-8586
▁리브	-8587
▁마사	-8588
▁만은	-8589
▁멘붕	-8590
▁묻혀	-8591
▁박지	-8592
▁부럽	-8593
▁부를	-8594
▁부여	-8595
▁불만	-8596
▁빨아	-8597
▁손꼽	-8598
▁스파	-8599
▁습작	-8600
▁시한	-8601
▁식스	-8602
▁심히	-8603
▁아키	-8604
▁악플	-8605
▁어벤	-8606
▁오토	-8607
▁온몸	-8608
▁외의	-8609
▁은은	-8610
▁이준	-8611
▁임파	-8612
▁저렴	-8613
▁조조	-8614
▁주목	-8615
▁짜고	-8616
▁차지	-8617
▁찰리	-8618
▁카타	-8619
▁큐브	-8620
▁호텔	-8621
▁홍금	-8622
깁니다	-8623
로서의	-8624
리다가	-8625
시네요	-8626
에서만	-8627
웠지만	-8628
편부터	-8629
하였다	-8630
▁같았음	-8631
▁계기가	-8632
▁고마운	-8633
▁그레이	-8634
▁낚였네	-8635
▁노래만	-8636
▁달콤한	-8637
▁던지는	-8638
▁드리고	-8639
▁만큼의	-8640
▁모습도	-8641
▁바뀌는	-8642
▁배경을	-8643
▁번이고	-8644
▁베트남	-8645
▁별루다	-8646
▁봤었다	-8647
▁비교가	-8648
▁사회를	-8649
▁서스펜	-8650
▁슬래셔	-8651
▁슬퍼서	-8652
▁싸우고	-8653
▁아쉬워	-8654
▁어쩌고	-8655
▁여주는	-8656
▁예뻐요	-8657
▁올리는	-8658
▁욕하고	-8659
▁웃어야	-8660
▁워싱턴	-8661
▁위험한	-8662
▁이러니	-8663
▁이름값	-8664
▁이번엔	-8665
▁이연희	-8666
▁이유로	-8667
▁이후의	-8668
▁장나라	-8669
▁저절로	-8670
▁전부터	-8671
▁전설이	-8672
▁전성기	-8673
▁전작의	-8674
▁제작한	-8675
▁중반부	-8676
▁충격을	-8677
▁파이팅	-8678
▁하이킥	-8679
▁한국어	-8680
▁한숨만	-8681
▁했네요	-8682
▁화면이	-8683
▁후회할	-8684
▁흑역사	-8685
▁힘들어	-8686
극장에서	-8687
▁감동이다	-8688
▁극장판은	-8689
▁내러티브	-8690
▁돌아가는	-8691
▁드라마인	-8692
▁몽환적인	-8693
▁무언가를	-8694
▁뻔하지만	-8695
▁스케일이	-8696
▁아이러니	-8697
▁알바들이	-8698
▁어울리고	-8699
▁여자들의	-8700
▁영화관에	-8701
▁이해하고	-8702
▁자본주의	-8703
▁잔인하게	-8704
▁재밌지도	-8705
▁코미디의	-8706
▁했었는데	-8707
▁허무맹랑	-8708
▁개인적으론	-8709
▁고맙습니다	-8710
▁마지막으로	-8711
▁유치하지만	-8712
▁응원합니다	-8713
▁일깨워주는	-8714
▁지금까지도	-8715
▁지루했어요	-8716
▁한국영화가	-8717
▁잔잔하면서도	-8718
▁재미없습니다	-8719
ht	-8720
if	-8721
tv	-8722
▁넋	-8723
▁뎀	-8724
▁쏙	-8725
▁욱	-8726
개의	-8727
급을	-8728
나름	-8729
놈의	-8730
답답	-8731
대단	-8732
란한	-8733
렸네	-8734
론이	-8735
마가	-8736
메오	-8737
명한	-8738
물에	-8739
브리	-8740
아도	-8741
운이	-8742
이드	-8743
일에	-8744
일으	-8745
자키	-8746
지네	-8747
지우	-8748
틱한	-8749
▁35	-8750
▁78	-8751
▁가질	-8752
▁거만	-8753
▁거울	-8754
▁걸고	-8755
▁것임	-8756
▁경이	-8757
▁고발	-8758
▁고찰	-8759
▁기사	-8760
▁나비	-8761
▁낫지	-8762
▁내놔	-8763
▁다는	-8764
▁레드	-8765
▁레즈	-8766
▁리가	-8767
▁멸망	-8768
▁명곡	-8769
▁모냐	-8770
▁무얼	-8771
▁물씬	-8772
▁미흡	-8773
▁바뀐	-8774
▁반감	-8775
▁발상	-8776
▁배운	-8777
▁법칙	-8778
▁보냅	-8779
▁봣던	-8780
▁섭외	-8781
▁소방	-8782
▁수정	-8783
▁수치	-8784
▁승범	-8785
▁신부	-8786
▁씨네	-8787
▁양조	-8788
▁에효	-8789
▁여지	-8790
▁외화	-8791
▁우습	-8792
▁유도	-8793
▁이면	-8794
▁자라	-8795
▁작렬	-8796
▁존중	-8797
▁졸잼	-8798
▁종일	-8799
▁죽임	-8800
▁중고	-8801
▁짱인	-8802
▁차분	-8803
▁창작	-8804
▁철저	-8805
▁첨에	-8806
▁택시	-8807
▁한순	-8808
▁호소	-8809
▁환불	-8810
▁흘렀	-8811
▁흡사	-8812
가면서	-8813
씩이나	-8814
영화에	-8815
이야기	-8816
포스터	-8817
하겠다	-8818
하라는	-8819
▁500	-8820
▁ocn	-8821
▁걸리는	-8822
▁결론이	-8823
▁그때의	-8824
▁나가고	-8825
▁나는데	-8826
▁나름의	-8827
▁남주가	-8828
▁남편이	-8829
▁놀라울	-8830
▁달달한	-8831
▁당하고	-8832
▁더군요	-8833
▁리뷰를	-8834
▁못하나	-8835
▁묘하게	-8836
▁미소를	-8837
▁방식이	-8838
▁봤다니	-8839
▁빠순이	-8840
▁새롭게	-8841
▁생겼다	-8842
▁서로를	-8843
▁설경구	-8844
▁세계관	-8845
▁소녀의	-8846
▁스티브	-8847
▁신기할	-8848
▁신하균	-8849
▁아동용	-8850
▁아시아	-8851
▁아이는	-8852
▁안나옴	-8853
▁없더라	-8854
▁오타쿠	-8855
▁요소는	-8856
▁울었음	-8857
▁위하여	-8858
▁유머가	-8859
▁인간을	-8860
▁있었나	-8861
▁잘생김	-8862
▁재발견	-8863
▁적절히	-8864
▁주제로	-8865
▁죽는다	-8866
▁집어넣	-8867
▁짱이다	-8868
▁첨이네	-8869
▁청춘의	-8870
▁초반의	-8871
▁클라라	-8872
▁클린트	-8873
▁튀어나	-8874
▁한동안	-8875
▁합시다	-8876
▁해줘서	-8877
▁확실한	-8878
▁흥해라	-8879
▁힘든데	-8880
스러워서	-8881
하더라도	-8882
▁1000	-8883
▁2010	-8884
▁그나저나	-8885
▁그래픽은	-8886
▁남자들이	-8887
▁돌아가고	-8888
▁드래곤볼	-8889
▁만드는지	-8890
▁멋있어요	-8891
▁못하지만	-8892
▁못했지만	-8893
▁보면서도	-8894
▁분들에게	-8895
▁사랑한다	-8896
▁상영관이	-8897
▁쓰레기들	-8898
▁쓰레기로	-8899
▁우리들의	-8900
▁이상하다	-8901
▁임파서블	-8902
▁좋아하게	-8903
▁중간부터	-8904
▁지들끼리	-8905
▁출연하는	-8906
▁코스프레	-8907
▁한심하다	-8908
▁허접하다	-8909
▁화려하고	-8910
▁공포영화를	-8911
▁느낌이랄까	-8912
▁만들었네요	-8913
▁만들었는데	-8914
▁시나리오에	-8915
▁엑소시스트	-8916
▁이스트우드	-8917
▁작품이라고	-8918
▁좋아했는데	-8919
▁크리스토퍼	-8920
▁덥	-8921
▁란	-8922
▁삘	-8923
겠냐	-8924
경을	-8925
대전	-8926
덜덜	-8927
디션	-8928
렷을	-8929
맞은	-8930
모가	-8931
번을	-8932
비홍	-8933
스도	-8934
시절	-8935
씬이	-8936
았고	-8937
약한	-8938
영환	-8939
일을	-8940
잡고	-8941
재가	-8942
진은	-8943
쳤던	-8944
크가	-8945
프가	-8946
플렉	-8947
하실	-8948
현이	-8949
훈이	-8950
▁st	-8951
▁갈아	-8952
▁개는	-8953
▁거대	-8954
▁거도	-8955
▁계신	-8956
▁공존	-8957
▁구나	-8958
▁구라	-8959
▁글구	-8960
▁긍정	-8961
▁나음	-8962
▁낳은	-8963
▁내보	-8964
▁내세	-8965
▁녹화	-8966
▁놓친	-8967
▁답다	-8968
▁데미	-8969
▁동심	-8970
▁동원	-8971
▁될지	-8972
▁두말	-8973
▁들려	-8974
▁들었	-8975
▁등의	-8976
▁뛰쳐	-8977
▁마땅	-8978
▁마인	-8979
▁마초	-8980
▁마츠	-8981
▁많을	-8982
▁먹음	-8983
▁몸에	-8984
▁물건	-8985
▁믿겨	-8986
▁믿기	-8987
▁바르	-8988
▁발생	-8989
▁보냐	-8990
▁본건	-8991
▁붙여	-8992
▁뿐만	-8993
▁삽입	-8994
▁상해	-8995
▁스마	-8996
▁시민	-8997
▁심어	-8998
▁심해	-8999
▁써야	-9000
▁썩은	-9001
▁악한	-9002
▁안질	-9003
▁애정	-9004
▁없죠	-9005
▁엇음	-9006
▁오류	-9007
▁오르	-9008
▁완죤	-9009
▁원표	-9010
▁인식	-9011
▁전환	-9012
▁점을	-9013
▁접한	-9014
▁존스	-9015
▁좋으	-9016
▁질러	-9017
▁최진	-9018
▁크고	-9019
▁크리	-9020
▁클루	-9021
▁파리	-9022
▁피트	-9023
▁필수	-9024
▁해적	-9025
▁햇다	-9026
▁허준	-9027
머니즘	-9028
시간을	-9029
으려는	-9030
줘야지	-9031
해졌다	-9032
▁가르쳐	-9033
▁같으니	-9034
▁거예요	-9035
▁걸까요	-9036
▁관객의	-9037
▁그녀는	-9038
▁그랬다	-9039
▁김태희	-9040
▁끝나지	-9041
▁끝내주	-9042
▁나라가	-9043
▁나오니	-9044
▁느리고	-9045
▁담아낸	-9046
▁답답함	-9047
▁런닝맨	-9048
▁망쳤다	-9049
▁매트릭	-9050
▁멋있음	-9051
▁몬스터	-9052
▁몰라서	-9053
▁못생긴	-9054
▁뭐하냐	-9055
▁미이라	-9056
▁배우다	-9057
▁별다른	-9058
▁불후의	-9059
▁비중이	-9060
▁사라져	-9061
▁상영관	-9062
▁새롭고	-9063
▁소설이	-9064
▁수준도	-9065
▁심각한	-9066
▁심해서	-9067
▁심했다	-9068
▁어찌나	-9069
▁없다면	-9070
▁여성의	-9071
▁연출의	-9072
▁연출한	-9073
▁웃겨요	-9074
▁음악에	-9075
▁의외로	-9076
▁이거는	-9077
▁이름만	-9078
▁인기가	-9079
▁일베충	-9080
▁자세히	-9081
▁잔혹한	-9082
▁재미업	-9083
▁저것도	-9084
▁저급한	-9085
▁전작에	-9086
▁조승우	-9087
▁졸려서	-9088
▁졸면서	-9089
▁좋아함	-9090
▁좋았어	-9091
▁줄리엣	-9092
▁차원이	-9093
▁찾아보	-9094
▁최민수	-9095
▁최초로	-9096
▁필요도	-9097
▁하시고	-9098
▁하시길	-9099
▁해보고	-9100
▁황정민	-9101
이었다는	-9102
적이지도	-9103
...!!	-9104
▁같았는데	-9105
▁그들만의	-9106
▁깔끔하게	-9107
▁나오면서	-9108
▁대사들이	-9109
▁둘째치고	-9110
▁만들어준	-9111
▁명작이라	-9112
▁묻어나는	-9113
▁보여주지	-9114
▁분위기와	-9115
▁불러일으	-9116
▁사람인데	-9117
▁선생님이	-9118
▁수준이다	-9119
▁시선으로	-9120
▁시원하게	-9121
▁실망했다	-9122
▁쓰레기통	-9123
▁아니겠지	-9124
▁아니라고	-9125
▁안타깝고	-9126
▁어떻게든	-9127
▁어쩌라는	-9128
▁영화니까	-9129
▁오리지널	-9130
▁웬만하면	-9131
▁인디아나	-9132
▁인물들이	-9133
▁인터스텔	-9134
▁작품으로	-9135
▁잘생기고	-9136
▁적당하다	-9137
▁최고에요	-9138
▁캐스팅에	-9139
▁표현하는	-9140
▁감정이입이	-9141
▁드라마에서	-9142
▁사람으로서	-9143
▁쓰레기라고	-9144
▁아니었으면	-9145
▁않았습니다	-9146
▁우리나라는	-9147
▁잔인하기만	-9148
▁킬링타임용도	-9149
45	-9150
dd	-9151
og	-9152
▁z	-9153
▁뺨	-9154
▁웟	-9155
▁즈	-9156
▁횡	-9157
개로	-9158
계를	-9159
구먼	-9160
군이	-9161
극의	-9162
놨다	-9163
더러	-9164
도에	-9165
드립	-9166
려도	-9167
리쉬	-9168
문의	-9169
물론	-9170
범죄	-9171
부턴	-9172
분만	-9173
비스	-9174
뿐만	-9175
서린	-9176
선의	-9177
안타	-9178
애니	-9179
었죠	-9180
연한	-9181
우리	-9182
위의	-9183
일라	-9184
중의	-9185
체를	-9186
추천	-9187
탄이	-9188
트에	-9189
프로	-9190
프리	-9191
▁67	-9192
▁er	-9193
▁sh	-9194
▁각자	-9195
▁강혜	-9196
▁건진	-9197
▁검사	-9198
▁고고	-9199
▁과잉	-9200
▁구석	-9201
▁김보	-9202
▁끝냈	-9203
▁남김	-9204
▁남지	-9205
▁내겐	-9206
▁너네	-9207
▁뇌가	-9208
▁대책	-9209
▁돌고	-9210
▁돌이	-9211
▁동일	-9212
▁드릴	-9213
▁듣보	-9214
▁라스	-9215
▁롯데	-9216
▁마마	-9217
▁못했	-9218
▁뭐죠	-9219
▁뭣도	-9220
▁미로	-9221
▁번에	-9222
▁볼거	-9223
▁불친	-9224
▁붕괴	-9225
▁비난	-9226
▁빼앗	-9227
▁사냥	-9228
▁사토	-9229
▁생김	-9230
▁소림	-9231
▁심은	-9232
▁쏘우	-9233
▁쏠쏠	-9234
▁쓰면	-9235
▁아야	-9236
▁아웃	-9237
▁안이	-9238
▁애를	-9239
▁어딨	-9240
▁얼른	-9241
▁여진	-9242
▁역쉬	-9243
▁엽문	-9244
▁오만	-9245
▁유희	-9246
▁으아	-9247
▁인내	-9248
▁인연	-9249
▁잇엇	-9250
▁저의	-9251
▁제미	-9252
▁조인	-9253
▁주의	-9254
▁지우	-9255
▁질주	-9256
▁짱나	-9257
▁창조	-9258
▁충무	-9259
▁측면	-9260
▁투표	-9261
▁플래	-9262
▁피어	-9263
▁하야	-9264
▁허니	-9265
▁호강	-9266
▁황홀	-9267
▁훈남	-9268
기라도	-9269
기보다	-9270
되네요	-9271
보면서	-9272
성으로	-9273
시간에	-9274
야겠다	-9275
처구니	-9276
티비로	-9277
하길래	-9278
..,,	-9279
▁0.5	-9280
▁120	-9281
▁각자의	-9282
▁감동에	-9283
▁구리다	-9284
▁그것은	-9285
▁금요일	-9286
▁김하늘	-9287
▁깊이가	-9288
▁나오냐	-9289
▁당신을	-9290
▁대작이	-9291
▁된다면	-9292
▁뒤집어	-9293
▁리스트	-9294
▁막히는	-9295
▁많았던	-9296
▁말이야	-9297
▁말이지	-9298
▁못된다	-9299
▁무료로	-9300
▁뭔가요	-9301
▁미국판	-9302
▁미안해	-9303
▁배경은	-9304
▁본다는	-9305
▁부럽다	-9306
▁부분만	-9307
▁분노가	-9308
▁사나이	-9309
▁사다코	-9310
▁사이에	-9311
▁성공한	-9312
▁슬프게	-9313
▁신나게	-9314
▁신현준	-9315
▁아이도	-9316
▁약하고	-9317
▁어느새	-9318
▁언니가	-9319
▁여주의	-9320
▁역할이	-9321
▁열정이	-9322
▁영상을	-9323
▁예상치	-9324
▁우리네	-9325
▁웬만한	-9326
▁이지만	-9327
▁잘생긴	-9328
▁장르에	-9329
▁재평가	-9330
▁즐거움	-9331
▁지금껏	-9332
▁지대로	-9333
▁초딩이	-9334
▁최고라	-9335
▁최고에	-9336
▁충실한	-9337
▁코믹한	-9338
▁크로우	-9339
▁프레디	-9340
▁하나님	-9341
▁한계가	-9342
▁한편의	-9343
▁했다면	-9344
▁행동이	-9345
▁황비홍	-9346
▁후반에	-9347
▁흘러가	-9348
▁흘러도	-9349
▁거부감이	-9350
▁겨울왕국	-9351
▁기준으로	-9352
▁두근두근	-9353
▁들어가는	-9354
▁마지막이	-9355
▁만들었음	-9356
▁매끄럽지	-9357
▁메세지는	-9358
▁미야자키	-9359
▁보냅니다	-9360
▁보았지만	-9361
▁보이려고	-9362
▁봐주겠다	-9363
▁불편하고	-9364
▁불필요한	-9365
▁사랑이란	-9366
▁상황에서	-9367
▁생각나네	-9368
▁시리즈로	-9369
▁시청자를	-9370
▁아저씨가	-9371
▁액션으로	-9372
▁어색하다	-9373
▁엉성하다	-9374
▁영화로써	-9375
▁영화였던	-9376
▁오글거려	-9377
▁이야기와	-9378
▁있었다는	-9379
▁작위적인	-9380
▁짜증나네	-9381
▁코미디를	-9382
▁크리스틴	-9383
▁포스터는	-9384
▁객관적으로	-9385
▁시나리오는	-9386
▁실망스럽다	-9387
▁아름다웠던	-9388
▁억지스럽다	-9389
▁오그라든다	-9390
▁우리나라에	-9391
▁지루하지만	-9392
▁처음입니다	-9393
..............	-9394
12	-9395
?"	-9396
?'	-9397
▁닝	-9398
▁룰	-9399
▁봅	-9400
▁쉣	-9401
▁왈	-9402
▁쟈	-9403
▁죤	-9404
▁줫	-9405
▁핫	-9406
건강	-9407
고에	-9408
금을	-9409
데터	-9410
라곤	-9411
랑은	-9412
랑이	-9413
력도	-9414
모를	-9415
무가	-9416
무니	-9417
미국	-9418
바닥	-9419
번도	-9420
상도	-9421
석은	-9422
신기	-9423
자고	-9424
재현	-9425
조연	-9426
준이	-9427
진의	-9428
칼렛	-9429
폭력	-9430
허접	-9431
ill	-9432
▁22	-9433
▁me	-9434
▁on	-9435
▁so	-9436
▁감당	-9437
▁갑작	-9438
▁갖추	-9439
▁개독	-9440
▁거나	-9441
▁게리	-9442
▁결합	-9443
▁곁에	-9444
▁고려	-9445
▁고로	-9446
▁구요	-9447
▁군요	-9448
▁귀가	-9449
▁근육	-9450
▁김유	-9451
▁끌려	-9452
▁나갔	-9453
▁나눠	-9454
▁난감	-9455
▁날로	-9456
▁눈부	-9457
▁니슨	-9458
▁다듬	-9459
▁답지	-9460
▁대형	-9461
▁데가	-9462
▁데서	-9463
▁도덕	-9464
▁됬다	-9465
▁딸을	-9466
▁매년	-9467
▁매회	-9468
▁머피	-9469
▁멋만	-9470
▁명도	-9471
▁몰래	-9472
▁못된	-9473
▁미개	-9474
▁미루	-9475
▁미칠	-9476
▁밝은	-9477
▁불꽃	-9478
▁붉은	-9479
▁비유	-9480
▁비틀	-9481
▁사수	-9482
▁사형	-9483
▁샤를	-9484
▁서민	-9485
▁서인	-9486
▁설렘	-9487
▁세대	-9488
▁속을	-9489
▁슈렉	-9490
▁스무	-9491
▁실컷	-9492
▁쏘는	-9493
▁아시	-9494
▁악평	-9495
▁안고	-9496
▁알수	-9497
▁앵글	-9498
▁옹호	-9499
▁외에	-9500
▁요구	-9501
▁원맨	-9502
▁이재	-9503
▁일도	-9504
▁작업	-9505
▁잘함	-9506
▁적응	-9507
▁전국	-9508
▁중세	-9509
▁줬을	-9510
▁지들	-9511
▁진보	-9512
▁진주	-9513
▁치열	-9514
▁침몰	-9515
▁터진	-9516
▁파는	-9517
▁평은	-9518
▁픽사	-9519
▁하길	-9520
▁하신	-9521
▁하얀	-9522
▁한글	-9523
▁후진	-9524
▁훈련	-9525
곱니다	-9526
급으로	-9527
연기도	-9528
을까요	-9529
이거나	-9530
이었음	-9531
인으로	-9532
졌지만	-9533
회까지	-9534
,...	-9535
..??	-9536
▁kbs	-9537
▁가볍고	-9538
▁가운데	-9539
▁간간히	-9540
▁강동원	-9541
▁거대한	-9542
▁거에요	-9543
▁구혜선	-9544
▁그리운	-9545
▁끝나면	-9546
▁나지만	-9547
▁나한테	-9548
▁내면의	-9549
▁느꼈던	-9550
▁니들은	-9551
▁다루는	-9552
▁당시의	-9553
▁대표작	-9554
▁더욱더	-9555
▁돌리도	-9556
▁되겠다	-9557
▁듣보잡	-9558
▁라디오	-9559
▁레이싱	-9560
▁막장의	-9561
▁망치는	-9562
▁목숨을	-9563
▁무너무	-9564
▁무비의	-9565
▁빠르고	-9566
▁빡쳐서	-9567
▁사건이	-9568
▁수면제	-9569
▁스칼렛	-9570
▁슬픔이	-9571
▁시선을	-9572
▁시스템	-9573
▁시작은	-9574
▁싶었음	-9575
▁싶지도	-9576
▁아들과	-9577
▁알아서	-9578
▁약간은	-9579
▁어려서	-9580
▁어려울	-9581
▁어렷을	-9582
▁엄마와	-9583
▁에라이	-9584
▁연기파	-9585
▁연출에	-9586
▁영혼을	-9587
▁우울할	-9588
▁웃음도	-9589
▁의미는	-9590
▁이동욱	-9591
▁일이다	-9592
▁자체로	-9593
▁자체의	-9594
▁작품들	-9595
▁전쟁에	-9596
▁정도껏	-9597
▁제작된	-9598
▁존재가	-9599
▁졸작이	-9600
▁주말에	-9601
▁주었다	-9602
▁중국의	-9603
▁즐겁다	-9604
▁즐기는	-9605
▁지나가	-9606
▁찾았다	-9607
▁치밀한	-9608
▁케이트	-9609
▁클리셰	-9610
▁투자한	-9611
▁하나를	-9612
▁후덜덜	-9613
스럽지만	-9614
점입니다	-9615
▁2001	-9616
▁공감되는	-9617
▁군대에서	-9618
▁기억하는	-9619
▁나왔다는	-9620
▁다시보기	-9621
▁따뜻하게	-9622
▁만들었던	-9623
▁만하네요	-9624
▁메세지도	-9625
▁무척이나	-9626
▁미국에서	-9627
▁볼거리도	-9628
▁불편하다	-9629
▁비슷하게	-9630
▁사무라이	-9631
▁성장영화	-9632
▁스릴러의	-9633
▁심사위원	-9634
▁이야기로	-9635
▁일어나는	-9636
▁자극하는	-9637
▁작품성은	-9638
▁채널에서	-9639
▁처음이네	-9640
▁코미디도	-9641
▁허무하다	-9642
▁나왔습니다	-9643
▁느꼈습니다	-9644
▁비현실적인	-9645
▁스크린으로	-9646
▁추천해주고	-9647
▁감동적이었습니다	-9648
67	-9649
ap	-9650
bc	-9651
ld	-9652
▁균	-9653
▁껍	-9654
▁셰	-9655
▁쯤	-9656
▁켜	-9657
▁퀸	-9658
▁팽	-9659
▁흰	-9660
겠고	-9661
근한	-9662
나온	-9663
녀가	-9664
달라	-9665
데이	-9666
리어	-9667
배는	-9668
비를	-9669
서도	-9670
설마	-9671
셉션	-9672
스라	-9673
스피	-9674
신도	-9675
야만	-9676
오랜	-9677
이기	-9678
잇는	-9679
장은	-9680
찮은	-9681
케이	-9682
타클	-9683
틀러	-9684
▁44	-9685
▁MC	-9686
▁no	-9687
▁가식	-9688
▁고급	-9689
▁고백	-9690
▁고은	-9691
▁교차	-9692
▁그곳	-9693
▁극을	-9694
▁깜찍	-9695
▁꿈에	-9696
▁낮춰	-9697
▁넘잼	-9698
▁뉴스	-9699
▁대도	-9700
▁대서	-9701
▁도가	-9702
▁돋네	-9703
▁디스	-9704
▁따윈	-9705
▁땀을	-9706
▁르네	-9707
▁마주	-9708
▁많지	-9709
▁못지	-9710
▁무능	-9711
▁묻고	-9712
▁미리	-9713
▁미사	-9714
▁밖엔	-9715
▁발톱	-9716
▁발휘	-9717
▁버티	-9718
▁봣음	-9719
▁산다	-9720
▁상투	-9721
▁수애	-9722
▁실존	-9723
▁실종	-9724
▁써요	-9725
▁쓰레	-9726
▁아랫	-9727
▁안젤	-9728
▁앨런	-9729
▁약해	-9730
▁어깨	-9731
▁어둠	-9732
▁어드	-9733
▁오다	-9734
▁오싹	-9735
▁왕자	-9736
▁은퇴	-9737
▁이념	-9738
▁이슈	-9739
▁이완	-9740
▁자매	-9741
▁자의	-9742
▁자존	-9743
▁자칫	-9744
▁잘난	-9745
▁장쯔	-9746
▁제한	-9747
▁젠장	-9748
▁조각	-9749
▁주체	-9750
▁죽지	-9751
▁지존	-9752
▁질투	-9753
▁책도	-9754
▁코엔	-9755
▁키워	-9756
▁테니	-9757
▁표본	-9758
▁프렌	-9759
▁합리	-9760
▁허전	-9761
▁현빈	-9762
▁화해	-9763
▁후한	-9764
렸어요	-9765
연기가	-9766
였다고	-9767
위원회	-9768
으라고	-9769
적이며	-9770
하더니	-9771
했다가	-9772
▁and	-9773
▁거구나	-9774
▁거밖에	-9775
▁괴물이	-9776
▁귀요미	-9777
▁그러니	-9778
▁극적인	-9779
▁김명민	-9780
▁까메오	-9781
▁꺼버림	-9782
▁나타나	-9783
▁나타난	-9784
▁남자랑	-9785
▁낭비한	-9786
▁내리는	-9787
▁놓치지	-9788
▁눈빛이	-9789
▁돋보임	-9790
▁되었을	-9791
▁되지만	-9792
▁들어왔	-9793
▁명작임	-9794
▁몰랐던	-9795
▁몰입을	-9796
▁미쳤다	-9797
▁바뀌고	-9798
▁바라며	-9799
▁박평식	-9800
▁보느라	-9801
▁보지만	-9802
▁비정상	-9803
▁사건의	-9804
▁사이의	-9805
▁살인을	-9806
▁상하다	-9807
▁설레는	-9808
▁세계가	-9809
▁수준급	-9810
▁실력이	-9811
▁아들의	-9812
▁안보신	-9813
▁어째서	-9814
▁엄마는	-9815
▁여자와	-9816
▁연출로	-9817
▁옆에서	-9818
▁오늘은	-9819
▁올리기	-9820
▁일상을	-9821
▁조선족	-9822
▁조용한	-9823
▁졸았다	-9824
▁좋아라	-9825
▁죽어서	-9826
▁중인데	-9827
▁집중할	-9828
▁최민식	-9829
▁출연료	-9830
▁터지고	-9831
▁특히나	-9832
▁평가가	-9833
▁표현을	-9834
▁필요는	-9835
▁한국은	-9836
▁해주고	-9837
시나리오	-9838
우면서도	-9839
이라고는	-9840
▁가족끼리	-9841
▁감동으로	-9842
▁개봉하지	-9843
▁만들기도	-9844
▁명작인데	-9845
▁모두에게	-9846
▁미화하는	-9847
▁배우들만	-9848
▁볼거리가	-9849
▁분명하다	-9850
▁비현실적	-9851
▁사랑스런	-9852
▁상상력을	-9853
▁생각밖에	-9854
▁생생하게	-9855
▁쓰레기임	-9856
▁아깝다고	-9857
▁아메리칸	-9858
▁아이들을	-9859
▁알면서도	-9860
▁이상하고	-9861
▁이해하지	-9862
▁작품성이	-9863
▁전개되는	-9864
▁좋아하면	-9865
▁주인공인	-9866
▁촌스러운	-9867
▁최곱니다	-9868
▁하기에는	-9869
▁휴머니즘	-9870
▁드라마였다	-9871
▁러브스토리	-9872
▁몰입하면서	-9873
▁수작입니다	-9874
▁시나리오와	-9875
▁싸이코패스	-9876
▁연기자들의	-9877
▁우리나라에서	-9878
.;	-9879
▁껴	-9880
▁닐	-9881
▁둥	-9882
▁득	-9883
▁롭	-9884
▁밸	-9885
▁빤	-9886
▁숫	-9887
▁쭈	-9888
▁챔	-9889
▁턱	-9890
굿굿	-9891
그냥	-9892
긴장	-9893
다리	-9894
대기	-9895
디가	-9896
라나	-9897
르다	-9898
리타	-9899
마는	-9900
보소	-9901
부에	-9902
비치	-9903
산이	-9904
에다	-9905
우니	-9906
음에	-9907
제는	-9908
중간	-9909
즈는	-9910
지나	-9911
책임	-9912
태웅	-9913
통수	-9914
하듯	-9915
하의	-9916
하이	-9917
회의	-9918
,..	-9919
ant	-9920
ent	-9921
ery	-9922
▁2.	-9923
▁OC	-9924
▁av	-9925
▁갑갑	-9926
▁건축	-9927
▁걸려	-9928
▁고수	-9929
▁공개	-9930
▁괴롭	-9931
▁교수	-9932
▁구원	-9933
▁귀에	-9934
▁그땐	-9935
▁그릇	-9936
▁극과	-9937
▁근거	-9938
▁금방	-9939
▁기어	-9940
▁나뿐	-9941
▁넘겨	-9942
▁넘버	-9943
▁높고	-9944
▁대략	-9945
▁대변	-9946
▁데도	-9947
▁데로	-9948
▁동호	-9949
▁때만	-9950
▁록키	-9951
▁마크	-9952
▁만함	-9953
▁먼가	-9954
▁문근	-9955
▁물이	-9956
▁미숙	-9957
▁박스	-9958
▁밴드	-9959
▁병헌	-9960
▁보실	-9961
▁보호	-9962
▁볼꺼	-9963
▁선율	-9964
▁성향	-9965
▁순위	-9966
▁숨이	-9967
▁신앙	-9968
▁쌍욕	-9969
▁악몽	-9970
▁악의	-9971
▁알리	-9972
▁암살	-9973
▁암이	-9974
▁야한	-9975
▁어서	-9976
▁어의	-9977
▁얻을	-9978
▁완소	-9979
▁왕국	-9980
▁왜냐	-9981
▁요한	-9982
▁운운	-9983
▁울려	-9984
▁울릴	-9985
▁유오	-9986
▁이뤄	-9987
▁이슬	-9988
▁이웃	-9989
▁이의	-9990
▁이틀	-9991
▁잡다	-9992
▁정유	-9993
▁제법	-9994
▁조여	-9995
▁조은	-9996
▁죄를	-9997
▁중엔	-9998
▁중인	-9999
▁지리	-10000
▁진영	-10001
▁짠한	-10002
▁짱구	-10003
▁차려	-10004
▁추잡	-10005
▁치우	-10006
▁타는	-10007
▁파일	-10008
▁피가	-10009
▁하필	-10010
▁한결	-10011
▁해본	-10012
▁허구	-10013
▁호평	-10014
▁호프	-10015
▁훼손	-10016
▁휴가	-10017
▁흔히	-10018
▁히트	-10019
거든요	-10020
당하는	-10021
묘하게	-10022
봤네요	-10023
스트너	-10024
시하는	-10025
았네요	-10026
웠는데	-10027
이라곤	-10028
▁가지로	-10029
▁강호동	-10030
▁경찰이	-10031
▁고통을	-10032
▁그녀가	-10033
▁그리스	-10034
▁극장서	-10035
▁기억을	-10036
▁김강우	-10037
▁김남길	-10038
▁깊었던	-10039
▁남자들	-10040
▁단체로	-10041
▁대사들	-10042
▁더빙을	-10043
▁데려다	-10044
▁따듯한	-10045
▁떄문에	-10046
▁말라는	-10047
▁멋대로	-10048
▁멋있어	-10049
▁뭉클한	-10050
▁반전과	-10051
▁번쯤은	-10052
▁보내고	-10053
▁보내는	-10054
▁본다고	-10055
▁본인이	-10056
▁봤으니	-10057
▁불쌍함	-10058
▁빠르게	-10059
▁산드라	-10060
▁순간이	-10061
▁슬픔을	-10062
▁시작할	-10063
▁아팠다	-10064
▁애니로	-10065
▁어설퍼	-10066
▁얼굴을	-10067
▁없으며	-10068
▁없이도	-10069
▁엉덩이	-10070
▁역사의	-10071
▁연기나	-10072
▁영구와	-10073
▁오인혜	-10074
▁운명을	-10075
▁원맨쇼	-10076
▁위에서	-10077
▁이렇지	-10078
▁이쁘게	-10079
▁있기에	-10080
▁전개를	-10081
▁조재현	-10082
▁지구를	-10083
▁찌질한	-10084
▁찍어라	-10085
▁처음임	-10086
▁초능력	-10087
▁최고작	-10088
▁추악한	-10089
▁터무니	-10090
▁팬인데	-10091
▁피라냐	-10092
▁한정된	-10093
▁핸드폰	-10094
▁행복해	-10095
▁흐름을	-10096
▁흔적이	-10097
적이지만	-10098
킬링타임	-10099
▁,,,,	-10100
▁2009	-10101
▁그래픽도	-10102
▁깨달았다	-10103
▁나에게는	-10104
▁나오지만	-10105
▁남자들의	-10106
▁누구에게	-10107
▁떠올리게	-10108
▁마지막의	-10109
▁만든다는	-10110
▁만큼이나	-10111
▁망했는지	-10112
▁무의미한	-10113
▁뱀파이어	-10114
▁사랑스러	-10115
▁생각하니	-10116
▁아무래도	-10117
▁알았네요	-10118
▁어처구니	-10119
▁없었다면	-10120
▁없었어요	-10121
▁여배우들	-10122
▁영화까지	-10123
▁영화보단	-10124
▁웃기기도	-10125
▁있을까요	-10126
▁저평가된	-10127
▁정신건강	-10128
▁주연으로	-10129
▁주인공과	-10130
▁참신하고	-10131
▁코스트너	-10132
▁허술하다	-10133
▁현실이다	-10134
▁기대됩니다	-10135
▁로그인하게	-10136
▁만들었어요	-10137
▁생각하는데	-10138
▁실망스러운	-10139
▁여주인공은	-10140
▁캐릭터들의	-10141
▁파워레인저	-10142
▁행복했습니다	-10143
,,,,,,,,	-10144
;;;;;;;;	-10145
!!!!!!!!!	-10146
60	-10147
ic	-10148
ul	-10149
▁꽂	-10150
▁낀	-10151
▁뻣	-10152
▁삭	-10153
▁썬	-10154
▁앓	-10155
▁퉤	-10156
▁헨	-10157
▁훗	-10158
가루	-10159
개그	-10160
개념	-10161
게임	-10162
군의	-10163
기스	-10164
리온	-10165
말도	-10166
무엇	-10167
보던	-10168
사도	-10169
상과	-10170
생을	-10171
센트	-10172
소를	-10173
시라	-10174
시청	-10175
양의	-10176
언니	-10177
엄마	-10178
엄청	-10179
었는	-10180
용이	-10181
은혜	-10182
전히	-10183
졌고	-10184
조아	-10185
짜는	-10186
코의	-10187
피를	-10188
행을	-10189
ain	-10190
all	-10191
▁my	-10192
▁가리	-10193
▁개떡	-10194
▁경기	-10195
▁계시	-10196
▁괴작	-10197
▁구로	-10198
▁구매	-10199
▁극의	-10200
▁글자	-10201
▁꼽는	-10202
▁내지	-10203
▁넘이	-10204
▁네가	-10205
▁논란	-10206
▁높음	-10207
▁눈도	-10208
▁눈은	-10209
▁단조	-10210
▁대리	-10211
▁대만	-10212
▁대여	-10213
▁도는	-10214
▁독백	-10215
▁떠난	-10216
▁똥폼	-10217
▁뜻이	-10218
▁마련	-10219
▁마루	-10220
▁마저	-10221
▁망함	-10222
▁매튜	-10223
▁맥아	-10224
▁맥어	-10225
▁메인	-10226
▁무덤	-10227
▁문학	-10228
▁물리	-10229
▁반가	-10230
▁별이	-10231
▁보물	-10232
▁볼껄	-10233
▁분석	-10234
▁빼놓	-10235
▁사서	-10236
▁사춘	-10237
▁살릴	-10238
▁삼국	-10239
▁생뚱	-10240
▁소비	-10241
▁순정	-10242
▁스캔	-10243
▁스탠	-10244
▁시리	-10245
▁씨는	-10246
▁안목	-10247
▁압박	-10248
▁야이	-10249
▁양산	-10250
▁언론	-10251
▁에어	-10252
▁연계	-10253
▁연쇄	-10254
▁예정	-10255
▁올린	-10256
▁울음	-10257
▁윤계	-10258
▁윤아	-10259
▁이들	-10260
▁이범	-10261
▁일방	-10262
▁일제	-10263
▁자전	-10264
▁자제	-10265
▁잠든	-10266
▁장만	-10267
▁전통	-10268
▁조쉬	-10269
▁좌파	-10270
▁주위	-10271
▁중이	-10272
▁짧고	-10273
▁쫄깃	-10274
▁참혹	-10275
▁청년	-10276
▁초콜	-10277
▁친일	-10278
▁쿠삭	-10279
▁타입	-10280
▁튀는	-10281
▁학원	-10282
▁한예	-10283
▁한쪽	-10284
▁합쳐	-10285
▁헐크	-10286
▁홀로	-10287
▁후의	-10288
▁희한	-10289
▁힘듬	-10290
거리고	-10291
날로그	-10292
년대의	-10293
러워서	-10294
번이나	-10295
보네요	-10296
았다는	-10297
였다니	-10298
이니까	-10299
일리언	-10300
점에서	-10301
졌네요	-10302
치고는	-10303
픕니다	-10304
▁OCN	-10305
▁가지는	-10306
▁각본과	-10307
▁각본이	-10308
▁감정의	-10309
▁같다고	-10310
▁개봉작	-10311
▁개재밌	-10312
▁걸작이	-10313
▁공효진	-10314
▁국민이	-10315
▁그때는	-10316
▁그러는	-10317
▁그림이	-10318
▁끝났다	-10319
▁끝으로	-10320
▁나았다	-10321
▁높네요	-10322
▁느끼지	-10323
▁닿는다	-10324
▁대하여	-10325
▁돋는다	-10326
▁들었음	-10327
▁따라서	-10328
▁똑같다	-10329
▁많았다	-10330
▁멋있게	-10331
▁모두들	-10332
▁모두를	-10333
▁무삭제	-10334
▁뭔가를	-10335
▁발견한	-10336
▁봤어도	-10337
▁부끄럽	-10338
▁빠지지	-10339
▁사실에	-10340
▁서서히	-10341
▁성우를	-10342
▁성유리	-10343
▁소설의	-10344
▁신나는	-10345
▁신민아	-10346
▁신파극	-10347
▁아들을	-10348
▁않다는	-10349
▁암울한	-10350
▁앞뒤가	-10351
▁애절한	-10352
▁어떨까	-10353
▁얼굴만	-10354
▁없는지	-10355
▁엇는데	-10356
▁완벽히	-10357
▁외로운	-10358
▁웃기지	-10359
▁유아용	-10360
▁이은주	-10361
▁이전에	-10362
▁이하드	-10363
▁이하의	-10364
▁일본식	-10365
▁일어난	-10366
▁있었지	-10367
▁장난이	-10368
▁전개로	-10369
▁전편에	-10370
▁전하는	-10371
▁좀비물	-10372
▁지저분	-10373
▁지하철	-10374
▁찌질이	-10375
▁차가운	-10376
▁최선을	-10377
▁케이지	-10378
▁투성이	-10379
▁평가할	-10380
▁프로젝	-10381
▁하야오	-10382
▁한국형	-10383
▁했어야	-10384
▁2008	-10385
▁개연성은	-10386
▁계속해서	-10387
▁괜찮았고	-10388
▁그러니까	-10389
▁나오니까	-10390
▁나옵니다	-10391
▁남자친구	-10392
▁능가하는	-10393
▁때문인지	-10394
▁리얼하게	-10395
▁먹으면서	-10396
▁멋집니다	-10397
▁무언가가	-10398
▁물론이고	-10399
▁미치겠다	-10400
▁별로네요	-10401
▁분위기의	-10402
▁불가능한	-10403
▁솔직하게	-10404
▁스토리만	-10405
▁신기하다	-10406
▁아름다워	-10407
▁아이리스	-10408
▁액션영화	-10409
▁어땠을까	-10410
▁어머니의	-10411
▁영화에는	-10412
▁올레티비	-10413
▁외계인이	-10414
▁원작보다	-10415
▁진정으로	-10416
▁코미디로	-10417
▁판타지를	-10418
▁팬이라서	-10419
▁프레데터	-10420
▁하는구나	-10421
▁허무하고	-10422
▁화끈하게	-10423
▁후반으로	-10424
▁내용이지만	-10425
▁미안하지만	-10426
▁사람으로써	-10427
▁실망시키지	-10428
▁실망입니다	-10429
▁자연스럽고	-10430
▁조금이라도	-10431
▁좋아합니다	-10432
▁지루하다고	-10433
▁캐릭터들도	-10434
▁평론가들은	-10435
▁깃	-10436
▁닉	-10437
▁닦	-10438
▁뺀	-10439
▁뻘	-10440
▁샀	-10441
▁셔	-10442
▁썻	-10443
▁욤	-10444
▁츠	-10445
▁킥	-10446
▁텅	-10447
▁헝	-10448
개인	-10449
거에	-10450
겠군	-10451
나옴	-10452
님과	-10453
돈이	-10454
됐다	-10455
려야	-10456
렬한	-10457
론데	-10458
르르	-10459
르지	-10460
미니	-10461
부림	-10462
부족	-10463
비한	-10464
세이	-10465
셜록	-10466
씨와	-10467
앗다	-10468
았어	-10469
오고	-10470
오로	-10471
오브	-10472
우면	-10473
운의	-10474
월드	-10475
웠을	-10476
음의	-10477
일뿐	-10478
작정	-10479
잡는	-10480
적임	-10481
증에	-10482
지원	-10483
쩐다	-10484
치콕	-10485
코가	-10486
키스	-10487
판은	-10488
피니	-10489
하리	-10490
호는	-10491
hat	-10492
ore	-10493
▁97	-10494
▁AV	-10495
▁가관	-10496
▁가미	-10497
▁각성	-10498
▁강남	-10499
▁강철	-10500
▁걷는	-10501
▁걸레	-10502
▁걸음	-10503
▁고정	-10504
▁광해	-10505
▁군데	-10506
▁글래	-10507
▁기쁨	-10508
▁끼치	-10509
▁낫네	-10510
▁낯선	-10511
▁넣고	-10512
▁놀람	-10513
▁높냐	-10514
▁당당	-10515
▁더만	-10516
▁덕후	-10517
▁독재	-10518
▁동방	-10519
▁동참	-10520
▁돼서	-10521
▁되새	-10522
▁둘러	-10523
▁들은	-10524
▁디아	-10525
▁때로	-10526
▁명예	-10527
▁모래	-10528
▁무거	-10529
▁미만	-10530
▁미워	-10531
▁미키	-10532
▁박영	-10533
▁박힌	-10534
▁보장	-10535
▁봣는	-10536
▁부재	-10537
▁빌리	-10538
▁사막	-10539
▁생겨	-10540
▁선교	-10541
▁선배	-10542
▁세포	-10543
▁소외	-10544
▁손을	-10545
▁수다	-10546
▁수백	-10547
▁스탭	-10548
▁승화	-10549
▁시바	-10550
▁신동	-10551
▁아자	-10552
▁압축	-10553
▁약을	-10554
▁얄팍	-10555
▁언어	-10556
▁여인	-10557
▁옥의	-10558
▁웅장	-10559
▁원망	-10560
▁원빈	-10561
▁의존	-10562
▁인한	-10563
▁잡지	-10564
▁장치	-10565
▁재해	-10566
▁재회	-10567
▁전무	-10568
▁정답	-10569
▁제공	-10570
▁조명	-10571
▁졸린	-10572
▁주려	-10573
▁주원	-10574
▁죽일	-10575
▁지속	-10576
▁진솔	-10577
▁진화	-10578
▁차기	-10579
▁책이	-10580
▁쳐다	-10581
▁춤을	-10582
▁치면	-10583
▁토요	-10584
▁파란	-10585
▁파티	-10586
▁팬티	-10587
▁편히	-10588
▁필모	-10589
▁함정	-10590
▁해줬	-10591
▁했지	-10592
▁행위	-10593
▁형이	-10594
▁후유	-10595
▁흔해	-10596
내용이	-10597
다가도	-10598
들보다	-10599
사에서	-10600
이기에	-10601
하겠지	-10602
하려면	-10603
...2	-10604
aver	-10605
▁140	-10606
▁가는데	-10607
▁개봉할	-10608
▁교훈이	-10609
▁구하기	-10610
▁궁금해	-10611
▁기회를	-10612
▁긴장을	-10613
▁꼽히는	-10614
▁나라는	-10615
▁난해한	-10616
▁납득이	-10617
▁눈요기	-10618
▁더빙도	-10619
▁데이먼	-10620
▁또다시	-10621
▁만들까	-10622
▁말대로	-10623
▁말한다	-10624
▁맞지만	-10625
▁먹어라	-10626
▁몰입할	-10627
▁못지않	-10628
▁무책임	-10629
▁묵직한	-10630
▁민망한	-10631
▁바보가	-10632
▁배우에	-10633
▁버렸네	-10634
▁보겠음	-10635
▁보라는	-10636
▁복수가	-10637
▁분노의	-10638
▁소년의	-10639
▁슈스케	-10640
▁스트립	-10641
▁싫어서	-10642
▁아마도	-10643
▁아쉽게	-10644
▁애국심	-10645
▁애니의	-10646
▁어디가	-10647
▁어디선	-10648
▁어벤져	-10649
▁없잖아	-10650
▁엉뚱한	-10651
▁여실히	-10652
▁연결이	-10653
▁연기들	-10654
▁영상물	-10655
▁영혼이	-10656
▁영화고	-10657
▁예술을	-10658
▁유치할	-10659
▁음악만	-10660
▁음악의	-10661
▁이순신	-10662
▁이하도	-10663
▁인피니	-10664
▁일점도	-10665
▁잃었다	-10666
▁잔잔함	-10667
▁재밋네	-10668
▁전까지	-10669
▁점주는	-10670
▁제목도	-10671
▁좋으면	-10672
▁주변에	-10673
▁죽겠다	-10674
▁줘야지	-10675
▁짧아서	-10676
▁찍어도	-10677
▁찍어서	-10678
▁초반은	-10679
▁최대한	-10680
▁콘서트	-10681
▁퍼펙트	-10682
▁포기한	-10683
▁하구만	-10684
▁한국에	-10685
▁해리슨	-10686
▁했어도	-10687
▁행동을	-10688
▁허니잼	-10689
▁호기심	-10690
▁환상의	-10691
이라지만	-10692
....?	-10693
▁고마워요	-10694
▁관대하다	-10695
▁괜찮던데	-10696
▁그렇네요	-10697
▁기다리고	-10698
▁기억하고	-10699
▁끊임없이	-10700
▁난해하다	-10701
▁내용이나	-10702
▁느낌으로	-10703
▁들었는데	-10704
▁멋지네요	-10705
▁반성해라	-10706
▁반전까지	-10707
▁배우에게	-10708
▁보았어요	-10709
▁빠져들어	-10710
▁삼류영화	-10711
▁생각지도	-10712
▁생각해요	-10713
▁스케일도	-10714
▁신선하다	-10715
▁실화라고	-10716
▁아날로그	-10717
▁아니에요	-10718
▁아버지를	-10719
▁아쉬웠다	-10720
▁알았지만	-10721
▁엑스트라	-10722
▁여자들은	-10723
▁연출력도	-10724
▁였습니다	-10725
▁영화라도	-10726
▁영화로는	-10727
▁예고편만	-10728
▁오래오래	-10729
▁완성도는	-10730
▁왠만해선	-10731
▁욕하면서	-10732
▁유쾌하다	-10733
▁이름으로	-10734
▁재밌겠다	-10735
▁재밌었어	-10736
▁줄거리도	-10737
▁지루해요	-10738
▁짱입니다	-10739
▁최고였음	-10740
▁팬이지만	-10741
▁풋풋하고	-10742
▁해주길래	-10743
▁현실에서	-10744
▁훌륭했다	-10745
▁공포영화의	-10746
▁내용인지도	-10747
▁대단하네요	-10748
▁드라마인데	-10749
▁마이너스는	-10750
▁먹먹해지는	-10751
▁생각해보면	-10752
▁스타일리쉬	-10753
▁아름다움을	-10754
▁인상적이다	-10755
▁잔잔하면서	-10756
▁최악입니다	-10757
▁친구들이랑	-10758
▁해피엔딩이	-10759
▁행복해지는	-10760
▁애니메이션은	-10761
15	-10762
?.	-10763
▁낄	-10764
▁듦	-10765
▁떳	-10766
▁랄	-10767
▁랭	-10768
▁룬	-10769
▁뷰	-10770
▁엎	-10771
▁왼	-10772
▁쬐	-10773
가자	-10774
감정	-10775
겠나	-10776
고은	-10777
금이	-10778
까봐	-10779
너스	-10780
대화	-10781
더의	-10782
락이	-10783
멸의	-10784
모니	-10785
베리	-10786
병이	-10787
복이	-10788
빠진	-10789
뻔한	-10790
상실	-10791
수로	-10792
수작	-10793
스톤	-10794
시로	-10795
아까	-10796
야의	-10797
이긴	-10798
이러	-10799
이리	-10800
입견	-10801
저런	-10802
조한	-10803
지길	-10804
쨋든	-10805
탄을	-10806
텔링	-10807
트리	-10808
하군	-10809
하루	-10810
ast	-10811
▁?!	-10812
▁각인	-10813
▁거침	-10814
▁계단	-10815
▁공격	-10816
▁공식	-10817
▁공원	-10818
▁괜춘	-10819
▁그레	-10820
▁깨우	-10821
▁꺼다	-10822
▁꺼라	-10823
▁꾸준	-10824
▁끈다	-10825
▁났던	-10826
▁내린	-10827
▁넘들	-10828
▁누님	-10829
▁님들	-10830
▁단점	-10831
▁달러	-10832
▁대다	-10833
▁독창	-10834
▁때론	-10835
▁떨지	-10836
▁뚜렷	-10837
▁망쳤	-10838
▁미도	-10839
▁박한	-10840
▁밝고	-10841
▁변명	-10842
▁별을	-10843
▁보낸	-10844
▁보세	-10845
▁복제	-10846
▁빈틈	-10847
▁사례	-10848
▁수술	-10849
▁수업	-10850
▁수위	-10851
▁스며	-10852
▁스탤	-10853
▁썩어	-10854
▁안전	-10855
▁안티	-10856
▁안함	-10857
▁않길	-10858
▁알렌	-10859
▁애는	-10860
▁애썼	-10861
▁야쿠	-10862
▁약속	-10863
▁어케	-10864
▁언급	-10865
▁얻은	-10866
▁여우	-10867
▁엿다	-10868
▁왜들	-10869
▁울었	-10870
▁웃어	-10871
▁유역	-10872
▁유혼	-10873
▁육체	-10874
▁이따	-10875
▁일드	-10876
▁잉여	-10877
▁작정	-10878
▁잘라	-10879
▁장기	-10880
▁저격	-10881
▁정글	-10882
▁주민	-10883
▁직원	-10884
▁진출	-10885
▁차인	-10886
▁처참	-10887
▁천녀	-10888
▁초대	-10889
▁초라	-10890
▁치명	-10891
▁콧물	-10892
▁탐욕	-10893
▁통틀	-10894
▁포드	-10895
▁피는	-10896
▁필립	-10897
▁형태	-10898
▁호감	-10899
들이다	-10900
로써는	-10901
뿐이다	-10902
십시오	-10903
아저씨	-10904
오르는	-10905
일까요	-10906
점이면	-10907
점인데	-10908
정으로	-10909
테이크	-10910
하느라	-10911
해주고	-10912
▁but	-10913
▁가만히	-10914
▁가볍지	-10915
▁가지만	-10916
▁가치는	-10917
▁강하다	-10918
▁강혜정	-10919
▁개인적	-10920
▁개짜증	-10921
▁거라곤	-10922
▁공감은	-10923
▁과거의	-10924
▁구석이	-10925
▁기승전	-10926
▁기억은	-10927
▁꼬맹이	-10928
▁끔찍한	-10929
▁나쁘다	-10930
▁나중엔	-10931
▁노래와	-10932
▁노출이	-10933
▁누구냐	-10934
▁느껴짐	-10935
▁다시보	-10936
▁데이트	-10937
▁돋았다	-10938
▁돌아온	-10939
▁리얼한	-10940
▁먹었다	-10941
▁모니터	-10942
▁못했음	-10943
▁무작정	-10944
▁미래의	-10945
▁미치지	-10946
▁바보로	-10947
▁보겠네	-10948
▁보시고	-10949
▁본질을	-10950
▁봤으나	-10951
▁부실한	-10952
▁사랑한	-10953
▁생생한	-10954
▁성격이	-10955
▁스릴은	-10956
▁스마트	-10957
▁신동엽	-10958
▁신선함	-10959
▁심하네	-10960
▁아니란	-10961
▁알려주	-10962
▁어드벤	-10963
▁어렵게	-10964
▁엄태웅	-10965
▁역겹고	-10966
▁영환지	-10967
▁오드리	-10968
▁이건뭐	-10969
▁이기는	-10970
▁이끌어	-10971
▁이라고	-10972
▁이러한	-10973
▁이해는	-10974
▁익숙한	-10975
▁인셉션	-10976
▁임수정	-10977
▁잠수함	-10978
▁장근석	-10979
▁장난해	-10980
▁장애인	-10981
▁재밋엇	-10982
▁전체를	-10983
▁정서에	-10984
▁조연들	-10985
▁죽음의	-10986
▁죽인다	-10987
▁지겨운	-10988
▁처절한	-10989
▁철학이	-10990
▁최고지	-10991
▁친구를	-10992
▁카타르	-10993
▁테스트	-10994
▁평점만	-10995
▁포장한	-10996
▁하기도	-10997
▁허무함	-10998
▁허접함	-10999
▁환타지	-11000
▁흥행에	-11001
공포영화	-11002
기보다는	-11003
점이라도	-11004
?????	-11005
▁2002	-11006
▁Very	-11007
▁감독이나	-11008
▁감동감동	-11009
▁극단적인	-11010
▁기분이다	-11011
▁끝났으면	-11012
▁남습니다	-11013
▁넘어가는	-11014
▁눈물나게	-11015
▁눈물난다	-11016
▁담담하게	-11017
▁따뜻하다	-11018
▁떠오른다	-11019
▁만들었지	-11020
▁몰입감이	-11021
▁무섭다고	-11022
▁무시하고	-11023
▁속에서도	-11024
▁수준으로	-11025
▁스릴러도	-11026
▁스펙타클	-11027
▁쓰레기인	-11028
▁않았어요	-11029
▁알겠으나	-11030
▁연기들이	-11031
▁연기력을	-11032
▁이미지가	-11033
▁있었네요	-11034
▁잔잔하니	-11035
▁촌스럽고	-11036
▁촌스럽지	-11037
▁포인트가	-11038
▁필요할까	-11039
▁하루하루	-11040
▁홍보영화	-11041
▁!!!!!	-11042
▁다르겠지만	-11043
▁대단합니다	-11044
▁대한민국의	-11045
▁모르겠어요	-11046
▁모르겠으나	-11047
▁아쉽습니다	-11048
▁알았습니다	-11049
▁억지스러움	-11050
▁영화이지만	-11051
▁잊혀지지가	-11052
▁잔인하지도	-11053
▁재미없던데	-11054
▁적나라하게	-11055
▁정신건강에	-11056
▁지루하지도	-11057
▁지루합니다	-11058
▁감사드립니다	-11059
▁감동적이었어요	-11060
22	-11061
40	-11062
50	-11063
▁귓	-11064
▁긋	-11065
▁띠	-11066
▁랜	-11067
▁램	-11068
▁벙	-11069
▁좁	-11070
각기	-11071
겟네	-11072
구난	-11073
기법	-11074
꼬마	-11075
난이	-11076
더빙	-11077
동을	-11078
디에	-11079
레미	-11080
맨이	-11081
바른	-11082
보라	-11083
상영	-11084
시를	-11085
시즘	-11086
애들	-11087
자연	-11088
잔잔	-11089
제작	-11090
져도	-11091
질질	-11092
탄은	-11093
트와	-11094
프트	-11095
하드	-11096
호화	-11097
희씨	-11098
▁27	-11099
▁No	-11100
▁가도	-11101
▁감기	-11102
▁개빡	-11103
▁개쩌	-11104
▁거네	-11105
▁것의	-11106
▁고쳐	-11107
▁골든	-11108
▁그루	-11109
▁극중	-11110
▁기반	-11111
▁나나	-11112
▁낮을	-11113
▁노인	-11114
▁농락	-11115
▁누워	-11116
▁달린	-11117
▁대구	-11118
▁들면	-11119
▁등에	-11120
▁디자	-11121
▁레기	-11122
▁망상	-11123
▁명대	-11124
▁목표	-11125
▁무려	-11126
▁무성	-11127
▁물로	-11128
▁뭐든	-11129
▁바꿀	-11130
▁반짝	-11131
▁백만	-11132
▁버스	-11133
▁베낀	-11134
▁베르	-11135
▁보수	-11136
▁봉태	-11137
▁분신	-11138
▁비비	-11139
▁상승	-11140
▁샤말	-11141
▁설픔	-11142
▁성지	-11143
▁성질	-11144
▁속상	-11145
▁수식	-11146
▁수퍼	-11147
▁신도	-11148
▁신뢰	-11149
▁씬도	-11150
▁아일	-11151
▁아휴	-11152
▁알만	-11153
▁에스	-11154
▁엠비	-11155
▁역의	-11156
▁오고	-11157
▁오줌	-11158
▁우기	-11159
▁윌스	-11160
▁유부	-11161
▁유작	-11162
▁유전	-11163
▁이랑	-11164
▁이만	-11165
▁인증	-11166
▁잊어	-11167
▁자료	-11168
▁재일	-11169
▁저래	-11170
▁정권	-11171
▁정쩡	-11172
▁조디	-11173
▁조커	-11174
▁졸립	-11175
▁줄만	-11176
▁지닌	-11177
▁추적	-11178
▁칼로	-11179
▁타짜	-11180
▁탈을	-11181
▁통찰	-11182
▁통한	-11183
▁팬더	-11184
▁해학	-11185
▁허영	-11186
▁회를	-11187
간다는	-11188
결말이	-11189
나보다	-11190
나이트	-11191
랍시고	-11192
분보다	-11193
셨으면	-11194
스럽네	-11195
아무리	-11196
에게서	-11197
음에도	-11198
일라잇	-11199
자마자	-11200
하구만	-11201
하라고	-11202
하시고	-11203
하하하	-11204
9999	-11205
▁cgv	-11206
▁가족들	-11207
▁감성에	-11208
▁거리는	-11209
▁고생한	-11210
▁그치만	-11211
▁급하게	-11212
▁기억도	-11213
▁꼬라지	-11214
▁다녀온	-11215
▁돋보인	-11216
▁동심을	-11217
▁두배우	-11218
▁들었던	-11219
▁들지만	-11220
▁때문이	-11221
▁매력도	-11222
▁모를까	-11223
▁못하면	-11224
▁문제다	-11225
▁묻어나	-11226
▁미국에	-11227
▁미묘한	-11228
▁밖에는	-11229
▁발랄한	-11230
▁발전이	-11231
▁변하는	-11232
▁부끄러	-11233
▁비교할	-11234
▁생기는	-11235
▁선택을	-11236
▁선택이	-11237
▁설정을	-11238
▁심하고	-11239
▁씹노잼	-11240
▁아픔이	-11241
▁얼굴에	-11242
▁엇어요	-11243
▁엉망인	-11244
▁여동생	-11245
▁역량이	-11246
▁와중에	-11247
▁완전한	-11248
▁용서가	-11249
▁유머와	-11250
▁이런데	-11251
▁이어서	-11252
▁일본판	-11253
▁자리를	-11254
▁자리에	-11255
▁잘나가	-11256
▁재미난	-11257
▁전에는	-11258
▁전편의	-11259
▁정치적	-11260
▁제작자	-11261
▁주겠다	-11262
▁주네요	-11263
▁주연이	-11264
▁주제곡	-11265
▁죽었다	-11266
▁즐거워	-11267
▁지겨워	-11268
▁지르는	-11269
▁차이를	-11270
▁최강의	-11271
▁추억에	-11272
▁추천함	-11273
▁춤추는	-11274
▁친구와	-11275
▁캐서린	-11276
▁커플이	-11277
▁타이밍	-11278
▁티비에	-11279
▁평소에	-11280
▁피터팬	-11281
▁하겠다	-11282
▁하군요	-11283
▁하나씩	-11284
▁하더니	-11285
▁한국이	-11286
▁합리화	-11287
▁했다고	-11288
▁현실적	-11289
▁형제의	-11290
▁화면에	-11291
▁흥미가	-11292
여주인공	-11293
오랜만에	-11294
하자마자	-11295
▁감동까지	-11296
▁감성적인	-11297
▁거슬린다	-11298
▁결혼하고	-11299
▁나오길래	-11300
▁나오지도	-11301
▁내용인데	-11302
▁달달하고	-11303
▁돋보였던	-11304
▁되었지만	-11305
▁드라마네	-11306
▁디테일한	-11307
▁로맨스를	-11308
▁몰입도는	-11309
▁밋밋하고	-11310
▁봤는데요	-11311
▁사랑하게	-11312
▁쓰레기도	-11313
▁아까웠음	-11314
▁아버지와	-11315
▁아프네요	-11316
▁어디선가	-11317
▁어색하지	-11318
▁영화들을	-11319
▁영화이긴	-11320
▁완성도를	-11321
▁있어야지	-11322
▁있었을까	-11323
▁저버리지	-11324
▁전하고자	-11325
▁좋아한다	-11326
▁좋았네요	-11327
▁줄거리는	-11328
▁줄거리를	-11329
▁짱이에요	-11330
▁친구들이	-11331
▁표현하고	-11332
▁풀어가는	-11333
▁흥미롭지	-11334
▁괜찮았어요	-11335
▁느낌이네요	-11336
▁대박입니다	-11337
▁떨어지지만	-11338
▁영화보다도	-11339
▁영화였네요	-11340
▁조절위원회	-11341
▁주인공으로	-11342
▁지루하네요	-11343
▁감동적이에요	-11344
▁등장인물들이	-11345
▁흥미진진하고	-11346
▁........	-11347
ak	-11348
ee	-11349
um	-11350
▁괘	-11351
▁냈	-11352
▁뉘	-11353
▁닼	-11354
▁댈	-11355
▁믹	-11356
▁쉰	-11357
▁쒸	-11358
▁얹	-11359
▁쳤	-11360
▁켠	-11361
▁킴	-11362
▁펄	-11363
▁푼	-11364
▁험	-11365
가라	-11366
거림	-11367
거의	-11368
끼들	-11369
나만	-11370
노답	-11371
러리	-11372
러진	-11373
레쉬	-11374
리트	-11375
마에	-11376
마이	-11377
맥스	-11378
모루	-11379
물도	-11380
미와	-11381
봤자	-11382
사고	-11383
수에	-11384
수한	-11385
시티	-11386
암튼	-11387
어린	-11388
어색	-11389
엔틴	-11390
여야	-11391
역의	-11392
옛날	-11393
오늘	-11394
이어	-11395
적은	-11396
지라	-11397
지민	-11398
지와	-11399
트라	-11400
홀로	-11401
..3	-11402
▁.,	-11403
▁56	-11404
▁XX	-11405
▁간절	-11406
▁결제	-11407
▁고현	-11408
▁구도	-11409
▁국뽕	-11410
▁귀한	-11411
▁그랫	-11412
▁기차	-11413
▁김규	-11414
▁김창	-11415
▁끼고	-11416
▁끼어	-11417
▁날라	-11418
▁놀랄	-11419
▁놓을	-11420
▁놓칠	-11421
▁느꼇	-11422
▁느와	-11423
▁더군	-11424
▁더해	-11425
▁동의	-11426
▁들린	-11427
▁들인	-11428
▁따지	-11429
▁면을	-11430
▁무도	-11431
▁무방	-11432
▁무표	-11433
▁박용	-11434
▁박재	-11435
▁반의	-11436
▁방울	-11437
▁배슬	-11438
▁버젼	-11439
▁벗는	-11440
▁보삼	-11441
▁보셔	-11442
▁생길	-11443
▁서정	-11444
▁세이	-11445
▁셜록	-11446
▁소속	-11447
▁소오	-11448
▁수영	-11449
▁수호	-11450
▁스콜	-11451
▁스턴	-11452
▁신성	-11453
▁심함	-11454
▁않냐	-11455
▁않으	-11456
▁애인	-11457
▁연구	-11458
▁엿음	-11459
▁올림	-11460
▁옹박	-11461
▁우베	-11462
▁원초	-11463
▁유니	-11464
▁으으	-11465
▁이브	-11466
▁이뻐	-11467
▁잇다	-11468
▁있기	-11469
▁자녀	-11470
▁재연	-11471
▁저딴	-11472
▁적도	-11473
▁적어	-11474
▁적인	-11475
▁전범	-11476
▁절라	-11477
▁정돈	-11478
▁조롱	-11479
▁종결	-11480
▁좌절	-11481
▁주진	-11482
▁지내	-11483
▁채우	-11484
▁최수	-11485
▁최종	-11486
▁추상	-11487
▁쿠바	-11488
▁탈락	-11489
▁태극	-11490
▁터질	-11491
▁토르	-11492
▁트와	-11493
▁파멸	-11494
▁평정	-11495
▁피고	-11496
▁하실	-11497
▁형성	-11498
▁형식	-11499
▁황제	-11500
▁효민	-11501
▁휴지	-11502
▁희극	-11503
급이다	-11504
네이버	-11505
년이나	-11506
버리네	-11507
아아아	-11508
으라면	-11509
음악도	-11510
읍니다	-11511
이나마	-11512
졌는데	-11513
주의의	-11514
주의자	-11515
지루해	-11516
최고의	-11517
테스크	-11518
편보단	-11519
..10	-11520
ight	-11521
▁6.5	-11522
▁가족은	-11523
▁가지를	-11524
▁각각의	-11525
▁감정에	-11526
▁거라면	-11527
▁공포의	-11528
▁궁금한	-11529
▁근래에	-11530
▁김수로	-11531
▁끝나네	-11532
▁나았을	-11533
▁나오긴	-11534
▁남동생	-11535
▁남아돌	-11536
▁남자인	-11537
▁낫다고	-11538
▁넣어서	-11539
▁놀랬다	-11540
▁뇌리에	-11541
▁다진짜	-11542
▁달라서	-11543
▁돌리고	-11544
▁동화를	-11545
▁되었던	-11546
▁들어오	-11547
▁들어요	-11548
▁따위는	-11549
▁리들리	-11550
▁마니아	-11551
▁마어마	-11552
▁막히게	-11553
▁맞아서	-11554
▁모처럼	-11555
▁묘사한	-11556
▁무리수	-11557
▁미국은	-11558
▁바람에	-11559
▁받았던	-11560
▁본거지	-11561
▁봣네요	-11562
▁부성애	-11563
▁분들의	-11564
▁브로디	-11565
▁사람인	-11566
▁사랑함	-11567
▁사소한	-11568
▁생각과	-11569
▁선입견	-11570
▁설명은	-11571
▁소방관	-11572
▁소설도	-11573
▁속아서	-11574
▁스릴감	-11575
▁스페셜	-11576
▁시선이	-11577
▁쓸쓸한	-11578
▁아시는	-11579
▁아픔과	-11580
▁안드로	-11581
▁알았어	-11582
▁양심도	-11583
▁어거지	-11584
▁어렵고	-11585
▁여운과	-11586
▁역부족	-11587
▁영화보	-11588
▁예술가	-11589
▁예술이	-11590
▁오디션	-11591
▁오페라	-11592
▁와이어	-11593
▁요소도	-11594
▁욕심이	-11595
▁우정이	-11596
▁위로가	-11597
▁윤계상	-11598
▁이러면	-11599
▁이루는	-11600
▁이상실	-11601
▁이슬람	-11602
▁자체다	-11603
▁잘못한	-11604
▁재능이	-11605
▁재밋을	-11606
▁재밌냐	-11607
▁재해석	-11608
▁종류의	-11609
▁주지훈	-11610
▁죽어도	-11611
▁중구난	-11612
▁중에선	-11613
▁지상파	-11614
▁진하게	-11615
▁철저히	-11616
▁초콜릿	-11617
▁최진실	-11618
▁출연자	-11619
▁치밀어	-11620
▁팬이라	-11621
▁필름이	-11622
▁하늘을	-11623
▁홍진호	-11624
▁화난다	-11625
▁히치콕	-11626
재미없음	-11627
점이라니	-11628
▁2006	-11629
▁2007	-11630
▁4000	-11631
▁love	-11632
▁괜찮지만	-11633
▁기대하는	-11634
▁끝내주는	-11635
▁나왔는지	-11636
▁늘어지는	-11637
▁대합니다	-11638
▁떨어져서	-11639
▁메시지는	-11640
▁목소리는	-11641
▁몰입도를	-11642
▁무서웠음	-11643
▁받았는데	-11644
▁배우들과	-11645
▁벌어지는	-11646
▁브라이언	-11647
▁블루레이	-11648
▁사라지고	-11649
▁사람이나	-11650
▁생각나고	-11651
▁스타일은	-11652
▁시청자가	-11653
▁식상하고	-11654
▁신비로운	-11655
▁아까운데	-11656
▁아침부터	-11657
▁얘기하고	-11658
▁에일리언	-11659
▁엽기적인	-11660
▁영상미에	-11661
▁영화구나	-11662
▁영화로만	-11663
▁영화에선	-11664
▁예상되는	-11665
▁오락영화	-11666
▁우롱하는	-11667
▁우울하고	-11668
▁유치하긴	-11669
▁유치하지	-11670
▁자신에게	-11671
▁잘하는데	-11672
▁장면에선	-11673
▁제목부터	-11674
▁줄거리에	-11675
▁즐거웠다	-11676
▁지루함과	-11677
▁찍었을까	-11678
▁찾아가는	-11679
▁편안하게	-11680
▁프로젝트	-11681
▁하면서도	-11682
▁현실성도	-11683
▁네이버에서	-11684
▁느껴지네요	-11685
▁만들어내는	-11686
▁보여줬는데	-11687
▁사람들에겐	-11688
▁사실적으로	-11689
▁생각하면서	-11690
▁소름끼친다	-11691
▁여주인공도	-11692
▁영화보다는	-11693
▁영화임에도	-11694
▁의심스럽다	-11695
▁최악이었다	-11696
▁킬링타임도	-11697
▁테러리스트	-11698
▁프로그램이	-11699
▁애니메이션을	-11700
▁!!!!!!!!	-11701
ff	-11702
▁꺄	-11703
▁놨	-11704
▁샹	-11705
▁욬	-11706
▁졋	-11707
▁쯔	-11708
▁틴	-11709
공감	-11710
공이	-11711
그린	-11712
그저	-11713
기억	-11714
껴서	-11715
나무	-11716
년생	-11717
놀이	-11718
놈들	-11719
다메	-11720
대인	-11721
란이	-11722
래야	-11723
래원	-11724
류가	-11725
리던	-11726
릴라	-11727
무시	-11728
뭐지	-11729
비의	-11730
비추	-11731
성룡	-11732
수고	-11733
슬링	-11734
시윤	-11735
아자	-11736
안함	-11737
았나	-11738
왔던	-11739
유천	-11740
이언	-11741
인칭	-11742
일드	-11743
장님	-11744
지던	-11745
초반	-11746
타닉	-11747
판에	-11748
포로	-11749
프의	-11750
필드	-11751
하곤	-11752
.!!	-11753
ome	-11754
▁3.	-11755
▁34	-11756
▁4,	-11757
▁fu	-11758
▁sm	-11759
▁up	-11760
▁갈릴	-11761
▁감도	-11762
▁감싸	-11763
▁강박	-11764
▁개를	-11765
▁거란	-11766
▁경쟁	-11767
▁관찰	-11768
▁구림	-11769
▁균형	-11770
▁극히	-11771
▁근친	-11772
▁금치	-11773
▁깨고	-11774
▁깨어	-11775
▁끊어	-11776
▁나로	-11777
▁나른	-11778
▁남상	-11779
▁남이	-11780
▁남한	-11781
▁농구	-11782
▁누굴	-11783
▁대립	-11784
▁대장	-11785
▁도데	-11786
▁도움	-11787
▁동경	-11788
▁두뇌	-11789
▁드릅	-11790
▁디지	-11791
▁따른	-11792
▁딸은	-11793
▁땜시	-11794
▁뜨는	-11795
▁루크	-11796
▁리플	-11797
▁마동	-11798
▁말곤	-11799
▁맑은	-11800
▁망신	-11801
▁메릴	-11802
▁명량	-11803
▁모건	-11804
▁몰고	-11805
▁무모	-11806
▁무미	-11807
▁무자	-11808
▁민간	-11809
▁반면	-11810
▁반항	-11811
▁반해	-11812
▁발암	-11813
▁배두	-11814
▁백미	-11815
▁벌레	-11816
▁법을	-11817
▁변한	-11818
▁보스	-11819
▁볼라	-11820
▁분만	-11821
▁불사	-11822
▁비가	-11823
▁사정	-11824
▁살림	-11825
▁삼천	-11826
▁소수	-11827
▁시킨	-11828
▁쓰냐	-11829
▁안드	-11830
▁알맹	-11831
▁야마	-11832
▁어쩐	-11833
▁없기	-11834
▁열어	-11835
▁오죽	-11836
▁욕설	-11837
▁용도	-11838
▁용의	-11839
▁워킹	-11840
▁원한	-11841
▁유기	-11842
▁유산	-11843
▁유준	-11844
▁이론	-11845
▁인공	-11846
▁인과	-11847
▁일병	-11848
▁작전	-11849
▁잘했	-11850
▁잠만	-11851
▁잠재	-11852
▁잼이	-11853
▁저럴	-11854
▁저만	-11855
▁적합	-11856
▁정점	-11857
▁제주	-11858
▁조건	-11859
▁조마	-11860
▁조미	-11861
▁조성	-11862
▁종말	-11863
▁종종	-11864
▁죄책	-11865
▁주가	-11866
▁지망	-11867
▁지혜	-11868
▁짙은	-11869
▁쫓아	-11870
▁찍었	-11871
▁충족	-11872
▁친절	-11873
▁타령	-11874
▁트루	-11875
▁포커	-11876
▁한가	-11877
▁해운	-11878
▁향기	-11879
▁헤이	-11880
▁환자	-11881
▁회가	-11882
▁회복	-11883
나가는	-11884
나네요	-11885
내용은	-11886
대에서	-11887
되면서	-11888
들과는	-11889
바이벌	-11890
박하고	-11891
시대를	-11892
실에서	-11893
인들은	-11894
저예산	-11895
주의에	-11896
하지는	-11897
할수록	-11898
▁910	-11899
▁가지가	-11900
▁가지게	-11901
▁개명작	-11902
▁개성이	-11903
▁결말의	-11904
▁경험이	-11905
▁고르는	-11906
▁고마워	-11907
▁고맙다	-11908
▁고질라	-11909
▁과거에	-11910
▁관객은	-11911
▁구리고	-11912
▁그녀를	-11913
▁그러다	-11914
▁김정은	-11915
▁꽃보다	-11916
▁나쁘게	-11917
▁나오던	-11918
▁나타내	-11919
▁나홀로	-11920
▁남녀의	-11921
▁내용인	-11922
▁넘친다	-11923
▁노무현	-11924
▁놀라고	-11925
▁놀라는	-11926
▁다큐의	-11927
▁담겨져	-11928
▁대단하	-11929
▁대사에	-11930
▁댓글이	-11931
▁동영화	-11932
▁됐어요	-11933
▁되야지	-11934
▁두려워	-11935
▁들여서	-11936
▁들으면	-11937
▁듯한데	-11938
▁로멘틱	-11939
▁마피아	-11940
▁만화로	-11941
▁말이죠	-11942
▁먹칠을	-11943
▁무난한	-11944
▁문제인	-11945
▁미친다	-11946
▁박신혜	-11947
▁방송에	-11948
▁배우님	-11949
▁보이게	-11950
▁보이나	-11951
▁볼라고	-11952
▁볼란다	-11953
▁볼려고	-11954
▁불멸의	-11955
▁불편함	-11956
▁뽀로로	-11957
▁사실은	-11958
▁살아갈	-11959
▁새로울	-11960
▁색감이	-11961
▁생각난	-11962
▁수준에	-11963
▁순간순	-11964
▁슬로우	-11965
▁슬픔과	-11966
▁실망을	-11967
▁실망할	-11968
▁심장을	-11969
▁씨리즈	-11970
▁아깝게	-11971
▁아이랑	-11972
▁아프게	-11973
▁악역이	-11974
▁않나요	-11975
▁않은가	-11976
▁애잔한	-11977
▁애틋한	-11978
▁야동을	-11979
▁어색함	-11980
▁엔딩곡	-11981
▁여름에	-11982
▁여행을	-11983
▁역사와	-11984
▁예전의	-11985
▁오늘날	-11986
▁요즘엔	-11987
▁용기를	-11988
▁우리도	-11989
▁우정을	-11990
▁원작도	-11991
▁유익한	-11992
▁의외의	-11993
▁이것을	-11994
▁이름은	-11995
▁인간에	-11996
▁있도록	-11997
▁있을지	-11998
▁자존심	-11999
▁정재영	-12000
▁정적인	-12001
▁정쩡한	-12002
▁존재감	-12003
▁중국이	-12004
▁지독한	-12005
▁짧지만	-12006
▁차인표	-12007
▁천재다	-12008
▁첨본다	-12009
▁초점을	-12010
▁충격과	-12011
▁충무로	-12012
▁케로로	-12013
▁쿠엔틴	-12014
▁클로즈	-12015
▁편으로	-12016
▁표현된	-12017
▁프로가	-12018
▁하고자	-12019
▁한국식	-12020
▁할려고	-12021
▁현재의	-12022
▁흘리며	-12023
▁힘들고	-12024
배우들의	-12025
에서부터	-12026
지루하고	-12027
▁1990	-12028
▁2011	-12029
▁가슴으로	-12030
▁같았어요	-12031
▁관점에서	-12032
▁괜찮다고	-12033
▁괜찮아요	-12034
▁궁금하게	-12035
▁남자들은	-12036
▁네이버는	-12037
▁단순하고	-12038
▁답답하게	-12039
▁동생이랑	-12040
▁되었어요	-12041
▁되었으면	-12042
▁드림웍스	-12043
▁들어가서	-12044
▁들었어요	-12045
▁들었지만	-12046
▁따라가는	-12047
▁로맨스도	-12048
▁말하려고	-12049
▁맥라이언	-12050
▁먹먹하고	-12051
▁반복되는	-12052
▁보여줬다	-12053
▁불쌍하고	-12054
▁블레이드	-12055
▁비슷해서	-12056
▁상관없는	-12057
▁생각된다	-12058
▁섬세하고	-12059
▁순수하게	-12060
▁슈퍼액션	-12061
▁시각으로	-12062
▁시간여행	-12063
▁식스센스	-12064
▁신선했다	-12065
▁실화라서	-12066
▁싶어졌다	-12067
▁안젤리나	-12068
▁엔딩까지	-12069
▁연예인이	-12070
▁연출이나	-12071
▁옴니버스	-12072
▁유치원생	-12073
▁유치하기	-12074
▁음악까지	-12075
▁인생영화	-12076
▁임팩트가	-12077
▁있었으나	-12078
▁재미까지	-12079
▁재밌구만	-12080
▁재밌지만	-12081
▁전문성우	-12082
▁제목으로	-12083
▁제목처럼	-12084
▁조연들의	-12085
▁조잡하고	-12086
▁중구난방	-12087
▁지나가는	-12088
▁지루하진	-12089
▁챙겨보는	-12090
▁판타스틱	-12091
▁하시네요	-12092
▁후회한다	-12093
...!!!	-12094
....;;	-12095
▁10000	-12096
▁기대하면서	-12097
▁느낌이었다	-12098
▁다운받아서	-12099
▁만들었다고	-12100
▁만들었다면	-12101
▁스토리텔링	-12102
▁아기자기한	-12103
▁아이디어가	-12104
▁여자친구랑	-12105
▁재미없는데	-12106
▁재미잇어요	-12107
▁충격적이다	-12108
▁트와일라잇	-12109
▁모르겠습니다	-12110
▁해피엔딩으로	-12111
.'	-12112
1,	-12113
19	-12114
▁딘	-12115
▁뛴	-12116
▁뤽	-12117
▁쑤	-12118
▁씌	-12119
▁씻	-12120
▁였	-12121
▁팩	-12122
가네	-12123
간지	-12124
개월	-12125
건지	-12126
계에	-12127
공의	-12128
교육	-12129
국의	-12130
권을	-12131
귀여	-12132
그만	-12133
글자	-12134
끈한	-12135
내서	-12136
노키	-12137
놓는	-12138
놔서	-12139
다음	-12140
도다	-12141
들린	-12142
람이	-12143
레터	-12144
력과	-12145
맞추	-12146
메다	-12147
면을	-12148
바라	-12149
블리	-12150
사로	-12151
선은	-12152
순례	-12153
시노	-12154
실한	-12155
어어	-12156
에이	-12157
연은	-12158
우성	-12159
이죠	-12160
작을	-12161
재의	-12162
조의	-12163
종의	-12164
키의	-12165
폭행	-12166
한텐	-12167
할지	-12168
히지	-12169
.25	-12170
ust	-12171
▁''	-12172
▁29	-12173
▁It	-12174
▁zz	-12175
▁거미	-12176
▁거친	-12177
▁건달	-12178
▁것일	-12179
▁결투	-12180
▁고루	-12181
▁고만	-12182
▁광주	-12183
▁구입	-12184
▁근본	-12185
▁급급	-12186
▁기부	-12187
▁기절	-12188
▁긴급	-12189
▁깍아	-12190
▁낄낄	-12191
▁낚임	-12192
▁날림	-12193
▁날카	-12194
▁남들	-12195
▁낯설	-12196
▁너도	-12197
▁눌러	-12198
▁느려	-12199
▁늦은	-12200
▁다닐	-12201
▁당췌	-12202
▁던데	-12203
▁돈에	-12204
▁돌림	-12205
▁두서	-12206
▁딸의	-12207
▁리더	-12208
▁마셈	-12209
▁마술	-12210
▁며칠	-12211
▁명성	-12212
▁몰려	-12213
▁무튼	-12214
▁물결	-12215
▁물에	-12216
▁물질	-12217
▁바른	-12218
▁바를	-12219
▁박사	-12220
▁박상	-12221
▁박철	-12222
▁반개	-12223
▁받음	-12224
▁배제	-12225
▁벅차	-12226
▁변질	-12227
▁변함	-12228
▁별거	-12229
▁복귀	-12230
▁본드	-12231
▁분의	-12232
▁뷰티	-12233
▁비급	-12234
▁비노	-12235
▁뻔해	-12236
▁사전	-12237
▁살렸	-12238
▁살해	-12239
▁삼촌	-12240
▁상당	-12241
▁서세	-12242
▁섞인	-12243
▁소련	-12244
▁소린	-12245
▁솔찍	-12246
▁수단	-12247
▁수목	-12248
▁스테	-12249
▁시가	-12250
▁시네	-12251
▁쓰다	-12252
▁아리	-12253
▁안경	-12254
▁안남	-12255
▁안정	-12256
▁안주	-12257
▁알차	-12258
▁애쓴	-12259
▁어긋	-12260
▁억압	-12261
▁언더	-12262
▁업그	-12263
▁여군	-12264
▁오덕	-12265
▁오른	-12266
▁오열	-12267
▁우마	-12268
▁울린	-12269
▁위기	-12270
▁윤제	-12271
▁은행	-12272
▁의식	-12273
▁일에	-12274
▁있구	-12275
▁있단	-12276
▁재생	-12277
▁저건	-12278
▁전우	-12279
▁전해	-12280
▁절절	-12281
▁점주	-12282
▁종북	-12283
▁좌빨	-12284
▁좌좀	-12285
▁주니	-12286
▁주문	-12287
▁주식	-12288
▁주요	-12289
▁지능	-12290
▁질이	-12291
▁최신	-12292
▁코넬	-12293
▁크라	-12294
▁크래	-12295
▁킬빌	-12296
▁테론	-12297
▁판도	-12298
▁판에	-12299
▁판을	-12300
▁패스	-12301
▁폭파	-12302
▁프랭	-12303
▁피로	-12304
▁한텐	-12305
▁해병	-12306
▁해볼	-12307
▁해설	-12308
▁행운	-12309
▁허우	-12310
▁헌터	-12311
▁현장	-12312
▁홍경	-12313
▁획기	-12314
▁후려	-12315
▁후보	-12316
▁히스	-12317
각기동	-12318
거리며	-12319
겠는가	-12320
당하고	-12321
버려서	-12322
분들은	-12323
스라엘	-12324
스타일	-12325
시대에	-12326
시킨다	-12327
애들이	-12328
였는지	-12329
오피스	-12330
으려다	-12331
점이지	-12332
줍니다	-12333
지는데	-12334
티비티	-12335
하지마	-12336
할려고	-12337
합니까	-12338
해야만	-12339
good	-12340
▁1.2	-12341
▁Bad	-12342
▁sbs	-12343
▁가깝다	-12344
▁가보고	-12345
▁감독들	-12346
▁개그는	-12347
▁겁나게	-12348
▁결과가	-12349
▁관련된	-12350
▁괜찬은	-12351
▁구역질	-12352
▁권하고	-12353
▁그걸로	-12354
▁그려진	-12355
▁기존의	-12356
▁끌리는	-12357
▁나와는	-12358
▁나이를	-12359
▁넘재밌	-12360
▁노다메	-12361
▁노력은	-12362
▁노출도	-12363
▁놀라게	-12364
▁누구야	-12365
▁다니고	-12366
▁다르지	-12367
▁다문화	-12368
▁다큐가	-12369
▁다큐로	-12370
▁대기업	-12371
▁대단해	-12372
▁대학교	-12373
▁동생이	-12374
▁뒷부분	-12375
▁드릅게	-12376
▁떠나는	-12377
▁떨어질	-12378
▁뜨거워	-12379
▁많다는	-12380
▁말기를	-12381
▁말인지	-12382
▁말하기	-12383
▁맛있는	-12384
▁망하는	-12385
▁맞나요	-12386
▁멀쩡한	-12387
▁멋졌다	-12388
▁목적이	-12389
▁무개념	-12390
▁무식한	-12391
▁미개한	-12392
▁미래는	-12393
▁받는다	-12394
▁버린다	-12395
▁변화가	-12396
▁별로인	-12397
▁별점은	-12398
▁보다도	-12399
▁보려면	-12400
▁봅시다	-12401
▁봉태규	-12402
▁브라인	-12403
▁비교도	-12404
▁빠진다	-12405
▁뻔하지	-12406
▁사회가	-12407
▁상황과	-12408
▁생각날	-12409
▁생기고	-12410
▁생활을	-12411
▁설레게	-12412
▁세계에	-12413
▁순간에	-12414
▁순수함	-12415
▁시기에	-12416
▁신경을	-12417
▁아는데	-12418
▁아직은	-12419
▁악당이	-12420
▁안쓰러	-12421
▁안주는	-12422
▁않겠다	-12423
▁얼굴은	-12424
▁엔딩도	-12425
▁여자도	-12426
▁열정과	-12427
▁영화사	-12428
▁영화엔	-12429
▁외모가	-12430
▁요즘에	-12431
▁운영화	-12432
▁원작인	-12433
▁유해진	-12434
▁이상형	-12435
▁이종석	-12436
▁일반인	-12437
▁일상의	-12438
▁있었네	-12439
▁있으신	-12440
▁자격이	-12441
▁자식을	-12442
▁자전거	-12443
▁자체에	-12444
▁작가야	-12445
▁전쟁은	-12446
▁정확한	-12447
▁죽어야	-12448
▁지나면	-12449
▁짠하고	-12450
▁초호화	-12451
▁총으로	-12452
▁케이온	-12453
▁코믹도	-12454
▁클루니	-12455
▁평가는	-12456
▁포스가	-12457
▁풍경이	-12458
▁하던가	-12459
▁하여간	-12460
▁하지마	-12461
▁행복할	-12462
▁향수를	-12463
▁형편없	-12464
▁화면도	-12465
▁흥행을	-12466
강추강추	-12467
만으로는	-12468
이라이트	-12469
적으로도	-12470
▁것만으로	-12471
▁괜찮았을	-12472
▁귀엽네요	-12473
▁그런대로	-12474
▁끝내준다	-12475
▁나왓으면	-12476
▁난무하는	-12477
▁네이버에	-12478
▁노잼이다	-12479
▁느껴져서	-12480
▁당시에도	-12481
▁드라마나	-12482
▁로드리게	-12483
▁만드는데	-12484
▁만들었고	-12485
▁목소리도	-12486
▁미화시킨	-12487
▁별로지만	-12488
▁보지마삼	-12489
▁볼거리는	-12490
▁비디오용	-12491
▁상태에서	-12492
▁생생하다	-12493
▁스릴러는	-12494
▁시점에서	-12495
▁신기하고	-12496
▁쓰레기에	-12497
▁아쉬웠던	-12498
▁어벤져스	-12499
▁어색해서	-12500
▁어이없게	-12501
▁에이리언	-12502
▁오랜만이	-12503
▁오유에서	-12504
▁으리으리	-12505
▁음악영화	-12506
▁이들에게	-12507
▁이스라엘	-12508
▁일어나서	-12509
▁재미잇는	-12510
▁좋아하던	-12511
▁중심으로	-12512
▁중에서는	-12513
▁지루했던	-12514
▁진지하고	-12515
▁집중하게	-12516
▁챙겨보고	-12517
▁추천해요	-12518
▁친구에게	-12519
▁크리스마	-12520
▁팬으로서	-12521
▁한국인이	-12522
▁해주네요	-12523
▁확실하게	-12524
▁흥미롭다	-12525
▁naver	-12526
▁감동이네요	-12527
▁궁금하네요	-12528
▁그렇다치고	-12529
▁대단하다고	-12530
▁되돌아보게	-12531
▁사랑이라는	-12532
▁사랑입니다	-12533
▁싫어하는데	-12534
▁안타깝지만	-12535
▁영화였지만	-12536
▁우리나라도	-12537
▁재미있던데	-12538
▁전달하고자	-12539
▁조금이나마	-12540
▁찾아봤는데	-12541
▁감동적이예요	-12542
▁흥미진진하게	-12543
▁.........	-12544
30	-12545
43	-12546
ge	-12547
gm	-12548
sd	-12549
se	-12550
th	-12551
▁굵	-12552
▁므	-12553
▁솟	-12554
▁앜	-12555
▁얕	-12556
▁칙	-12557
▁탔	-12558
▁튼	-12559
▁펠	-12560
▁핏	-12561
▁훅	-12562
가치	-12563
거는	-12564
거면	-12565
걸이	-12566
구장	-12567
그때	-12568
깜짝	-12569
나잇	-12570
년은	-12571
노소	-12572
니를	-12573
님도	-12574
돈다	-12575
두사	-12576
딩이	-12577
런스	-12578
레드	-12579
력은	-12580
로맨	-12581
명도	-12582
물은	-12583
방에	-12584
서를	-12585
선징	-12586
순위	-12587
스토	-12588
슬프	-12589
시죠	-12590
시즌	-12591
었군	-12592
올린	-12593
우이	-12594
운동	-12595
으다	-12596
작은	-12597
점만	-12598
줘도	-12599
즈를	-12600
지노	-12601
책을	-12602
츠의	-12603
침을	-12604
크를	-12605
클럽	-12606
타인	-12607
풀이	-12608
프랑	-12609
하든	-12610
하죠	-12611
합니	-12612
화의	-12613
희를	-12614
OOD	-12615
▁26	-12616
▁ch	-12617
▁가나	-12618
▁강인	-12619
▁같을	-12620
▁걸리	-12621
▁겪는	-12622
▁고집	-12623
▁골라	-12624
▁공산	-12625
▁과감	-12626
▁그룹	-12627
▁근대	-12628
▁금성	-12629
▁길어	-12630
▁김주	-12631
▁깁슨	-12632
▁깔려	-12633
▁꽃미	-12634
▁꾸밈	-12635
▁꾸역	-12636
▁남우	-12637
▁났을	-12638
▁너의	-12639
▁넘을	-12640
▁높여	-12641
▁데에	-12642
▁됐을	-12643
▁됐지	-12644
▁되기	-12645
▁두렵	-12646
▁듯요	-12647
▁디비	-12648
▁딴짓	-12649
▁때나	-12650
▁뜨겁	-12651
▁루이	-12652
▁막을	-12653
▁만만	-12654
▁말론	-12655
▁맞냐	-12656
▁먹지	-12657
▁명언	-12658
▁명절	-12659
▁모름	-12660
▁모리	-12661
▁모범	-12662
▁모션	-12663
▁묘미	-12664
▁무뇌	-12665
▁미군	-12666
▁미련	-12667
▁미셸	-12668
▁미인	-12669
▁바램	-12670
▁박인	-12671
▁벅찬	-12672
▁브란	-12673
▁비긴	-12674
▁비명	-12675
▁빨려	-12676
▁산타	-12677
▁삼각	-12678
▁상쾌	-12679
▁새드	-12680
▁서극	-12681
▁서른	-12682
▁서영	-12683
▁서커	-12684
▁서태	-12685
▁섞여	-12686
▁선전	-12687
▁성괴	-12688
▁수학	-12689
▁스텔	-12690
▁슴가	-12691
▁시망	-12692
▁싫고	-12693
▁싶냐	-12694
▁싼티	-12695
▁썰렁	-12696
▁썼다	-12697
▁알거	-12698
▁알라	-12699
▁알면	-12700
▁애랑	-12701
▁얘네	-12702
▁어줍	-12703
▁여잔	-12704
▁역에	-12705
▁영호	-12706
▁요란	-12707
▁웬지	-12708
▁유가	-12709
▁의지	-12710
▁의학	-12711
▁이선	-12712
▁이에	-12713
▁입이	-12714
▁작작	-12715
▁장백	-12716
▁장선	-12717
▁장수	-12718
▁장편	-12719
▁재벌	-12720
▁저능	-12721
▁저번	-12722
▁전사	-12723
▁전파	-12724
▁조한	-12725
▁주장	-12726
▁지현	-12727
▁참아	-12728
▁청순	-12729
▁추석	-12730
▁치닫	-12731
▁케미	-12732
▁토이	-12733
▁파헤	-12734
▁팔이	-12735
▁편만	-12736
▁편에	-12737
▁하죠	-12738
▁해소	-12739
▁햇던	-12740
▁했냐	-12741
▁현상	-12742
▁호화	-12743
▁화신	-12744
▁후로	-12745
▁흠뻑	-12746
갔으면	-12747
게리온	-12748
드려요	-12749
렸지만	-12750
릅니다	-12751
분까지	-12752
선징악	-12753
습니당	-12754
십니까	-12755
었어도	-12756
연기는	-12757
영화도	-12758
이기도	-12759
이면서	-12760
인데요	-12761
졌다는	-12762
평론가	-12763
해서는	-12764
oooo	-12765
▁444	-12766
▁bor	-12767
▁가야지	-12768
▁각본을	-12769
▁갈리는	-12770
▁감독에	-12771
▁감수성	-12772
▁감흥도	-12773
▁갑이다	-12774
▁강력한	-12775
▁걸작을	-12776
▁공감대	-12777
▁과하게	-12778
▁관점이	-12779
▁광고를	-12780
▁그랬어	-12781
▁그러냐	-12782
▁극치를	-12783
▁기대해	-12784
▁기분을	-12785
▁기술이	-12786
▁긴박감	-12787
▁깨달음	-12788
▁끊기는	-12789
▁끝내는	-12790
▁남들이	-12791
▁낮추기	-12792
▁녀석들	-12793
▁놀래키	-12794
▁누구를	-12795
▁눈물샘	-12796
▁눈물은	-12797
▁느껴야	-12798
▁느낌과	-12799
▁다르고	-12800
▁다큐는	-12801
▁단어가	-12802
▁담아내	-12803
▁대단함	-12804
▁데스노	-12805
▁되버린	-12806
▁두려움	-12807
▁드러난	-12808
▁떨어트	-12809
▁뛰어넘	-12810
▁마음도	-12811
▁막장인	-12812
▁말처럼	-12813
▁말하려	-12814
▁망작이	-12815
▁모니카	-12816
▁몸매가	-12817
▁무리가	-12818
▁무시한	-12819
▁미화한	-12820
▁바치는	-12821
▁박영화	-12822
▁박유천	-12823
▁받았을	-12824
▁발이고	-12825
▁발전을	-12826
▁배역이	-12827
▁범죄를	-12828
▁변하지	-12829
▁별론데	-12830
▁보이네	-12831
▁봤건만	-12832
▁부르고	-12833
▁비극을	-12834
▁사람에	-12835
▁사춘기	-12836
▁살인자	-12837
▁상상도	-12838
▁생각남	-12839
▁샤말란	-12840
▁성장기	-12841
▁성폭행	-12842
▁소설로	-12843
▁속편은	-12844
▁수작임	-12845
▁순간의	-12846
▁시걸의	-12847
▁시작해	-12848
▁시절이	-12849
▁시키지	-12850
▁싫어요	-12851
▁아니게	-12852
▁안무서	-12853
▁안성기	-12854
▁알지만	-12855
▁애매한	-12856
▁어울린	-12857
▁억지가	-12858
▁엄마를	-12859
▁없군요	-12860
▁역사는	-12861
▁연걸이	-12862
▁연결고	-12863
▁연기며	-12864
▁오네요	-12865
▁욕하지	-12866
▁우리를	-12867
▁우리와	-12868
▁웃기긴	-12869
▁유머도	-12870
▁유승준	-12871
▁유아인	-12872
▁이것만	-12873
▁이들을	-12874
▁이름에	-12875
▁이범수	-12876
▁이용해	-12877
▁이유도	-12878
▁인디언	-12879
▁인물을	-12880
▁일어났	-12881
▁자막이	-12882
▁잡았다	-12883
▁재미지	-12884
▁재미짐	-12885
▁전개나	-12886
▁전작을	-12887
▁전투씬	-12888
▁절묘한	-12889
▁정체가	-12890
▁좋아해	-12891
▁좋앗다	-12892
▁죽어라	-12893
▁진리다	-12894
▁진수를	-12895
▁진실은	-12896
▁찬란한	-12897
▁채널을	-12898
▁촬영한	-12899
▁최지우	-12900
▁최후의	-12901
▁추격씬	-12902
▁탕웨이	-12903
▁트라볼	-12904
▁팬들이	-12905
▁페이지	-12906
▁표현은	-12907
▁푸하하	-12908
▁풍부한	-12909
▁하나다	-12910
▁하려면	-12911
▁하잖아	-12912
▁환상을	-12913
▁흥미도	-12914
▁희생을	-12915
노잼노잼	-12916
이었다면	-12917
▁가능성을	-12918
▁강요하는	-12919
▁그랬지만	-12920
▁그려냈다	-12921
▁그립네요	-12922
▁기다리는	-12923
▁기대하게	-12924
▁나오더라	-12925
▁나왔어요	-12926
▁나중에는	-12927
▁놀래키는	-12928
▁도대체가	-12929
▁롱테이크	-12930
▁만들었어	-12931
▁메시지도	-12932
▁못한다는	-12933
▁뭐하자는	-12934
▁믿겨지지	-12935
▁방송에서	-12936
▁방황하는	-12937
▁별로였던	-12938
▁분위기만	-12939
▁불편했다	-12940
▁빠져든다	-12941
▁사람들만	-12942
▁사회에서	-12943
▁생각되는	-12944
▁서스펜스	-12945
▁설정으로	-12946
▁섬세하게	-12947
▁섹시하고	-12948
▁소소하게	-12949
▁순수함을	-12950
▁슬프기도	-12951
▁시끄럽고	-12952
▁시사회로	-12953
▁실망스러	-12954
▁싶어진다	-12955
▁씁쓸하다	-12956
▁아메리카	-12957
▁알려지지	-12958
▁애들한테	-12959
▁어디에도	-12960
▁어이없네	-12961
▁엄마한테	-12962
▁여자애가	-12963
▁연기들도	-12964
▁연쇄살인	-12965
▁영화사에	-12966
▁예고편에	-12967
▁오래도록	-12968
▁오토바이	-12969
▁원한다면	-12970
▁유머러스	-12971
▁유치하게	-12972
▁이야기라	-12973
▁이해하는	-12974
▁인피니트	-12975
▁있었다면	-12976
▁있으면서	-12977
▁자막으로	-12978
▁잔인하다	-12979
▁잔잔하다	-12980
▁장난하는	-12981
▁제외하면	-12982
▁제작진이	-12983
▁좋겠는데	-12984
▁천재적인	-12985
▁최고예요	-12986
▁추구하는	-12987
▁치밀하고	-12988
▁친구들과	-12989
▁친구한테	-12990
▁크레딧이	-12991
▁클라이막	-12992
▁타이타닉	-12993
▁평가하는	-12994
▁포스터를	-12995
▁피해자가	-12996
▁하하하하	-12997
▁학창시절	-12998
▁형편없다	-12999
▁후반부는	-13000
▁같으면서도	-13001
▁그로테스크	-13002
▁누구에게나	-13003
▁드라마에요	-13004
▁들었습니다	-13005
▁마지막에는	-13006
▁사이코패스	-13007
▁생각한다면	-13008
▁아니더라도	-13009
▁일일드라마	-13010
▁지루하기도	-13011
▁지루하다는	-13012
▁하이라이트	-13013
▁.......	-13014
▁수고하셨습니다	-13015
...............	-13016
70	-13017
EC	-13018
▁Z	-13019
▁갸	-13020
▁낡	-13021
▁냅	-13022
▁돕	-13023
▁몹	-13024
▁샬	-13025
▁샷	-13026
▁썅	-13027
▁앳	-13028
▁엣	-13029
▁쥔	-13030
▁쫙	-13031
▁촉	-13032
▁퀼	-13033
▁큼	-13034
▁텔	-13035
▁톡	-13036
▁틸	-13037
▁힛	-13038
경은	-13039
고생	-13040
고요	-13041
구석	-13042
국에	-13043
그의	-13044
노의	-13045
놈이	-13046
누나	-13047
대요	-13048
디는	-13049
랄한	-13050
먹은	-13051
모토	-13052
밀리	-13053
받지	-13054
방이	-13055
베스	-13056
보가	-13057
블루	-13058
비슷	-13059
식에	-13060
아르	-13061
안에	-13062
애씨	-13063
어낸	-13064
예술	-13065
옥빈	-13066
와이	-13067
우마	-13068
우와	-13069
웃김	-13070
일단	-13071
잡이	-13072
점짜	-13073
제라	-13074
졌네	-13075
줘라	-13076
차원	-13077
천만	-13078
천히	-13079
치네	-13080
칙한	-13081
카시	-13082
태가	-13083
테이	-13084
토가	-13085
튜브	-13086
편만	-13087
프를	-13088
피는	-13089
해보	-13090
해질	-13091
해짐	-13092
환의	-13093
환이	-13094
..'	-13095
ell	-13096
ost	-13097
▁go	-13098
▁가기	-13099
▁가상	-13100
▁강수	-13101
▁강시	-13102
▁강예	-13103
▁강우	-13104
▁갖는	-13105
▁개미	-13106
▁개의	-13107
▁건드	-13108
▁경각	-13109
▁고르	-13110
▁괴한	-13111
▁교도	-13112
▁구린	-13113
▁금포	-13114
▁기네	-13115
▁김두	-13116
▁김상	-13117
▁김아	-13118
▁김원	-13119
▁껏다	-13120
▁꾸며	-13121
▁끝장	-13122
▁날의	-13123
▁넣지	-13124
▁네이	-13125
▁노란	-13126
▁놀고	-13127
▁놀아	-13128
▁높을	-13129
▁늘려	-13130
▁니미	-13131
▁단계	-13132
▁단막	-13133
▁대처	-13134
▁더블	-13135
▁덮어	-13136
▁되돌	-13137
▁딱인	-13138
▁딸과	-13139
▁때쯤	-13140
▁땡칠	-13141
▁려고	-13142
▁리도	-13143
▁마른	-13144
▁말야	-13145
▁맛깔	-13146
▁맛은	-13147
▁맞네	-13148
▁매니	-13149
▁매드	-13150
▁멈출	-13151
▁명백	-13152
▁모가	-13153
▁모지	-13154
▁밀리	-13155
▁바리	-13156
▁베끼	-13157
▁베를	-13158
▁보낼	-13159
▁보캅	-13160
▁부작	-13161
▁불교	-13162
▁비둘	-13163
▁비포	-13164
▁빠순	-13165
▁빠이	-13166
▁살자	-13167
▁삼총	-13168
▁삽질	-13169
▁생의	-13170
▁서글	-13171
▁성동	-13172
▁세기	-13173
▁소시	-13174
▁손이	-13175
▁쇼킹	-13176
▁수상	-13177
▁수습	-13178
▁쉬는	-13179
▁스님	-13180
▁시장	-13181
▁시질	-13182
▁시퀀	-13183
▁쓸모	-13184
▁아녀	-13185
▁아르	-13186
▁양키	-13187
▁어딜	-13188
▁업고	-13189
▁여도	-13190
▁여정	-13191
▁오리	-13192
▁오면	-13193
▁왔음	-13194
▁요원	-13195
▁이는	-13196
▁이룬	-13197
▁이전	-13198
▁인격	-13199
▁인위	-13200
▁입에	-13201
▁입을	-13202
▁입체	-13203
▁잡혀	-13204
▁장인	-13205
▁장점	-13206
▁재기	-13207
▁재판	-13208
▁재활	-13209
▁전엔	-13210
▁정은	-13211
▁죄다	-13212
▁주인	-13213
▁준수	-13214
▁중견	-13215
▁쥐게	-13216
▁증말	-13217
▁지간	-13218
▁지연	-13219
▁지은	-13220
▁지쳐	-13221
▁지친	-13222
▁짜는	-13223
▁참패	-13224
▁창문	-13225
▁찾게	-13226
▁채민	-13227
▁책은	-13228
▁최루	-13229
▁최우	-13230
▁취미	-13231
▁침략	-13232
▁컨데	-13233
▁큰일	-13234
▁탐정	-13235
▁탐험	-13236
▁통수	-13237
▁퍼스	-13238
▁편향	-13239
▁하러	-13240
▁한두	-13241
▁해줌	-13242
▁허각	-13243
▁화보	-13244
▁후배	-13245
▁흘릴	-13246
느와르	-13247
는지도	-13248
된다는	-13249
레이터	-13250
리는데	-13251
리우드	-13252
모로우	-13253
미니즘	-13254
버린다	-13255
분들이	-13256
분으로	-13257
았으면	-13258
었다니	-13259
으려나	-13260
으므로	-13261
제대로	-13262
지에서	-13263
폰으로	-13264
화부터	-13265
4567	-13266
OOOO	-13267
▁0.1	-13268
▁bgm	-13269
▁가족에	-13270
▁감독한	-13271
▁같던데	-13272
▁같으면	-13273
▁개봉했	-13274
▁거시기	-13275
▁게이는	-13276
▁결말만	-13277
▁경쾌한	-13278
▁극대화	-13279
▁기분만	-13280
▁기준이	-13281
▁김래원	-13282
▁김창완	-13283
▁끌어내	-13284
▁끝나기	-13285
▁나니까	-13286
▁났어요	-13287
▁내면을	-13288
▁내심을	-13289
▁노잼이	-13290
▁노출은	-13291
▁놀라움	-13292
▁놀랍고	-13293
▁담백한	-13294
▁동아리	-13295
▁되면서	-13296
▁되었고	-13297
▁드라만	-13298
▁드라큐	-13299
▁들어갈	-13300
▁디자인	-13301
▁따스한	-13302
▁따지면	-13303
▁류승룡	-13304
▁마모루	-13305
▁막무가	-13306
▁만드셨	-13307
▁만들자	-13308
▁말던가	-13309
▁망하고	-13310
▁맞는다	-13311
▁맞는지	-13312
▁매력과	-13313
▁머하는	-13314
▁메이징	-13315
▁멜로물	-13316
▁모르면	-13317
▁모여서	-13318
▁무한도	-13319
▁문화를	-13320
▁번째로	-13321
▁범인은	-13322
▁보고나	-13323
▁보고픈	-13324
▁보았을	-13325
▁봣지만	-13326
▁봤어야	-13327
▁부모가	-13328
▁비참한	-13329
▁빌려서	-13330
▁쁨여주	-13331
▁새끼가	-13332
▁설레고	-13333
▁설명도	-13334
▁소설은	-13335
▁손으로	-13336
▁순간도	-13337
▁스트레	-13338
▁스피드	-13339
▁시간대	-13340
▁싱크로	-13341
▁씬에서	-13342
▁아까웠	-13343
▁아니올	-13344
▁앉아서	-13345
▁알겠네	-13346
▁어려움	-13347
▁없었을	-13348
▁여인의	-13349
▁여자랑	-13350
▁역사가	-13351
▁연애의	-13352
▁열연이	-13353
▁열정을	-13354
▁영화군	-13355
▁영화니	-13356
▁예술적	-13357
▁오래전	-13358
▁월드컵	-13359
▁웨스턴	-13360
▁웨슬리	-13361
▁유튜브	-13362
▁윤시윤	-13363
▁이런지	-13364
▁이렇다	-13365
▁이상우	-13366
▁이용한	-13367
▁일본에	-13368
▁있구만	-13369
▁있으며	-13370
▁있음을	-13371
▁자연의	-13372
▁잠이나	-13373
▁저렴한	-13374
▁전체가	-13375
▁제레미	-13376
▁좀비가	-13377
▁좋겠네	-13378
▁좋겠음	-13379
▁죽어나	-13380
▁죽이네	-13381
▁준다는	-13382
▁짓거리	-13383
▁짱짱짱	-13384
▁초월한	-13385
▁촌스럽	-13386
▁친구는	-13387
▁캐리의	-13388
▁크레이	-13389
▁토요명	-13390
▁파치노	-13391
▁파트너	-13392
▁페이스	-13393
▁편집도	-13394
▁평점과	-13395
▁하여튼	-13396
▁한국말	-13397
▁한예슬	-13398
▁행복은	-13399
▁호흡이	-13400
▁화면은	-13401
적이었다	-13402
▁GOOD	-13403
▁가능성이	-13404
▁것이라고	-13405
▁공간에서	-13406
▁관객들의	-13407
▁그랬어요	-13408
▁그럴듯한	-13409
▁극장판이	-13410
▁기대하며	-13411
▁기발하고	-13412
▁나오겠지	-13413
▁나한테는	-13414
▁느껴지고	-13415
▁느와르의	-13416
▁늘어지고	-13417
▁단편영화	-13418
▁담백하게	-13419
▁대부분의	-13420
▁돌리다가	-13421
▁되었네요	-13422
▁드라마라	-13423
▁듯하네요	-13424
▁리얼리즘	-13425
▁마지막을	-13426
▁만들려면	-13427
▁만들었니	-13428
▁멋있네요	-13429
▁명작이지	-13430
▁모르겠는	-13431
▁모자이크	-13432
▁몰입감도	-13433
▁못하면서	-13434
▁무시하는	-13435
▁밀려오는	-13436
▁방식으로	-13437
▁보지마요	-13438
▁부족함이	-13439
▁분이라면	-13440
▁비교해도	-13441
▁사라지는	-13442
▁사람한테	-13443
▁상관없이	-13444
▁새끼들이	-13445
▁선사하는	-13446
▁성룡영화	-13447
▁손꼽히는	-13448
▁순수함이	-13449
▁스포일러	-13450
▁슬펐어요	-13451
▁시리즈에	-13452
▁시청률은	-13453
▁아니구나	-13454
▁안보는데	-13455
▁안타까워	-13456
▁않으면서	-13457
▁알았어요	-13458
▁열받아서	-13459
▁영화군요	-13460
▁영화에도	-13461
▁영화여서	-13462
▁예쁘네요	-13463
▁오리지날	-13464
▁요소들이	-13465
▁위대하다	-13466
▁유발하는	-13467
▁잊혀지질	-13468
▁재밋다고	-13469
▁재밋던데	-13470
▁재밌으면	-13471
▁정체성을	-13472
▁제작진은	-13473
▁조잡하다	-13474
▁지니어스	-13475
▁지루하긴	-13476
▁최소한의	-13477
▁추천하는	-13478
▁파격적인	-13479
▁평범하지	-13480
▁포인트를	-13481
▁학생들이	-13482
▁흡입력이	-13483
개인적으로	-13484
스럽습니다	-13485
▁기대되네요	-13486
▁기대했지만	-13487
▁드라마지만	-13488
▁떨어지네요	-13489
▁매력적이고	-13490
▁박스오피스	-13491
▁쁨여주만이	-13492
▁시작했는데	-13493
▁실망했어요	-13494
▁억지스럽지	-13495
▁자극적이고	-13496
▁재미있다는	-13497
▁전달하려는	-13498
▁지금에서야	-13499
▁처음이었다	-13500
▁평론가들이	-13501
▁하나입니다	-13502
▁한국영화를	-13503
▁한국영화에	-13504
▁드라마였어요	-13505
▁하나만으로도	-13506
ab	-13507
gh	-13508
ir	-13509
ry	-13510
▁겜	-13511
▁깬	-13512
▁꽥	-13513
▁꾀	-13514
▁쎄	-13515
▁짭	-13516
▁템	-13517
▁펀	-13518
감만	-13519
관에	-13520
귀신	-13521
그럼	-13522
길이	-13523
끝이	-13524
나를	-13525
년들	-13526
니와	-13527
단의	-13528
달아	-13529
더가	-13530
데로	-13531
도와	-13532
드류	-13533
디다	-13534
랜든	-13535
릿한	-13536
마의	-13537
맘에	-13538
맛이	-13539
먹기	-13540
미드	-13541
민을	-13542
방을	-13543
보며	-13544
사나	-13545
색이	-13546
석의	-13547
세의	-13548
수선	-13549
스맨	-13550
스티	-13551
신히	-13552
아니	-13553
아마	-13554
안의	-13555
어설	-13556
업이	-13557
역에	-13558
였군	-13559
울이	-13560
위는	-13561
제의	-13562
졌어	-13563
지기	-13564
진씨	-13565
짱이	-13566
차가	-13567
초딩	-13568
춰진	-13569
코드	-13570
키가	-13571
평이	-13572
피언	-13573
합이	-13574
허허	-13575
형사	-13576
혹한	-13577
▁4.	-13578
▁89	-13579
▁93	-13580
▁95	-13581
▁CF	-13582
▁간접	-13583
▁갈망	-13584
▁강소	-13585
▁개운	-13586
▁개척	-13587
▁겉멋	-13588
▁고요	-13589
▁관능	-13590
▁광기	-13591
▁구름	-13592
▁기간	-13593
▁기계	-13594
▁깔깔	-13595
▁껍데	-13596
▁꼬박	-13597
▁꼬집	-13598
▁남네	-13599
▁내다	-13600
▁너를	-13601
▁넘지	-13602
▁놈의	-13603
▁눈앞	-13604
▁닮아	-13605
▁대고	-13606
▁동기	-13607
▁디게	-13608
▁딴게	-13609
▁떠날	-13610
▁떠들	-13611
▁똥꼬	-13612
▁류덕	-13613
▁리부	-13614
▁말던	-13615
▁말코	-13616
▁말한	-13617
▁망침	-13618
▁멀쩡	-13619
▁메마	-13620
▁목을	-13621
▁무릎	-13622
▁무명	-13623
▁무적	-13624
▁미지	-13625
▁밍밍	-13626
▁바란	-13627
▁박물	-13628
▁박준	-13629
▁받쳐	-13630
▁방어	-13631
▁버금	-13632
▁베니	-13633
▁병사	-13634
▁보겟	-13635
▁보편	-13636
▁봉준	-13637
▁빌린	-13638
▁빠다	-13639
▁뽑는	-13640
▁뿐인	-13641
▁사골	-13642
▁선한	-13643
▁솔로	-13644
▁쉬고	-13645
▁스나	-13646
▁슬슬	-13647
▁습격	-13648
▁시티	-13649
▁실베	-13650
▁쓰잘	-13651
▁아포	-13652
▁알겟	-13653
▁야수	-13654
▁얘들	-13655
▁억을	-13656
▁에니	-13657
▁여느	-13658
▁엿보	-13659
▁예를	-13660
▁온통	-13661
▁옮겨	-13662
▁옷을	-13663
▁왕따	-13664
▁왤캐	-13665
▁운전	-13666
▁웃은	-13667
▁위선	-13668
▁위치	-13669
▁위협	-13670
▁유년	-13671
▁이곳	-13672
▁이니	-13673
▁인사	-13674
▁일인	-13675
▁잃게	-13676
▁있엇	-13677
▁작고	-13678
▁작년	-13679
▁잘된	-13680
▁잡탕	-13681
▁장화	-13682
▁재구	-13683
▁잼슴	-13684
▁저것	-13685
▁저랑	-13686
▁적을	-13687
▁정복	-13688
▁정성	-13689
▁정지	-13690
▁제인	-13691
▁조장	-13692
▁좁은	-13693
▁죄악	-13694
▁주나	-13695
▁주냐	-13696
▁주러	-13697
▁주저	-13698
▁줄줄	-13699
▁지인	-13700
▁진다	-13701
▁진자	-13702
▁짐작	-13703
▁집합	-13704
▁짱잼	-13705
▁차가	-13706
▁찾은	-13707
▁초등	-13708
▁최상	-13709
▁축하	-13710
▁춤도	-13711
▁코너	-13712
▁크크	-13713
▁터뜨	-13714
▁테잎	-13715
▁토마	-13716
▁퇴마	-13717
▁트랙	-13718
▁트렌	-13719
▁패륜	-13720
▁평작	-13721
▁하질	-13722
▁학예	-13723
▁합격	-13724
▁해군	-13725
▁화살	-13726
▁확신	-13727
▁환영	-13728
▁후련	-13729
▁훌쩍	-13730
나와서	-13731
어버린	-13732
우면서	-13733
우이웃	-13734
자들을	-13735
진다는	-13736
집에서	-13737
최악의	-13738
하잖아	-13739
reat	-13740
▁mbc	-13741
▁가문의	-13742
▁갈등과	-13743
▁감상평	-13744
▁결혼식	-13745
▁고민을	-13746
▁관계에	-13747
▁교훈과	-13748
▁군대가	-13749
▁귀엽게	-13750
▁그랬냐	-13751
▁김민준	-13752
▁김옥빈	-13753
▁꾸준히	-13754
▁꿀잼이	-13755
▁나무랄	-13756
▁나서는	-13757
▁낚였어	-13758
▁날리고	-13759
▁남아요	-13760
▁낭비다	-13761
▁노력을	-13762
▁다행인	-13763
▁덤으로	-13764
▁도가니	-13765
▁돌아간	-13766
▁돌아갈	-13767
▁돌아와	-13768
▁들리는	-13769
▁듯해서	-13770
▁떠오르	-13771
▁로렌스	-13772
▁루이스	-13773
▁만드신	-13774
▁만점이	-13775
▁만하고	-13776
▁많으셨	-13777
▁망했다	-13778
▁맞아요	-13779
▁맞춰서	-13780
▁매력의	-13781
▁머리는	-13782
▁머리카	-13783
▁멍청이	-13784
▁메이저	-13785
▁모아서	-13786
▁몰랐네	-13787
▁몸부림	-13788
▁못해도	-13789
▁무고한	-13790
▁무미건	-13791
▁무한한	-13792
▁물체가	-13793
▁바꿔라	-13794
▁바꿔서	-13795
▁바람이	-13796
▁바래요	-13797
▁배워라	-13798
▁변호사	-13799
▁보기를	-13800
▁보아야	-13801
▁본인은	-13802
▁봤더만	-13803
▁부족해	-13804
▁분들만	-13805
▁불면증	-13806
▁빠르기	-13807
▁뻔뻔한	-13808
▁뻔하디	-13809
▁사라지	-13810
▁살아라	-13811
▁살아서	-13812
▁새롭다	-13813
▁생각하	-13814
▁성우들	-13815
▁순간을	-13816
▁순진한	-13817
▁스릴과	-13818
▁스펙터	-13819
▁슬펐던	-13820
▁싶다고	-13821
▁씁니다	-13822
▁아내가	-13823
▁알려진	-13824
▁알면서	-13825
▁압권이	-13826
▁애니도	-13827
▁어려워	-13828
▁어색해	-13829
▁엉성함	-13830
▁역할에	-13831
▁연걸의	-13832
▁였어요	-13833
▁영화광	-13834
▁영화든	-13835
▁오래간	-13836
▁오빠들	-13837
▁올리고	-13838
▁외로움	-13839
▁우리들	-13840
▁울나라	-13841
▁울버린	-13842
▁울트라	-13843
▁위주로	-13844
▁위주의	-13845
▁음모론	-13846
▁의지가	-13847
▁이해안	-13848
▁인연이	-13849
▁일본을	-13850
▁입가에	-13851
▁있길래	-13852
▁작위적	-13853
▁장쯔이	-13854
▁재미나	-13855
▁재미에	-13856
▁저지른	-13857
▁저학년	-13858
▁전개의	-13859
▁정도를	-13860
▁정서를	-13861
▁정유미	-13862
▁제외한	-13863
▁조금도	-13864
▁조인성	-13865
▁조화가	-13866
▁졸작을	-13867
▁좋던데	-13868
▁좋아했	-13869
▁좋은지	-13870
▁죽음에	-13871
▁죽음이	-13872
▁즐기고	-13873
▁지나지	-13874
▁지들이	-13875
▁지진희	-13876
▁진정성	-13877
▁짜증을	-13878
▁찍으면	-13879
▁찾다가	-13880
▁척하는	-13881
▁천천히	-13882
▁철저한	-13883
▁철학을	-13884
▁최악은	-13885
▁충격적	-13886
▁친구의	-13887
▁케이스	-13888
▁클레이	-13889
▁터졌다	-13890
▁토마스	-13891
▁판치는	-13892
▁표현의	-13893
▁풍기는	-13894
▁피노키	-13895
▁피트의	-13896
▁필요해	-13897
▁하루에	-13898
▁한국을	-13899
▁해석이	-13900
▁해지는	-13901
▁했는가	-13902
▁화나는	-13903
▁흐른다	-13904
▁힐링이	-13905
스토리는	-13906
...10	-13907
▁가족들이	-13908
▁가족이랑	-13909
▁감안해도	-13910
▁공각기동	-13911
▁관객들을	-13912
▁교훈적인	-13913
▁권선징악	-13914
▁그러네요	-13915
▁그러는데	-13916
▁기대보다	-13917
▁꼽으라면	-13918
▁나오던데	-13919
▁내용이라	-13920
▁누군가를	-13921
▁대작이다	-13922
▁드라마와	-13923
▁드러나는	-13924
▁러브레터	-13925
▁만들어주	-13926
▁매트릭스	-13927
▁머릿속에	-13928
▁명작으로	-13929
▁모습으로	-13930
▁무너지는	-13931
▁민주주의	-13932
▁바이러스	-13933
▁보셨으면	-13934
▁보여줘서	-13935
▁보여지는	-13936
▁복잡하고	-13937
▁볼만했음	-13938
▁부끄럽다	-13939
▁빠짐없이	-13940
▁사랑했던	-13941
▁살아가고	-13942
▁상상력에	-13943
▁새끼들은	-13944
▁설득력이	-13945
▁순간부터	-13946
▁스토리며	-13947
▁시작된다	-13948
▁시청자들	-13949
▁싶었지만	-13950
▁쓰레기라	-13951
▁아깝더라	-13952
▁아니였음	-13953
▁아버지는	-13954
▁아이에게	-13955
▁안하는데	-13956
▁않는다는	-13957
▁않았다면	-13958
▁압도적인	-13959
▁영화배우	-13960
▁영화와는	-13961
▁예술이다	-13962
▁이것밖에	-13963
▁이상이다	-13964
▁일깨워준	-13965
▁작품성을	-13966
▁재밌었을	-13967
▁전달하는	-13968
▁존재하지	-13969
▁존재한다	-13970
▁종교적인	-13971
▁처음이자	-13972
▁추억으로	-13973
▁페미니즘	-13974
▁평점으로	-13975
▁하더라도	-13976
▁한번쯤은	-13977
▁할머니가	-13978
▁현실감이	-13979
▁후회된다	-13980
영화제에서	-13981
▁기본적으로	-13982
▁등장인물들	-13983
▁별로였는데	-13984
▁별로였어요	-13985
▁봐야겠어요	-13986
▁빠져들었다	-13987
▁수작이라고	-13988
▁쓰레기라는	-13989
▁안드로메다	-13990
▁업그레이드	-13991
▁움직이거나	-13992
▁이야기지만	-13993
▁인터스텔라	-13994
▁작품이라는	-13995
▁재미없으면	-13996
▁흘러나오는	-13997
▁boring	-13998
▁공포영화라고	-13999
▁애니메이션의	-14000
▁인상적이었다	-14001
▁감동이었습니다	-14002
????????????????	-14003
OD	-14004
▁긁	-14005
▁깐	-14006
▁닷	-14007
▁댕	-14008
▁딥	-14009
▁륵	-14010
▁뱃	-14011
▁엥	-14012
▁윗	-14013
▁윽	-14014
▁쿄	-14015
▁퉁	-14016
가물	-14017
각본	-14018
같네	-14019
고는	-14020
고도	-14021
고로	-14022
과도	-14023
관객	-14024
관념	-14025
관은	-14026
기며	-14027
기면	-14028
꼬박	-14029
꾸역	-14030
넬로	-14031
닥터	-14032
단다	-14033
락을	-14034
란드	-14035
래요	-14036
러드	-14037
렴풋	-14038
렸어	-14039
만화	-14040
명은	-14041
무비	-14042
무한	-14043
문이	-14044
미안	-14045
바다	-14046
바리	-14047
봤네	-14048
부대	-14049
분쯤	-14050
삼류	-14051
성만	-14052
세에	-14053
세인	-14054
숙한	-14055
시경	-14056
시장	-14057
신고	-14058
애를	-14059
애의	-14060
어는	-14061
어디	-14062
에노	-14063
에야	-14064
역이	-14065
오와	-14066
욕이	-14067
이젠	-14068
인줄	-14069
일은	-14070
잔인	-14071
진부	-14072
천재	-14073
출연	-14074
출한	-14075
크는	-14076
타가	-14077
타령	-14078
토벤	-14079
트니	-14080
티티	-14081
편집	-14082
포먼	-14083
하가	-14084
헌터	-14085
화로	-14086
환을	-14087
?!!	-14088
art	-14089
ime	-14090
▁92	-14091
▁IM	-14092
▁Th	-14093
▁간히	-14094
▁갔던	-14095
▁강도	-14096
▁같긴	-14097
▁개병	-14098
▁것다	-14099
▁게로	-14100
▁겪어	-14101
▁고난	-14102
▁고추	-14103
▁공동	-14104
▁공익	-14105
▁괴기	-14106
▁교양	-14107
▁그랜	-14108
▁금발	-14109
▁기괴	-14110
▁기능	-14111
▁기업	-14112
▁김병	-14113
▁김우	-14114
▁나인	-14115
▁남길	-14116
▁내릴	-14117
▁넣는	-14118
▁누드	-14119
▁다닌	-14120
▁다짐	-14121
▁달인	-14122
▁답을	-14123
▁대답	-14124
▁동정	-14125
▁됐음	-14126
▁되겠	-14127
▁되다	-14128
▁되려	-14129
▁때우	-14130
▁떠서	-14131
▁떼지	-14132
▁뛰는	-14133
▁리그	-14134
▁만다	-14135
▁맴버	-14136
▁머니	-14137
▁멀어	-14138
▁몸짓	-14139
▁몽골	-14140
▁무심	-14141
▁묻지	-14142
▁바꿨	-14143
▁바둑	-14144
▁바랄	-14145
▁바비	-14146
▁박살	-14147
▁반쪽	-14148
▁받게	-14149
▁배달	-14150
▁버는	-14151
▁보상	-14152
▁보질	-14153
▁부딪	-14154
▁부천	-14155
▁부패	-14156
▁불태	-14157
▁붕가	-14158
▁붙어	-14159
▁비열	-14160
▁빌어	-14161
▁빨로	-14162
▁뻔할	-14163
▁사귀	-14164
▁살게	-14165
▁살기	-14166
▁새키	-14167
▁성에	-14168
▁세세	-14169
▁송중	-14170
▁수천	-14171
▁스키	-14172
▁스튜	-14173
▁슬플	-14174
▁시공	-14175
▁시나	-14176
▁신발	-14177
▁실천	-14178
▁심야	-14179
▁싸이	-14180
▁쌍벽	-14181
▁아따	-14182
▁아른	-14183
▁안내	-14184
▁애도	-14185
▁언이	-14186
▁얻는	-14187
▁얼음	-14188
▁엠씨	-14189
▁연설	-14190
▁엿볼	-14191
▁였음	-14192
▁오나	-14193
▁오션	-14194
▁올랐	-14195
▁옳은	-14196
▁완존	-14197
▁외치	-14198
▁우웩	-14199
▁유선	-14200
▁유진	-14201
▁유태	-14202
▁윤재	-14203
▁이로	-14204
▁이혼	-14205
▁읽을	-14206
▁잃음	-14207
▁자부	-14208
▁자폐	-14209
▁장담	-14210
▁장사	-14211
▁저를	-14212
▁제타	-14213
▁조로	-14214
▁종이	-14215
▁죄냐	-14216
▁죽었	-14217
▁지껄	-14218
▁지진	-14219
▁직쏘	-14220
▁직전	-14221
▁질을	-14222
▁짓는	-14223
▁찌푸	-14224
▁찐한	-14225
▁최곤	-14226
▁카드	-14227
▁캡틴	-14228
▁콤비	-14229
▁클럽	-14230
▁타워	-14231
▁태도	-14232
▁토미	-14233
▁퇴폐	-14234
▁틀에	-14235
▁틀을	-14236
▁패틴	-14237
▁하느	-14238
▁하락	-14239
▁함축	-14240
▁허비	-14241
▁헤드	-14242
▁헤헤	-14243
▁홍수	-14244
▁훔쳐	-14245
▁흘려	-14246
▁흘린	-14247
그나마	-14248
되어야	-14249
등학교	-14250
레스트	-14251
멋대로	-14252
버렸음	-14253
살짜리	-14254
셨는데	-14255
스레저	-14256
았다고	-14257
역으로	-14258
이구나	-14259
지루함	-14260
프스키	-14261
하구나	-14262
합시다	-14263
했기에	-14264
...,	-14265
▁10,	-14266
▁9.1	-14267
▁9.5	-14268
▁911	-14269
▁not	-14270
▁개졸작	-14271
▁거장의	-14272
▁결과를	-14273
▁경찰은	-14274
▁고소영	-14275
▁고스트	-14276
▁곳곳에	-14277
▁공포와	-14278
▁교훈은	-14279
▁구하는	-14280
▁굿바이	-14281
▁궁금함	-14282
▁그래야	-14283
▁그토록	-14284
▁긴급조	-14285
▁길거리	-14286
▁길어서	-14287
▁김선아	-14288
▁김주혁	-14289
▁꽃미남	-14290
▁끝에서	-14291
▁나라면	-14292
▁난잡한	-14293
▁남아서	-14294
▁내용만	-14295
▁눈부신	-14296
▁느껴진	-14297
▁능력을	-14298
▁다음엔	-14299
▁달라고	-14300
▁당당히	-14301
▁대상이	-14302
▁댓글들	-14303
▁댓글에	-14304
▁더빙판	-14305
▁던지고	-14306
▁돌리다	-14307
▁되겠지	-14308
▁되니까	-14309
▁들어와	-14310
▁들었을	-14311
▁때로는	-14312
▁때보다	-14313
▁라마바	-14314
▁마동석	-14315
▁마스크	-14316
▁만들던	-14317
▁말해야	-14318
▁맘대로	-14319
▁맞네요	-14320
▁맞먹는	-14321
▁맞추는	-14322
▁모호한	-14323
▁몰랐음	-14324
▁못했고	-14325
▁묘사도	-14326
▁무능력	-14327
▁미치게	-14328
▁민주화	-14329
▁반응이	-14330
▁방송을	-14331
▁배경의	-14332
▁배슬기	-14333
▁보려는	-14334
▁본인의	-14335
▁봐서는	-14336
▁봤었지	-14337
▁북한의	-14338
▁분노를	-14339
▁불안한	-14340
▁비교를	-14341
▁비노쉬	-14342
▁빠졌네	-14343
▁빠졌다	-14344
▁살다가	-14345
▁살리고	-14346
▁살리는	-14347
▁삼국지	-14348
▁상관없	-14349
▁서로의	-14350
▁설레임	-14351
▁세기의	-14352
▁소화해	-14353
▁속편이	-14354
▁심금을	-14355
▁싶어도	-14356
▁싶었나	-14357
▁쌍둥이	-14358
▁쓰나미	-14359
▁아깝단	-14360
▁아니구	-14361
▁안하는	-14362
▁애니중	-14363
▁애쓰는	-14364
▁앨리스	-14365
▁양조위	-14366
▁얘기만	-14367
▁어디다	-14368
▁어른들	-14369
▁어쩐지	-14370
▁없었나	-14371
▁엠비씨	-14372
▁여고생	-14373
▁여운은	-14374
▁여지껏	-14375
▁연극을	-14376
▁연기할	-14377
▁영환가	-14378
▁예상할	-14379
▁예술로	-14380
▁오늘의	-14381
▁오다기	-14382
▁오르는	-14383
▁오마이	-14384
▁왕가위	-14385
▁용두사	-14386
▁우스꽝	-14387
▁우울증	-14388
▁우정과	-14389
▁울린다	-14390
▁웃었음	-14391
▁웃지요	-14392
▁위안부	-14393
▁이걸로	-14394
▁이대로	-14395
▁이라도	-14396
▁이름도	-14397
▁이민정	-14398
▁인상이	-14399
▁인지도	-14400
▁있더라	-14401
▁재활용	-14402
▁잼나게	-14403
▁전율을	-14404
▁조절을	-14405
▁주구장	-14406
▁죽겠네	-14407
▁죽음은	-14408
▁중간쯤	-14409
▁중국인	-14410
▁중독성	-14411
▁진실된	-14412
▁진실이	-14413
▁징그러	-14414
▁쩔어요	-14415
▁쪽으로	-14416
▁찌르는	-14417
▁착하고	-14418
▁챔피언	-14419
▁추억은	-14420
▁취향에	-14421
▁콩가루	-14422
▁태권도	-14423
▁톱스타	-14424
▁특별히	-14425
▁틀어주	-14426
▁편안한	-14427
▁평점의	-14428
▁폴리스	-14429
▁프리먼	-14430
▁프리퀄	-14431
▁필요함	-14432
▁하고는	-14433
▁하든가	-14434
▁하품만	-14435
▁학생들	-14436
▁했다가	-14437
▁행크스	-14438
▁현대판	-14439
▁현재를	-14440
▁형님이	-14441
▁흘렸다	-14442
▁흘리게	-14443
▁흥행은	-14444
▁흥행이	-14445
▁힘으로	-14446
들에게는	-14447
디에이터	-14448
..!!!	-14449
....;	-14450
;;;;;	-14451
▁Best	-14452
▁ever	-14453
▁가슴속에	-14454
▁가족들과	-14455
▁간직하고	-14456
▁거기다가	-14457
▁것이라는	-14458
▁견자단이	-14459
▁공감되고	-14460
▁관객들이	-14461
▁그대로의	-14462
▁그랬는데	-14463
▁그러면서	-14464
▁그림체도	-14465
▁꺼버렸다	-14466
▁꾸역꾸역	-14467
▁나라에서	-14468
▁너무하다	-14469
▁노력하는	-14470
▁누군가가	-14471
▁다르지만	-14472
▁대단하고	-14473
▁대부분이	-14474
▁더빙으로	-14475
▁드라마임	-14476
▁뛰어나다	-14477
▁많았으면	-14478
▁매혹적인	-14479
▁못하네요	-14480
▁못했다는	-14481
▁반게리온	-14482
▁보자마자	-14483
▁불우이웃	-14484
▁비교된다	-14485
▁비주얼도	-14486
▁사람에겐	-14487
▁사실적인	-14488
▁상영하는	-14489
▁색다르고	-14490
▁생각났다	-14491
▁소재인데	-14492
▁스릴러로	-14493
▁스스로를	-14494
▁싱크로율	-14495
▁싸이코패	-14496
▁아련하고	-14497
▁액티비티	-14498
▁어이없다	-14499
▁억지스럽	-14500
▁없었다는	-14501
▁없으면서	-14502
▁연기자가	-14503
▁완벽했다	-14504
▁우주전쟁	-14505
▁음악으로	-14506
▁의미하는	-14507
▁이렇게도	-14508
▁이번에는	-14509
▁이쁘네요	-14510
▁이야기들	-14511
▁작품성도	-14512
▁장면으로	-14513
▁재미있었	-14514
▁재밌는지	-14515
▁전반적인	-14516
▁주관적인	-14517
▁주제의식	-14518
▁줄거리만	-14519
▁짜증나요	-14520
▁처구니가	-14521
▁처절하게	-14522
▁초월하는	-14523
▁캐스팅만	-14524
▁코미디에	-14525
▁코믹으로	-14526
▁투모로우	-14527
▁폐지해라	-14528
▁포기하지	-14529
▁풀어내는	-14530
▁하겠지만	-14531
▁한국에도	-14532
▁행복하다	-14533
▁행복했다	-14534
▁기대할게요	-14535
▁기대했건만	-14536
▁노골적으로	-14537
▁느낌입니다	-14538
▁만들어버린	-14539
▁만들어주는	-14540
▁무엇보다도	-14541
▁별로였지만	-14542
▁사람입니다	-14543
▁사랑스러움	-14544
▁생각됩니다	-14545
▁실망이네요	-14546
▁아름다워요	-14547
▁아름답네요	-14548
▁어린이들이	-14549
▁연기력으로	-14550
▁연기자들이	-14551
▁유치하다고	-14552
▁재미없어도	-14553
▁죄송하지만	-14554
▁죽여버리고	-14555
▁짜증나네요	-14556
▁최악이네요	-14557
▁하셨습니다	-14558
▁허무맹랑한	-14559
▁후회합니다	-14560
▁감동적이지도	-14561
▁아름답습니다	-14562
▁흥미진진하다	-14563
.,.,.,.,	-14564
▁드라마였습니다	-14565
!!!!!!!!!!!	-14566
!'	-14567
21	-14568
89	-14569
ly	-14570
ne	-14571
ra	-14572
▁q	-14573
▁떴	-14574
▁려	-14575
▁룸	-14576
▁밌	-14577
▁뱉	-14578
▁뵙	-14579
▁슌	-14580
▁슨	-14581
▁쌤	-14582
▁째	-14583
▁쯧	-14584
▁켈	-14585
▁펴	-14586
▁햄	-14587
▁횽	-14588
▁흙	-14589
거야	-14590
겟지	-14591
공주	-14592
관의	-14593
기네	-14594
끼가	-14595
나간	-14596
너의	-14597
니는	-14598
니발	-14599
달까	-14600
답다	-14601
더블	-14602
되길	-14603
두는	-14604
든데	-14605
디아	-14606
디의	-14607
러브	-14608
렷다	-14609
만원	-14610
망이	-14611
망한	-14612
모습	-14613
물인	-14614
범이	-14615
부들	-14616
부짖	-14617
분투	-14618
브이	-14619
비언	-14620
빈이	-14621
사시	-14622
서가	-14623
서방	-14624
소서	-14625
수도	-14626
시도	-14627
시코	-14628
시킴	-14629
신과	-14630
아빠	-14631
안습	-14632
어른	-14633
에휴	-14634
역을	-14635
연씨	-14636
영씨	-14637
욕을	-14638
워라	-14639
원래	-14640
으루	-14641
이런	-14642
이미	-14643
이번	-14644
이시	-14645
인권	-14646
전한	-14647
정도	-14648
조가	-14649
진한	-14650
칼립	-14651
코타	-14652
쿼터	-14653
타의	-14654
타이	-14655
톨릭	-14656
평해	-14657
학을	-14658
해가	-14659
힌다	-14660
.;;	-14661
log	-14662
▁88	-14663
▁94	-14664
▁an	-14665
▁do	-14666
▁gt	-14667
▁kn	-14668
▁nd	-14669
▁가다	-14670
▁가려	-14671
▁감격	-14672
▁갔을	-14673
▁개허	-14674
▁거칠	-14675
▁건물	-14676
▁걸림	-14677
▁겟다	-14678
▁겹다	-14679
▁경영	-14680
▁경주	-14681
▁고기	-14682
▁고른	-14683
▁고아	-14684
▁공군	-14685
▁관광	-14686
▁교통	-14687
▁권장	-14688
▁급이	-14689
▁기름	-14690
▁기울	-14691
▁기지	-14692
▁김종	-14693
▁김진	-14694
▁끝맺	-14695
▁나선	-14696
▁남게	-14697
▁낳고	-14698
▁너가	-14699
▁넘나	-14700
▁노민	-14701
▁눈알	-14702
▁눈엔	-14703
▁능청	-14704
▁다뤄	-14705
▁달까	-14706
▁답습	-14707
▁당첨	-14708
▁도박	-14709
▁동서	-14710
▁돼요	-14711
▁됐고	-14712
▁됐네	-14713
▁둘은	-14714
▁듯함	-14715
▁떡칠	-14716
▁똥싸	-14717
▁뜯어	-14718
▁레벨	-14719
▁로즈	-14720
▁로틱	-14721
▁리스	-14722
▁리차	-14723
▁마세	-14724
▁만듬	-14725
▁맛도	-14726
▁맞출	-14727
▁머라	-14728
▁머물	-14729
▁머임	-14730
▁멀미	-14731
▁메르	-14732
▁명은	-14733
▁목욕	-14734
▁묵직	-14735
▁문을	-14736
▁뭐여	-14737
▁미남	-14738
▁미혼	-14739
▁민호	-14740
▁바쁜	-14741
▁발버	-14742
▁발악	-14743
▁밥도	-14744
▁버디	-14745
▁번의	-14746
▁벗은	-14747
▁볼께	-14748
▁봐봐	-14749
▁부다	-14750
▁분열	-14751
▁붙인	-14752
▁비됴	-14753
▁비약	-14754
▁비춰	-14755
▁비트	-14756
▁빙빙	-14757
▁쁘게	-14758
▁사업	-14759
▁샤워	-14760
▁성기	-14761
▁성냥	-14762
▁세븐	-14763
▁송윤	-14764
▁스머	-14765
▁슬펏	-14766
▁시놉	-14767
▁식당	-14768
▁썸띵	-14769
▁쓰던	-14770
▁아낌	-14771
▁아트	-14772
▁안아	-14773
▁않앗	-14774
▁애미	-14775
▁애써	-14776
▁애청	-14777
▁앤더	-14778
▁약함	-14779
▁얻고	-14780
▁얼어	-14781
▁엇갈	-14782
▁영감	-14783
▁옛다	-14784
▁오정	-14785
▁올인	-14786
▁와나	-14787
▁요가	-14788
▁원인	-14789
▁유연	-14790
▁으악	-14791
▁이고	-14792
▁이집	-14793
▁인질	-14794
▁일세	-14795
▁입도	-14796
▁작성	-14797
▁장가	-14798
▁재조	-14799
▁쟁쟁	-14800
▁제리	-14801
▁죽게	-14802
▁줄께	-14803
▁줬어	-14804
▁지성	-14805
▁지킬	-14806
▁직설	-14807
▁짓은	-14808
▁찔끔	-14809
▁총기	-14810
▁치매	-14811
▁치부	-14812
▁케릭	-14813
▁타잔	-14814
▁터트	-14815
▁토비	-14816
▁파탄	-14817
▁패고	-14818
▁팬들	-14819
▁퍼시	-14820
▁편성	-14821
▁포트	-14822
▁폼만	-14823
▁표출	-14824
▁피를	-14825
▁피의	-14826
▁핑계	-14827
▁하겠	-14828
▁하라	-14829
▁하진	-14830
▁하트	-14831
▁한때	-14832
▁할께	-14833
▁허드	-14834
▁혈압	-14835
▁협박	-14836
▁화만	-14837
▁황진	-14838
▁흐흐	-14839
▁흔치	-14840
가슴이	-14841
가에서	-14842
감으로	-14843
거리게	-14844
나오고	-14845
내리는	-14846
도저히	-14847
래이션	-14848
렸다는	-14849
베이터	-14850
보니까	-14851
봐야지	-14852
봣는데	-14853
상으로	-14854
소리가	-14855
아가는	-14856
안타깝	-14857
이예요	-14858
점밖에	-14859
했어도	-14860
화에서	-14861
▁SBS	-14862
▁가난한	-14863
▁가능성	-14864
▁가시지	-14865
▁간단한	-14866
▁간신히	-14867
▁감각이	-14868
▁감독인	-14869
▁감사할	-14870
▁감성과	-14871
▁감우성	-14872
▁감정은	-14873
▁개념이	-14874
▁개망작	-14875
▁개판이	-14876
▁거겠지	-14877
▁거부감	-14878
▁거품이	-14879
▁게이트	-14880
▁게임이	-14881
▁결승전	-14882
▁결혼을	-14883
▁경험을	-14884
▁공포감	-14885
▁교도소	-14886
▁귀신은	-14887
▁그것만	-14888
▁그보다	-14889
▁김우빈	-14890
▁꺼버린	-14891
▁나라에	-14892
▁날수록	-14893
▁남주는	-14894
▁낫네요	-14895
▁노튼의	-14896
▁놀랐음	-14897
▁누워서	-14898
▁눈물만	-14899
▁느낌에	-14900
▁단점은	-14901
▁달라진	-14902
▁대박나	-14903
▁대사로	-14904
▁대화가	-14905
▁데다가	-14906
▁둘이서	-14907
▁드려요	-14908
▁들어갔	-14909
▁들었고	-14910
▁따라올	-14911
▁똑같네	-14912
▁뛰어났	-14913
▁마인드	-14914
▁만나면	-14915
▁맥아담	-14916
▁멈추지	-14917
▁모두의	-14918
▁모습만	-14919
▁몸매는	-14920
▁못하냐	-14921
▁뭔지도	-14922
▁밀라요	-14923
▁바꾸는	-14924
▁바라고	-14925
▁바이블	-14926
▁박신양	-14927
▁박해일	-14928
▁밖으로	-14929
▁반대로	-14930
▁발가락	-14931
▁발음도	-14932
▁배경에	-14933
▁베를린	-14934
▁베토벤	-14935
▁변화를	-14936
▁보시라	-14937
▁보았음	-14938
▁봣으면	-14939
▁봤구요	-14940
▁봤었음	-14941
▁분하다	-14942
▁불쌍할	-14943
▁브라질	-14944
▁비추천	-14945
▁뿐인데	-14946
▁산다는	-14947
▁살았던	-14948
▁상큼한	-14949
▁색깔이	-14950
▁생각났	-14951
▁선택은	-14952
▁선택의	-14953
▁섬뜩한	-14954
▁세월호	-14955
▁솔찍히	-14956
▁수작을	-14957
▁스캔들	-14958
▁스크림	-14959
▁스토커	-14960
▁슬프지	-14961
▁실상을	-14962
▁싫다고	-14963
▁싶으나	-14964
▁썼으면	-14965
▁쓰라고	-14966
▁쓰세요	-14967
▁아내의	-14968
▁아니여	-14969
▁아빠랑	-14970
▁아빠를	-14971
▁아파서	-14972
▁알바냐	-14973
▁알았지	-14974
▁애기들	-14975
▁얄팍한	-14976
▁어렴풋	-14977
▁어쩔꺼	-14978
▁에리카	-14979
▁여태껏	-14980
▁연결도	-14981
▁영상만	-14982
▁영상의	-14983
▁영웅이	-14984
▁옛날엔	-14985
▁오마쥬	-14986
▁올바른	-14987
▁용서할	-14988
▁우베볼	-14989
▁울림이	-14990
▁움직임	-14991
▁웃기게	-14992
▁워스트	-14993
▁유승호	-14994
▁이래도	-14995
▁이러는	-14996
▁이보단	-14997
▁이쁘네	-14998
▁이하다	-14999
▁인간과	-15000
▁인물에	-15001
▁있지도	-15002
▁자비에	-15003
▁자식이	-15004
▁자이언	-15005
▁잘못을	-15006
▁잠오는	-15007
▁잤어요	-15008
▁저에겐	-15009
▁적으로	-15010
▁전편을	-15011
▁전하고	-15012
▁정사씬	-15013
▁정서가	-15014
▁조아요	-15015
▁존재의	-15016
▁좋구요	-15017
▁좋아도	-15018
▁좋아용	-15019
▁주기가	-15020
▁주어진	-15021
▁주연을	-15022
▁줄려고	-15023
▁중에는	-15024
▁진행도	-15025
▁집중을	-15026
▁짜장면	-15027
▁짠하다	-15028
▁찝찝함	-15029
▁찡하게	-15030
▁착하게	-15031
▁초딩도	-15032
▁총싸움	-15033
▁최수종	-15034
▁출연작	-15035
▁코난이	-15036
▁타인의	-15037
▁토끼를	-15038
▁토요일	-15039
▁투자를	-15040
▁티라노	-15041
▁퍼포먼	-15042
▁페넬로	-15043
▁편집은	-15044
▁편집을	-15045
▁평가된	-15046
▁포스트	-15047
▁하구요	-15048
▁하모니	-15049
▁하시지	-15050
▁한번도	-15051
▁한이다	-15052
▁한지민	-15053
▁할까요	-15054
▁호러물	-15055
▁화면만	-15056
▁화이트	-15057
▁확인해	-15058
▁후레쉬	-15059
▁후반의	-15060
▁후회가	-15061
▁흐름도	-15062
▁흔들어	-15063
▁흘리고	-15064
스러움이	-15065
영화라고	-15066
용으로도	-15067
하겠지만	-15068
하기에는	-15069
..;;;	-15070
▁1980	-15071
▁1997	-15072
▁1998	-15073
▁bbbb	-15074
▁this	-15075
▁감각적인	-15076
▁감독님은	-15077
▁감독이다	-15078
▁감사하고	-15079
▁감안하고	-15080
▁개봉하고	-15081
▁공감하기	-15082
▁국내에서	-15083
▁그만해라	-15084
▁긴급조치	-15085
▁나뿐인가	-15086
▁나에게도	-15087
▁나왔다고	-15088
▁남깁니다	-15089
▁남녀노소	-15090
▁남자지만	-15091
▁데려다가	-15092
▁들어오는	-15093
▁막무가내	-15094
▁말았으면	-15095
▁맞습니다	-15096
▁멋있어서	-15097
▁명불허전	-15098
▁모습에서	-15099
▁무서웠던	-15100
▁무엇일까	-15101
▁보았네요	-15102
▁보여줘야	-15103
▁보입니다	-15104
▁부분들이	-15105
▁부족했다	-15106
▁비슷비슷	-15107
▁비슷하다	-15108
▁사랑이다	-15109
▁선생님의	-15110
▁성장하는	-15111
▁시리즈물	-15112
▁신선했고	-15113
▁심심하다	-15114
▁쓰레기의	-15115
▁아니어도	-15116
▁아니였다	-15117
▁아저씨는	-15118
▁아저씨의	-15119
▁안무섭다	-15120
▁압권이다	-15121
▁얘기하는	-15122
▁어렵지만	-15123
▁어른들을	-15124
▁어우러져	-15125
▁언젠가는	-15126
▁없겠지만	-15127
▁여기까지	-15128
▁여기서도	-15129
▁여자에게	-15130
▁영화구만	-15131
▁영화랄까	-15132
▁영화마다	-15133
▁웃기네요	-15134
▁원작으로	-15135
▁이번에도	-15136
▁이야기다	-15137
▁인종차별	-15138
▁있으니까	-15139
▁자신만의	-15140
▁자연스레	-15141
▁잘하는지	-15142
▁잠시나마	-15143
▁장난으로	-15144
▁재밌더라	-15145
▁적절하게	-15146
▁전설적인	-15147
▁전해지는	-15148
▁제목이랑	-15149
▁조기종영	-15150
▁좋았다고	-15151
▁좋은데요	-15152
▁주려다가	-15153
▁주연들의	-15154
▁중반까지	-15155
▁중요하다	-15156
▁즐거웠던	-15157
▁지루했고	-15158
▁짜증나고	-15159
▁짜집기한	-15160
▁찾아보고	-15161
▁찾아보니	-15162
▁촌스럽다	-15163
▁추합니다	-15164
▁케릭터가	-15165
▁클로즈업	-15166
▁특이하고	-15167
▁팬으로써	-15168
▁펼쳐지는	-15169
▁평점주는	-15170
▁포스터의	-15171
▁표현하지	-15172
▁필모그래	-15173
▁한순간도	-15174
▁후반부가	-15175
▁히어로물	-15176
▁누군가에겐	-15177
▁다크나이트	-15178
▁마스터피스	-15179
▁반전이라고	-15180
▁받았습니다	-15181
▁보여주세요	-15182
▁부족하지만	-15183
▁사랑스러워	-15184
▁시사회에서	-15185
▁쓰레기통에	-15186
▁아니었는데	-15187
▁아름다워서	-15188
▁연기자들도	-15189
▁영화에서도	-15190
▁오랜만이다	-15191
▁우리나라가	-15192
▁잔인하지만	-15193
▁좋아했어요	-15194
▁중반까지는	-15195
▁카리스마가	-15196
▁카타르시스	-15197
▁하겠습니다	-15198
▁행복합니다	-15199
▁흥미로웠다	-15200
▁!!!!!!	-15201
▁비현실적이고	-15202
▁안타깝습니다	-15203
18	-15204
hh	-15205
ke	-15206
▁걔	-15207
▁닳	-15208
▁뜰	-15209
▁료	-15210
▁뭍	-15211
▁뻑	-15212
▁씩	-15213
▁욜	-15214
▁쟤	-15215
▁팜	-15216
▁휩	-15217
▁휼	-15218
가면	-15219
간을	-15220
걸륜	-15221
겹고	-15222
경의	-15223
광이	-15224
구구	-15225
구들	-15226
국을	-15227
귀엽	-15228
기게	-15229
꾸로	-15230
끄는	-15231
내면	-15232
년자	-15233
단이	-15234
당께	-15235
대도	-15236
대표	-15237
드림	-15238
러지	-15239
레나	-15240
레비	-15241
로얄	-15242
론은	-15243
류로	-15244
망작	-15245
매매	-15246
맨을	-15247
목을	-15248
밀한	-15249
반도	-15250
발로	-15251
번의	-15252
베이	-15253
블로	-15254
사건	-15255
세는	-15256
세연	-15257
셨다	-15258
슐리	-15259
슨은	-15260
심은	-15261
야마	-15262
어난	-15263
어릴	-15264
용석	-15265
월에	-15266
위로	-15267
윤희	-15268
이여	-15269
이유	-15270
익은	-15271
일지	-15272
자막	-15273
점씩	-15274
정에	-15275
지구	-15276
찮게	-15277
참나	-15278
채영	-15279
초도	-15280
치와	-15281
카의	-15282
텐데	-15283
토의	-15284
티네	-15285
파에	-15286
펜터	-15287
프는	-15288
피가	-15289
한가	-15290
형은	-15291
호러	-15292
혼자	-15293
화된	-15294
회는	-15295
?;;	-15296
ack	-15297
erf	-15298
▁32	-15299
▁SM	-15300
▁am	-15301
▁im	-15302
▁ne	-15303
▁tr	-15304
▁감점	-15305
▁개개	-15306
▁건담	-15307
▁겉만	-15308
▁겹고	-15309
▁겹쳐	-15310
▁고대	-15311
▁공정	-15312
▁괴리	-15313
▁구해	-15314
▁국적	-15315
▁귀를	-15316
▁그날	-15317
▁난장	-15318
▁남북	-15319
▁낮냐	-15320
▁넘사	-15321
▁넘침	-15322
▁노트	-15323
▁놓는	-15324
▁다다	-15325
▁다수	-15326
▁다카	-15327
▁다한	-15328
▁닥쳐	-15329
▁담주	-15330
▁댄싱	-15331
▁더글	-15332
▁도서	-15333
▁돌파	-15334
▁동거	-15335
▁동급	-15336
▁동시	-15337
▁돼고	-15338
▁두는	-15339
▁두루	-15340
▁둔갑	-15341
▁뒤의	-15342
▁뒤쳐	-15343
▁드팔	-15344
▁등은	-15345
▁루시	-15346
▁르노	-15347
▁리모	-15348
▁리처	-15349
▁마는	-15350
▁마돈	-15351
▁막막	-15352
▁맑고	-15353
▁맞춤	-15354
▁매너	-15355
▁매료	-15356
▁매춘	-15357
▁머여	-15358
▁모드	-15359
▁모레	-15360
▁모음	-15361
▁무력	-15362
▁무신	-15363
▁문명	-15364
▁문어	-15365
▁문채	-15366
▁바는	-15367
▁바디	-15368
▁박민	-15369
▁박혀	-15370
▁배낀	-15371
▁배는	-15372
▁범작	-15373
▁별은	-15374
▁병원	-15375
▁보도	-15376
▁보듬	-15377
▁보영	-15378
▁본받	-15379
▁봤슴	-15380
▁부적	-15381
▁부풀	-15382
▁불량	-15383
▁브루	-15384
▁비웃	-15385
▁빛나	-15386
▁뽀뽀	-15387
▁뿌려	-15388
▁뿌리	-15389
▁사도	-15390
▁사연	-15391
▁사운	-15392
▁살지	-15393
▁생동	-15394
▁생물	-15395
▁서방	-15396
▁서우	-15397
▁선과	-15398
▁설리	-15399
▁셋이	-15400
▁손오	-15401
▁손해	-15402
▁쇼크	-15403
▁수만	-15404
▁수지	-15405
▁수행	-15406
▁쉽다	-15407
▁스쳐	-15408
▁스카	-15409
▁슬랩	-15410
▁신지	-15411
▁싱크	-15412
▁쓰리	-15413
▁아웅	-15414
▁아유	-15415
▁아플	-15416
▁악을	-15417
▁않던	-15418
▁앗다	-15419
▁애새	-15420
▁양자	-15421
▁어게	-15422
▁어땟	-15423
▁여럿	-15424
▁연락	-15425
▁영하	-15426
▁오시	-15427
▁오컬	-15428
▁욕구	-15429
▁용감	-15430
▁울림	-15431
▁웨스	-15432
▁유감	-15433
▁유로	-15434
▁유인	-15435
▁유죄	-15436
▁유투	-15437
▁으휴	-15438
▁음란	-15439
▁응징	-15440
▁의아	-15441
▁이득	-15442
▁이뻤	-15443
▁이시	-15444
▁이익	-15445
▁일로	-15446
▁잇음	-15447
▁장학	-15448
▁전두	-15449
▁전원	-15450
▁절친	-15451
▁정무	-15452
▁정선	-15453
▁정수	-15454
▁정책	-15455
▁제격	-15456
▁조악	-15457
▁존엄	-15458
▁존잼	-15459
▁졸음	-15460
▁좋긴	-15461
▁죄가	-15462
▁준기	-15463
▁줘라	-15464
▁지네	-15465
▁지울	-15466
▁진구	-15467
▁쭈욱	-15468
▁차갑	-15469
▁찾지	-15470
▁첨인	-15471
▁초보	-15472
▁총각	-15473
▁최정	-15474
▁추기	-15475
▁춘향	-15476
▁출동	-15477
▁출품	-15478
▁취해	-15479
▁치킨	-15480
▁친근	-15481
▁쿵푸	-15482
▁타격	-15483
▁탄압	-15484
▁탓에	-15485
▁터널	-15486
▁테고	-15487
▁틀린	-15488
▁파도	-15489
▁패배	-15490
▁평온	-15491
▁프라	-15492
▁핀처	-15493
▁하단	-15494
▁하울	-15495
▁학대	-15496
▁한방	-15497
▁햇음	-15498
▁허락	-15499
▁헤매	-15500
▁현우	-15501
▁현지	-15502
▁회장	-15503
▁휼륭	-15504
▁힛걸	-15505
갈수록	-15506
감동도	-15507
는지는	-15508
니스트	-15509
덴티티	-15510
되는데	-15511
디어스	-15512
라이브	-15513
만큼의	-15514
보다니	-15515
사아자	-15516
상에서	-15517
시네마	-15518
았는지	-15519
어가고	-15520
연기력	-15521
였을까	-15522
영화인	-15523
재미는	-15524
점이라	-15525
지금도	-15526
진정한	-15527
짜증나	-15528
캐릭터	-15529
티스트	-15530
편이랑	-15531
하군요	-15532
하도록	-15533
해버린	-15534
했었던	-15535
화이팅	-15536
회에서	-15537
▁are	-15538
▁for	-15539
▁top	-15540
▁wor	-15541
▁가관이	-15542
▁가면서	-15543
▁감회가	-15544
▁갔으면	-15545
▁같잖은	-15546
▁개소름	-15547
▁갱스터	-15548
▁게임의	-15549
▁격투씬	-15550
▁결말과	-15551
▁고릴라	-15552
▁고현정	-15553
▁공허한	-15554
▁과정은	-15555
▁구분이	-15556
▁구해서	-15557
▁국회의	-15558
▁그랬음	-15559
▁그림도	-15560
▁기다리	-15561
▁긴장도	-15562
▁김아중	-15563
▁김현주	-15564
▁깊네요	-15565
▁꽝이다	-15566
▁나까지	-15567
▁나처럼	-15568
▁나타낸	-15569
▁날리는	-15570
▁남았던	-15571
▁낫지만	-15572
▁내생의	-15573
▁눈물날	-15574
▁눈빛은	-15575
▁단막극	-15576
▁동화책	-15577
▁되기를	-15578
▁된장녀	-15579
▁됬으면	-15580
▁뒤에서	-15581
▁드러나	-15582
▁드러운	-15583
▁라이브	-15584
▁리브스	-15585
▁리차드	-15586
▁막장에	-15587
▁막히고	-15588
▁만났다	-15589
▁만으로	-15590
▁만화의	-15591
▁많았음	-15592
▁망가진	-15593
▁맴도는	-15594
▁맴돈다	-15595
▁몸으로	-15596
▁못난이	-15597
▁무섭긴	-15598
▁문소리	-15599
▁물고기	-15600
▁미모와	-15601
▁미안한	-15602
▁밑바닥	-15603
▁바라본	-15604
▁바람을	-15605
▁반가운	-15606
▁방향을	-15607
▁배우나	-15608
▁배우인	-15609
▁버려라	-15610
▁버렸음	-15611
▁버리지	-15612
▁벗어난	-15613
▁베리굿	-15614
▁보겟다	-15615
▁보고는	-15616
▁보너스	-15617
▁보비치	-15618
▁복수는	-15619
▁본건데	-15620
▁봤다만	-15621
▁부리는	-15622
▁부수고	-15623
▁분명한	-15624
▁브로스	-15625
▁비교적	-15626
▁비슷함	-15627
▁사고방	-15628
▁상태로	-15629
▁새끼는	-15630
▁색감도	-15631
▁생생히	-15632
▁서비스	-15633
▁서커스	-15634
▁성룡은	-15635
▁성시경	-15636
▁성탈출	-15637
▁세계의	-15638
▁소녀가	-15639
▁스카이	-15640
▁시작된	-15641
▁시청율	-15642
▁식상함	-15643
▁싱거운	-15644
▁쓰레긴	-15645
▁아나운	-15646
▁아빠는	-15647
▁안치고	-15648
▁알바임	-15649
▁알았던	-15650
▁알지도	-15651
▁앗는데	-15652
▁애정이	-15653
▁얘기는	-15654
▁어른도	-15655
▁어수선	-15656
▁어쩌구	-15657
▁없이는	-15658
▁여자로	-15659
▁역할은	-15660
▁영상에	-15661
▁영어로	-15662
▁영화긴	-15663
▁올리지	-15664
▁왜일까	-15665
▁욕망을	-15666
▁용기가	-15667
▁울다가	-15668
▁울부짖	-15669
▁울었네	-15670
▁유쾌함	-15671
▁응원할	-15672
▁의미로	-15673
▁이들은	-15674
▁이리도	-15675
▁일들이	-15676
▁일하는	-15677
▁있기는	-15678
▁자기만	-15679
▁자리가	-15680
▁자세한	-15681
▁자유로	-15682
▁재밋긴	-15683
▁저번에	-15684
▁저에게	-15685
▁적당할	-15686
▁전달이	-15687
▁전무후	-15688
▁정상인	-15689
▁정의는	-15690
▁정준호	-15691
▁제작을	-15692
▁조절용	-15693
▁존재할	-15694
▁종교를	-15695
▁종교적	-15696
▁좋아한	-15697
▁주다니	-15698
▁주말의	-15699
▁주연인	-15700
▁중심이	-15701
▁지망생	-15702
▁지켜라	-15703
▁지키는	-15704
▁진심이	-15705
▁질린다	-15706
▁집어치	-15707
▁짜내기	-15708
▁차분한	-15709
▁찾으러	-15710
▁천국의	-15711
▁최강희	-15712
▁카펜터	-15713
▁케미가	-15714
▁코믹과	-15715
▁크네요	-15716
▁터진다	-15717
▁테일러	-15718
▁파리의	-15719
▁파이널	-15720
▁표정과	-15721
▁풍경과	-15722
▁피어스	-15723
▁필요할	-15724
▁하나인	-15725
▁하더만	-15726
▁하우스	-15727
▁하자면	-15728
▁한참을	-15729
▁합니까	-15730
▁해운대	-15731
▁해피앤	-15732
▁햇지만	-15733
▁허우적	-15734
▁흉내내	-15735
▁흘렀다	-15736
▁흘리는	-15737
▁히틀러	-15738
점짜리는	-15739
티비에서	-15740
편보다는	-15741
?....	-15742
▁감독이랑	-15743
▁감사해요	-15744
▁감상하는	-15745
▁고양이가	-15746
▁공감되지	-15747
▁공감하고	-15748
▁관객들은	-15749
▁국가대표	-15750
▁그림체가	-15751
▁극장판을	-15752
▁기독교인	-15753
▁기승전결	-15754
▁깜짝깜짝	-15755
▁깨달음을	-15756
▁꼬박꼬박	-15757
▁끝나고도	-15758
▁끝냈어야	-15759
▁끼치도록	-15760
▁나오나요	-15761
▁남우주연	-15762
▁내용들이	-15763
▁내용이야	-15764
▁넘쳐나는	-15765
▁누구인지	-15766
▁늘어진다	-15767
▁독특하게	-15768
▁드러내는	-15769
▁따뜻함이	-15770
▁따라가지	-15771
▁때문인가	-15772
▁떨어지지	-15773
▁레즈비언	-15774
▁막장이다	-15775
▁멍청하고	-15776
▁모르겠어	-15777
▁못했는데	-15778
▁무지하게	-15779
▁미래에서	-15780
▁밀려온다	-15781
▁밋밋하다	-15782
▁반전으로	-15783
▁배우인데	-15784
▁보여주기	-15785
▁보여주면	-15786
▁부실하고	-15787
▁불친절한	-15788
▁불쾌하다	-15789
▁비극적인	-15790
▁사라졌다	-15791
▁사이프리	-15792
▁살아나는	-15793
▁생겼는데	-15794
▁샤를리즈	-15795
▁서바이벌	-15796
▁선정적인	-15797
▁성지순례	-15798
▁섹시하다	-15799
▁순수했던	-15800
▁스크린에	-15801
▁스토리상	-15802
▁스펙터클	-15803
▁시시하고	-15804
▁신비롭고	-15805
▁신선함이	-15806
▁아니었나	-15807
▁아련하다	-15808
▁아포칼립	-15809
▁아프지만	-15810
▁알았으면	-15811
▁약하지만	-15812
▁어울려요	-15813
▁어지럽고	-15814
▁언제부터	-15815
▁없을까요	-15816
▁영화들에	-15817
▁영화들의	-15818
▁영화음악	-15819
▁영화이고	-15820
▁예상대로	-15821
▁오랜만인	-15822
▁웃기지만	-15823
▁윌리스가	-15824
▁윌스미스	-15825
▁유덕화가	-15826
▁의미에서	-15827
▁이루어진	-15828
▁이연걸의	-15829
▁이제부터	-15830
▁일상적인	-15831
▁잘했다는	-15832
▁장면부터	-15833
▁전까지는	-15834
▁전작보다	-15835
▁전해주는	-15836
▁정신없이	-15837
▁제외하고	-15838
▁제작진의	-15839
▁좋겟네요	-15840
▁주윤발의	-15841
▁주인공에	-15842
▁중간까지	-15843
▁지났는데	-15844
▁지저분한	-15845
▁참신하다	-15846
▁찾아보는	-15847
▁처음인데	-15848
▁출연진에	-15849
▁캐스팅한	-15850
▁코미디와	-15851
▁팬입니다	-15852
▁포기하고	-15853
▁표합니다	-15854
▁하나님의	-15855
▁한마디만	-15856
▁황당하고	-15857
▁후속작이	-15858
▁흔들리는	-15859
▁힘들었음	-15860
??????	-15861
▁감동이었다	-15862
▁강추입니다	-15863
▁결정적으로	-15864
▁괜찮았지만	-15865
▁그립습니다	-15866
▁나았습니다	-15867
▁대체적으로	-15868
▁드라마틱한	-15869
▁명작이라는	-15870
▁배우들에게	-15871
▁상식적으로	-15872
▁스크린에서	-15873
▁아니잖아요	-15874
▁아름다움과	-15875
▁양심적으로	-15876
▁에니메이션	-15877
▁영화감독이	-15878
▁영화인가요	-15879
▁영화평론가	-15880
▁작품이라니	-15881
▁재미없더라	-15882
▁재미없었다	-15883
▁저예산으로	-15884
▁주인공들은	-15885
▁출연했다는	-15886
▁충격적이고	-15887
▁캐릭터들은	-15888
▁타임용으로	-15889
▁하나만으로	-15890
▁훌륭합니다	-15891
▁부자연스러운	-15892
▁현실적이어서	-15893
!!!!!!!!!!	-15894
!!!!!!!!!!!!	-15895
DB	-15896
GM	-15897
UT	-15898
ho	-15899
ia	-15900
▁갚	-15901
▁깽	-15902
▁꺅	-15903
▁꿰	-15904
▁냥	-15905
▁넹	-15906
▁뎈	-15907
▁됏	-15908
▁둠	-15909
▁렉	-15910
▁렌	-15911
▁빽	-15912
▁뺴	-15913
▁샐	-15914
▁쑈	-15915
▁욧	-15916
▁젬	-15917
▁짖	-15918
▁층	-15919
▁캔	-15920
▁큽	-15921
▁폄	-15922
▁힌	-15923
가장	-15924
경찰	-15925
고가	-15926
고기	-15927
고와	-15928
공을	-15929
교를	-15930
남자	-15931
녀는	-15932
녀를	-15933
노라	-15934
노바	-15935
누가	-15936
니오	-15937
달콩	-15938
대장	-15939
덕이	-15940
데스	-15941
동네	-15942
되기	-15943
랄라	-15944
람쥐	-15945
러가	-15946
러기	-15947
러움	-15948
레의	-15949
렸고	-15950
로소	-15951
류에	-15952
마부	-15953
멜로	-15954
모도	-15955
미친	-15956
박스	-15957
박자	-15958
벌레	-15959
법을	-15960
보를	-15961
봤을	-15962
분간	-15963
불패	-15964
비도	-15965
비와	-15966
사기	-15967
사실	-15968
상식	-15969
새가	-15970
생크	-15971
서먼	-15972
세지	-15973
소니	-15974
소사	-15975
소에	-15976
시한	-15977
아쉽	-15978
안이	-15979
야야	-15980
양이	-15981
어에	-15982
엇던	-15983
엇을	-15984
열에	-15985
오의	-15986
왠지	-15987
용을	-15988
워야	-15989
을지	-15990
이소	-15991
자랑	-15992
잭맨	-15993
적일	-15994
전개	-15995
전혀	-15996
졸라	-15997
좋은	-15998
주길	-15999
줬음	-16000
착한	-16001
채널	-16002
커녕	-16003
코는	-16004
태를	-16005
토를	-16006
통을	-16007
통이	-16008
투리	-16009
티의	-16010
퍼의	-16011
하단	-16012
하트	-16013
학대	-16014
한마	-16015
행이	-16016
현의	-16017
호를	-16018
호와	-16019
!!"	-16020
.,,	-16021
ect	-16022
ife	-16023
ock	-16024
▁33	-16025
▁48	-16026
▁84	-16027
▁85	-16028
▁NO	-16029
▁ar	-16030
▁sn	-16031
▁가위	-16032
▁간결	-16033
▁갇힌	-16034
▁감미	-16035
▁갔음	-16036
▁강성	-16037
▁거인	-16038
▁검술	-16039
▁겠다	-16040
▁겪은	-16041
▁결여	-16042
▁결핍	-16043
▁계기	-16044
▁고군	-16045
▁고든	-16046
▁고무	-16047
▁골랐	-16048
▁공략	-16049
▁광수	-16050
▁굴곡	-16051
▁굿잡	-16052
▁권총	-16053
▁그은	-16054
▁극적	-16055
▁기만	-16056
▁껀데	-16057
▁꾸는	-16058
▁꿈은	-16059
▁낚여	-16060
▁낮고	-16061
▁내기	-16062
▁넘길	-16063
▁넘멋	-16064
▁네임	-16065
▁년간	-16066
▁노랑	-16067
▁노린	-16068
▁노조	-16069
▁녹음	-16070
▁놓지	-16071
▁눈감	-16072
▁눈높	-16073
▁눈살	-16074
▁눈시	-16075
▁눈의	-16076
▁느림	-16077
▁늙고	-16078
▁다물	-16079
▁다임	-16080
▁달래	-16081
▁당해	-16082
▁대는	-16083
▁대륙	-16084
▁대성	-16085
▁돌프	-16086
▁동반	-16087
▁되죠	-16088
▁됬지	-16089
▁드려	-16090
▁들아	-16091
▁때랑	-16092
▁똥이	-16093
▁뜨거	-16094
▁뜻을	-16095
▁레니	-16096
▁레인	-16097
▁리버	-16098
▁링컨	-16099
▁마져	-16100
▁마침	-16101
▁막내	-16102
▁막혀	-16103
▁맞어	-16104
▁매기	-16105
▁매달	-16106
▁먹여	-16107
▁명연	-16108
▁몬가	-16109
▁무당	-16110
▁무법	-16111
▁무사	-16112
▁무장	-16113
▁문구	-16114
▁묻는	-16115
▁미성	-16116
▁바꼈	-16117
▁바뀔	-16118
▁바쁘	-16119
▁바퀴	-16120
▁박성	-16121
▁반은	-16122
▁밥을	-16123
▁방사	-16124
▁배끼	-16125
▁백성	-16126
▁베댓	-16127
▁벼운	-16128
▁보냈	-16129
▁복고	-16130
▁본성	-16131
▁부처	-16132
▁분류	-16133
▁분한	-16134
▁불리	-16135
▁불문	-16136
▁불신	-16137
▁비평	-16138
▁빠는	-16139
▁사촌	-16140
▁산뜻	-16141
▁생일	-16142
▁서기	-16143
▁성과	-16144
▁세금	-16145
▁세끼	-16146
▁세워	-16147
▁센세	-16148
▁소룡	-16149
▁송희	-16150
▁숀펜	-16151
▁수를	-16152
▁수잔	-16153
▁숨죽	-16154
▁스승	-16155
▁스웨	-16156
▁신나	-16157
▁신사	-16158
▁신을	-16159
▁실소	-16160
▁심쿵	-16161
▁심플	-16162
▁썼나	-16163
▁쏘고	-16164
▁아라	-16165
▁안개	-16166
▁안할	-16167
▁않기	-16168
▁알콩	-16169
▁양념	-16170
▁얘긴	-16171
▁억도	-16172
▁에라	-16173
▁여야	-16174
▁역동	-16175
▁엮어	-16176
▁열고	-16177
▁예나	-16178
▁예비	-16179
▁오게	-16180
▁오멘	-16181
▁오연	-16182
▁오케	-16183
▁오픈	-16184
▁올릴	-16185
▁요괴	-16186
▁울궈	-16187
▁웅얼	-16188
▁워터	-16189
▁유다	-16190
▁유우	-16191
▁유재	-16192
▁윤리	-16193
▁은희	-16194
▁이색	-16195
▁이진	-16196
▁인천	-16197
▁있슴	-16198
▁자국	-16199
▁자질	-16200
▁잤음	-16201
▁장엄	-16202
▁재림	-16203
▁전과	-16204
▁전용	-16205
▁전쯤	-16206
▁절벽	-16207
▁젊음	-16208
▁제대	-16209
▁제라	-16210
▁조셉	-16211
▁조진	-16212
▁주로	-16213
▁주름	-16214
▁줄어	-16215
▁중화	-16216
▁지고	-16217
▁진상	-16218
▁짓이	-16219
▁짜게	-16220
▁짜린	-16221
▁짜여	-16222
▁쪼금	-16223
▁차례	-16224
▁차리	-16225
▁차에	-16226
▁참된	-16227
▁처벌	-16228
▁천원	-16229
▁첨봄	-16230
▁추모	-16231
▁추악	-16232
▁출근	-16233
▁취권	-16234
▁친척	-16235
▁캐치	-16236
▁커트	-16237
▁컬러	-16238
▁킹왕	-16239
▁타겟	-16240
▁테마	-16241
▁토모	-16242
▁통일	-16243
▁투박	-16244
▁투입	-16245
▁투쟁	-16246
▁트로	-16247
▁특색	-16248
▁특성	-16249
▁특정	-16250
▁파렐	-16251
▁파커	-16252
▁팬텀	-16253
▁편지	-16254
▁평에	-16255
▁폭탄	-16256
▁퓨전	-16257
▁피에	-16258
▁할로	-16259
▁헬기	-16260
▁호주	-16261
▁혹성	-16262
▁홀리	-16263
▁홈즈	-16264
▁화제	-16265
▁회자	-16266
▁효주	-16267
▁휴대	-16268
▁흐를	-16269
▁흡혈	-16270
감독이	-16271
갑자기	-16272
같네요	-16273
겠더라	-16274
넨버그	-16275
다니엘	-16276
더럽게	-16277
되지도	-16278
드네요	-16279
드럽게	-16280
들과의	-16281
력으로	-16282
버렸네	-16283
보시길	-16284
봤더니	-16285
봤지만	-16286
분이면	-16287
선으로	-16288
세기에	-16289
시간은	-16290
시켰다	-16291
었으나	-16292
였어도	-16293
으니깐	-16294
익스피	-16295
자에게	-16296
적이게	-16297
적이긴	-16298
점이냐	-16299
점이야	-16300
제라블	-16301
지금은	-16302
지면서	-16303
지지가	-16304
질하는	-16305
쪽으로	-16306
친다는	-16307
칩니다	-16308
퀄리티	-16309
편이나	-16310
하려다	-16311
한테도	-16312
햇지만	-16313
!...	-16314
."""	-16315
1010	-16316
ally	-16317
▁3.1	-16318
▁810	-16319
▁You	-16320
▁가나다	-16321
▁각본에	-16322
▁간다는	-16323
▁감사한	-16324
▁감탄이	-16325
▁개그도	-16326
▁개쩌는	-16327
▁개쩐다	-16328
▁거꾸로	-16329
▁건지는	-16330
▁결말로	-16331
▁경찰을	-16332
▁공포에	-16333
▁과거와	-16334
▁곽지민	-16335
▁관계의	-16336
▁관심도	-16337
▁그리는	-16338
▁극으로	-16339
▁극한의	-16340
▁기념비	-16341
▁김고은	-16342
▁김동완	-16343
▁김민희	-16344
▁김소연	-16345
▁김윤석	-16346
▁김준호	-16347
▁깊었음	-16348
▁나가서	-16349
▁나더라	-16350
▁나서야	-16351
▁나아가	-16352
▁나와요	-16353
▁나이거	-16354
▁낙으로	-16355
▁남녀가	-16356
▁내세운	-16357
▁내일이	-16358
▁넘재미	-16359
▁넘치게	-16360
▁놀라서	-16361
▁높길래	-16362
▁높다고	-16363
▁놓았다	-16364
▁누구든	-16365
▁눈물과	-16366
▁느껴져	-16367
▁느끼며	-16368
▁느낌만	-16369
▁능력은	-16370
▁다음날	-16371
▁닮아서	-16372
▁답답할	-16373
▁대표적	-16374
▁도망가	-16375
▁돌고래	-16376
▁동물농	-16377
▁됐네요	-16378
▁됐지만	-16379
▁될까요	-16380
▁뒷모습	-16381
▁뚜렷한	-16382
▁로봇이	-16383
▁막장도	-16384
▁만했음	-16385
▁많아요	-16386
▁망했어	-16387
▁맞추자	-16388
▁맥그리	-16389
▁먹는다	-16390
▁먹어도	-16391
▁먹칠한	-16392
▁멕시코	-16393
▁명백한	-16394
▁못했을	-16395
▁무능한	-16396
▁무심코	-16397
▁무어의	-16398
▁문근영	-16399
▁문화의	-16400
▁문화적	-16401
▁뭐하고	-16402
▁뭐하러	-16403
▁미니언	-16404
▁바라지	-16405
▁박수칠	-16406
▁반했다	-16407
▁발버둥	-16408
▁방식은	-16409
▁베이컨	-16410
▁보고와	-16411
▁보는지	-16412
▁보세여	-16413
▁보셔야	-16414
▁보아서	-16415
▁보통의	-16416
▁부부의	-16417
▁불륜에	-16418
▁불륜은	-16419
▁불친절	-16420
▁비극이	-16421
▁비둘기	-16422
▁비롯한	-16423
▁비밀을	-16424
▁사로잡	-16425
▁사이비	-16426
▁산만함	-16427
▁삽입곡	-16428
▁상상이	-16429
▁상어가	-16430
▁상처가	-16431
▁생각했	-16432
▁생긴다	-16433
▁생명의	-16434
▁생활이	-16435
▁설정도	-16436
▁성동일	-16437
▁성숙한	-16438
▁소녀를	-16439
▁소오름	-16440
▁소재나	-16441
▁소재라	-16442
▁소중함	-16443
▁스머프	-16444
▁시네요	-16445
▁시작과	-16446
▁시절로	-16447
▁시켜서	-16448
▁신기함	-16449
▁신은경	-16450
▁실상은	-16451
▁실수를	-16452
▁싫으면	-16453
▁쒸레기	-16454
▁아끼는	-16455
▁아들도	-16456
▁아들은	-16457
▁아이엠	-16458
▁안목이	-16459
▁않는가	-16460
▁않으며	-16461
▁알바는	-16462
▁알바의	-16463
▁애기가	-16464
▁애들을	-16465
▁양심이	-16466
▁어렵지	-16467
▁어른을	-16468
▁얼굴과	-16469
▁얼굴로	-16470
▁엔딩을	-16471
▁여기는	-16472
▁여학생	-16473
▁역으로	-16474
▁연평해	-16475
▁영혼의	-16476
▁영화여	-16477
▁예상을	-16478
▁예술성	-16479
▁오션스	-16480
▁올라오	-16481
▁올리자	-16482
▁욕심을	-16483
▁용감한	-16484
▁용기에	-16485
▁웃긴데	-16486
▁웃었네	-16487
▁웃었던	-16488
▁위로를	-16489
▁유오성	-16490
▁유투브	-16491
▁유행어	-16492
▁윤은혜	-16493
▁이따위	-16494
▁이민기	-16495
▁이선균	-16496
▁이성재	-16497
▁이수근	-16498
▁이승기	-16499
▁이정재	-16500
▁이처럼	-16501
▁인가요	-16502
▁인생과	-16503
▁인생도	-16504
▁인정할	-16505
▁일관성	-16506
▁일부분	-16507
▁일으킨	-16508
▁임성한	-16509
▁입에서	-16510
▁잇어서	-16511
▁잇어요	-16512
▁있군요	-16513
▁있었어	-16514
▁자신에	-16515
▁자유와	-16516
▁작년에	-16517
▁잔인함	-16518
▁잔잔히	-16519
▁잘해야	-16520
▁장난도	-16521
▁장점을	-16522
▁전체적	-16523
▁절실히	-16524
▁정도만	-16525
▁정이건	-16526
▁정체성	-16527
▁제작사	-16528
▁주제의	-16529
▁주조연	-16530
▁죽여도	-16531
▁죽이기	-16532
▁중고딩	-16533
▁중국판	-16534
▁줬으면	-16535
▁지나고	-16536
▁지브리	-16537
▁지웠다	-16538
▁진솔한	-16539
▁진작에	-16540
▁찍었나	-16541
▁찍었다	-16542
▁채민서	-16543
▁책임감	-16544
▁초심을	-16545
▁추천한	-16546
▁코난은	-16547
▁클로이	-16548
▁타임머	-16549
▁티비서	-16550
▁파이터	-16551
▁팔년도	-16552
▁퍼지는	-16553
▁편견이	-16554
▁편이다	-16555
▁펼치는	-16556
▁폭력을	-16557
▁표한다	-16558
▁하기에	-16559
▁하나에	-16560
▁하다는	-16561
▁학예회	-16562
▁해줬다	-16563
▁핵꿀잼	-16564
▁했나요	-16565
▁허세만	-16566
▁형사가	-16567
▁흔하디	-16568
들에게도	-16569
배우들이	-16570
사아자차	-16571
시간짜리	-16572
이나네요	-16573
인들에게	-16574
적이어서	-16575
점이라는	-16576
하겠는데	-16577
하시네요	-16578
해줬으면	-16579
해지네요	-16580
...??	-16581
▁1970	-16582
▁감사하게	-16583
▁감안하면	-16584
▁거침없이	-16585
▁결정적인	-16586
▁고군분투	-16587
▁굿입니다	-16588
▁귀찮아서	-16589
▁그녀들의	-16590
▁그지없는	-16591
▁기본적인	-16592
▁끔찍하다	-16593
▁나왔다면	-16594
▁남동생의	-16595
▁낫습니다	-16596
▁낭비하지	-16597
▁너무한다	-16598
▁느꼈어요	-16599
▁늑대인간	-16600
▁다르다는	-16601
▁다이하드	-16602
▁다큐멘타	-16603
▁당하기만	-16604
▁대단했다	-16605
▁돋보였다	-16606
▁동성애를	-16607
▁됐습니다	-16608
▁되는구나	-16609
▁들어와서	-16610
▁딴식으로	-16611
▁떨어졌다	-16612
▁로맨스로	-16613
▁로맨스물	-16614
▁마무리도	-16615
▁만든다고	-16616
▁만들지마	-16617
▁만했는데	-16618
▁말해준다	-16619
▁망가지는	-16620
▁목적으로	-16621
▁몰랐네요	-16622
▁몰입하고	-16623
▁무서워요	-16624
▁무성영화	-16625
▁반성하게	-16626
▁배우들에	-16627
▁별로라고	-16628
▁병입니다	-16629
▁보여줬던	-16630
▁보이지도	-16631
▁봐왔지만	-16632
▁부드러운	-16633
▁분위기나	-16634
▁불쌍하게	-16635
▁불쾌하고	-16636
▁비주얼은	-16637
▁사람이다	-16638
▁사람이면	-16639
▁사랑스럽	-16640
▁산만하고	-16641
▁선택하는	-16642
▁세계에서	-16643
▁세련되고	-16644
▁소름돋는	-16645
▁소소하고	-16646
▁손가락에	-16647
▁수준이고	-16648
▁수준인데	-16649
▁스릴러에	-16650
▁스페이스	-16651
▁시작하고	-16652
▁시청률을	-16653
▁아니자나	-16654
▁아닐까요	-16655
▁아닙니까	-16656
▁아줌마가	-16657
▁안했는데	-16658
▁알콩달콩	-16659
▁애들이랑	-16660
▁어른들은	-16661
▁어른들의	-16662
▁어리석은	-16663
▁여러분들	-16664
▁연기하고	-16665
▁연예인들	-16666
▁연출력과	-16667
▁영원하라	-16668
▁영화로도	-16669
▁영화일까	-16670
▁영화화한	-16671
▁오마이갓	-16672
▁웃었네요	-16673
▁웃음밖에	-16674
▁원작이랑	-16675
▁위대함을	-16676
▁유명해서	-16677
▁유치함의	-16678
▁유치했다	-16679
▁이런저런	-16680
▁이야기인	-16681
▁이어지지	-16682
▁인생이란	-16683
▁일본인이	-16684
▁일으키는	-16685
▁일품이다	-16686
▁자리에서	-16687
▁작품들이	-16688
▁작품에서	-16689
▁작품이란	-16690
▁잘생겼다	-16691
▁장난이냐	-16692
▁장난치는	-16693
▁장면들은	-16694
▁정확하게	-16695
▁제작비로	-16696
▁제작진들	-16697
▁주변에서	-16698
▁주인공만	-16699
▁죽어가는	-16700
▁죽었는데	-16701
▁쥐어짜는	-16702
▁집착하는	-16703
▁찝찝하고	-16704
▁채플린의	-16705
▁초저예산	-16706
▁최악으로	-16707
▁추입니다	-16708
▁추천으로	-16709
▁측면에서	-16710
▁카메라로	-16711
▁캐스팅을	-16712
▁통쾌하고	-16713
▁파고드는	-16714
▁팬심으로	-16715
▁편이지만	-16716
▁평론가는	-16717
▁하시는데	-16718
▁화면으로	-16719
▁히스레저	-16720
▁힘들었을	-16721
적이면서도	-16722
▁감독이라는	-16723
▁관객들에게	-16724
▁느껴집니다	-16725
▁등장인물이	-16726
▁따뜻해지고	-16727
▁리얼리티가	-16728
▁말아주세요	-16729
▁매력적으로	-16730
▁명배우들의	-16731
▁배웠습니다	-16732
▁보여줬으면	-16733
▁사람이지만	-16734
▁생각해보니	-16735
▁스릴러라고	-16736
▁스토리까지	-16737
▁아이디어는	-16738
▁안타까웠다	-16739
▁않겠습니다	-16740
▁어울리지도	-16741
▁여배우들의	-16742
▁영화였구나	-16743
▁작품이네요	-16744
▁작품이었다	-16745
▁젊은이들의	-16746
▁제외하고는	-16747
▁죄송합니다	-16748
▁초등학생이	-16749
▁최악이었음	-16750
▁크로넨버그	-16751
▁감동적이었고	-16752
▁기대했었는데	-16753
▁대한민국에서	-16754
▁만들어졌다는	-16755
▁부탁드립니다	-16756
▁1234567	-16757
14	-16758
cc	-16759
na	-16760
ol	-16761
os	-16762
ri	-16763
up	-16764
us	-16765
wo	-16766
ye	-16767
▁꺾	-16768
▁꾼	-16769
▁뇬	-16770
▁댐	-16771
▁댔	-16772
▁듀	-16773
▁떤	-16774
▁랏	-16775
▁론	-16776
▁멎	-16777
▁뱅	-16778
▁뵈	-16779
▁뺐	-16780
▁쇠	-16781
▁옜	-16782
▁좃	-16783
▁콕	-16784
▁퍽	-16785
▁햐	-16786
▁횟	-16787
▁훤	-16788
▁휠	-16789
값이	-16790
겁다	-16791
겄다	-16792
고만	-16793
광수	-16794
그가	-16795
극에	-16796
까는	-16797
나나	-16798
날에	-16799
다나	-16800
단을	-16801
담이	-16802
대소	-16803
대지	-16804
독립	-16805
됐음	-16806
되나	-16807
라클	-16808
러의	-16809
런지	-16810
력의	-16811
로봇	-16812
루의	-16813
룩한	-16814
르륵	-16815
린이	-16816
말을	-16817
매일	-16818
머가	-16819
명박	-16820
모님	-16821
모호	-16822
몬드	-16823
무라	-16824
문을	-16825
문학	-16826
뭐라	-16827
뭐야	-16828
민족	-16829
배를	-16830
별한	-16831
보로	-16832
보리	-16833
볼려	-16834
브라	-16835
사이	-16836
새벽	-16837
석천	-16838
설수	-16839
성형	-16840
세로	-16841
세를	-16842
수리	-16843
수와	-16844
술이	-16845
스랑	-16846
실에	-16847
싶다	-16848
아를	-16849
안나	-16850
양은	-16851
어져	-16852
없네	-16853
엉망	-16854
오지	-16855
왠만	-16856
외로	-16857
용한	-16858
우를	-16859
우며	-16860
으으	-16861
이치	-16862
인드	-16863
인트	-16864
일체	-16865
장구	-16866
점임	-16867
점점	-16868
정훈	-16869
조리	-16870
좀비	-16871
종을	-16872
주년	-16873
질팡	-16874
차고	-16875
찬이	-16876
천국	-16877
체류	-16878
치로	-16879
치에	-16880
코믹	-16881
크에	-16882
키드	-16883
타고	-16884
테랑	-16885
텐츠	-16886
특집	-16887
튼의	-16888
티나	-16889
파리	-16890
포스	-16891
표가	-16892
학적	-16893
해줄	-16894
현경	-16895
혔다	-16896
확인	-16897
회를	-16898
흔한	-16899
ade	-16900
ith	-16901
ive	-16902
way	-16903
▁68	-16904
▁CS	-16905
▁SN	-16906
▁al	-16907
▁bc	-16908
▁se	-16909
▁sp	-16910
▁us	-16911
▁we	-16912
▁각종	-16913
▁갇혀	-16914
▁갈팡	-16915
▁감추	-16916
▁갖지	-16917
▁같군	-16918
▁개못	-16919
▁개쩔	-16920
▁거래	-16921
▁거요	-16922
▁경고	-16923
▁경비	-16924
▁경쾌	-16925
▁경향	-16926
▁고사	-16927
▁곤란	-16928
▁골드	-16929
▁곳을	-16930
▁공리	-16931
▁공백	-16932
▁관념	-16933
▁교감	-16934
▁구리	-16935
▁구속	-16936
▁구식	-16937
▁권투	-16938
▁극우	-16939
▁기여	-16940
▁길에	-16941
▁김용	-16942
▁깜빡	-16943
▁깨는	-16944
▁꼬아	-16945
▁꽥꽥	-16946
▁나두	-16947
▁나치	-16948
▁나탈	-16949
▁난도	-16950
▁남겼	-16951
▁냉소	-16952
▁너므	-16953
▁널리	-16954
▁노릇	-16955
▁노리	-16956
▁누르	-16957
▁눈깔	-16958
▁느님	-16959
▁단호	-16960
▁닭살	-16961
▁담당	-16962
▁담을	-16963
▁대견	-16964
▁대명	-16965
▁대포	-16966
▁던질	-16967
▁덤덤	-16968
▁데는	-16969
▁뎁이	-16970
▁도통	-16971
▁독고	-16972
▁독보	-16973
▁돌란	-16974
▁돌릴	-16975
▁되가	-16976
▁뒤를	-16977
▁딴건	-16978
▁때라	-16979
▁때를	-16980
▁때에	-16981
▁떠는	-16982
▁로보	-16983
▁로케	-16984
▁루카	-16985
▁리네	-16986
▁리턴	-16987
▁릴리	-16988
▁마징	-16989
▁말과	-16990
▁말다	-16991
▁망정	-16992
▁매길	-16993
▁맥주	-16994
▁면제	-16995
▁무라	-16996
▁문식	-16997
▁묻은	-16998
▁물음	-16999
▁뮤비	-17000
▁미카	-17001
▁미켈	-17002
▁민아	-17003
▁바닷	-17004
▁바티	-17005
▁박근	-17006
▁박세	-17007
▁발라	-17008
▁발정	-17009
▁밤새	-17010
▁밤이	-17011
▁방화	-17012
▁백퍼	-17013
▁벌고	-17014
▁벗기	-17015
▁베꼈	-17016
▁벨루	-17017
▁별도	-17018
▁보드	-17019
▁본래	-17020
▁봐선	-17021
▁부대	-17022
▁부도	-17023
▁부들	-17024
▁불렀	-17025
▁불을	-17026
▁불평	-17027
▁브금	-17028
▁블레	-17029
▁빡침	-17030
▁뿌린	-17031
▁사뭇	-17032
▁사미	-17033
▁사바	-17034
▁사와	-17035
▁산업	-17036
▁살면	-17037
▁살펴	-17038
▁상속	-17039
▁성은	-17040
▁소릴	-17041
▁솜씨	-17042
▁송일	-17043
▁수긍	-17044
▁수수	-17045
▁순식	-17046
▁시계	-17047
▁시사	-17048
▁시에	-17049
▁신랑	-17050
▁심정	-17051
▁십자	-17052
▁싶당	-17053
▁싶진	-17054
▁싸인	-17055
▁써먹	-17056
▁썸머	-17057
▁쓰기	-17058
▁쓰네	-17059
▁쓰라	-17060
▁씨발	-17061
▁씬을	-17062
▁아껴	-17063
▁아네	-17064
▁아부	-17065
▁아서	-17066
▁아슬	-17067
▁아싸	-17068
▁악령	-17069
▁애뜻	-17070
▁애처	-17071
▁어필	-17072
▁없슴	-17073
▁옆집	-17074
▁예슬	-17075
▁오광	-17076
▁오후	-17077
▁요거	-17078
▁요세	-17079
▁요청	-17080
▁욕은	-17081
▁용이	-17082
▁우상	-17083
▁우유	-17084
▁운다	-17085
▁울지	-17086
▁웃겻	-17087
▁위의	-17088
▁이길	-17089
▁이블	-17090
▁이쯤	-17091
▁일까	-17092
▁일진	-17093
▁읽지	-17094
▁입맛	-17095
▁자란	-17096
▁자칭	-17097
▁자화	-17098
▁잠자	-17099
▁잡힌	-17100
▁장교	-17101
▁잼씀	-17102
▁잼잼	-17103
▁저걸	-17104
▁저랬	-17105
▁적게	-17106
▁전주	-17107
▁전후	-17108
▁절실	-17109
▁정교	-17110
▁정녕	-17111
▁정식	-17112
▁정크	-17113
▁조격	-17114
▁조종	-17115
▁종족	-17116
▁지향	-17117
▁진중	-17118
▁짓밟	-17119
▁짝짝	-17120
▁쪽팔	-17121
▁쫄딱	-17122
▁찍으	-17123
▁책의	-17124
▁쳐맞	-17125
▁추는	-17126
▁충돌	-17127
▁카우	-17128
▁컸던	-17129
▁코폴	-17130
▁콜라	-17131
▁콩콩	-17132
▁크림	-17133
▁클릭	-17134
▁킹콩	-17135
▁탈북	-17136
▁태평	-17137
▁테크	-17138
▁템포	-17139
▁토토	-17140
▁톡톡	-17141
▁톰과	-17142
▁통제	-17143
▁투척	-17144
▁트레	-17145
▁특촬	-17146
▁틀리	-17147
▁티나	-17148
▁편승	-17149
▁포근	-17150
▁폭격	-17151
▁폭소	-17152
▁표방	-17153
▁프란	-17154
▁피닉	-17155
▁하류	-17156
▁하의	-17157
▁한들	-17158
▁한복	-17159
▁한쿡	-17160
▁할매	-17161
▁해냈	-17162
▁해봐	-17163
▁헌신	-17164
▁호모	-17165
▁혼합	-17166
▁홍련	-17167
▁화딱	-17168
▁황후	-17169
▁훗날	-17170
▁휘둘	-17171
▁흐믓	-17172
▁희열	-17173
게다가	-17174
겠구나	-17175
그것도	-17176
그래픽	-17177
나이더	-17178
는지를	-17179
다니고	-17180
됐으면	-17181
드리고	-17182
랜드의	-17183
면에서	-17184
몰입도	-17185
버리면	-17186
부에서	-17187
뿐더러	-17188
쁩니다	-17189
소리만	-17190
스파이	-17191
시간의	-17192
시청률	-17193
앗는데	-17194
어주는	-17195
영화다	-17196
이니깐	-17197
이라며	-17198
이어서	-17199
일지도	-17200
자라는	-17201
재밋음	-17202
전으로	-17203
점대의	-17204
줄거리	-17205
중간에	-17206
줬는데	-17207
지루한	-17208
지마라	-17209
페이지	-17210
했으며	-17211
.,..	-17212
...'	-17213
▁150	-17214
▁7.8	-17215
▁BGM	-17216
▁REC	-17217
▁가끔은	-17218
▁갈등이	-17219
▁감기로	-17220
▁감성팔	-17221
▁감정들	-17222
▁강소라	-17223
▁강우석	-17224
▁개고생	-17225
▁개그가	-17226
▁거니까	-17227
▁것부터	-17228
▁겨울에	-17229
▁결혼한	-17230
▁경악을	-17231
▁고리타	-17232
▁고통과	-17233
▁곱씹어	-17234
▁과감한	-17235
▁과도한	-17236
▁구성을	-17237
▁구지성	-17238
▁군대를	-17239
▁굿닥터	-17240
▁궁금할	-17241
▁그것뿐	-17242
▁그놈의	-17243
▁그때가	-17244
▁그랬던	-17245
▁극단적	-17246
▁기다릴	-17247
▁기대됨	-17248
▁기타노	-17249
▁길지만	-17250
▁김대중	-17251
▁김수미	-17252
▁김승우	-17253
▁까지는	-17254
▁꼬꼬마	-17255
▁끊기고	-17256
▁끌어서	-17257
▁끝내라	-17258
▁끼쳤다	-17259
▁끼치게	-17260
▁날렸다	-17261
▁남매의	-17262
▁남상미	-17263
▁남자도	-17264
▁남주의	-17265
▁낮다니	-17266
▁넘기는	-17267
▁넘사벽	-17268
▁놓치고	-17269
▁눈물나	-17270
▁늙어서	-17271
▁다루고	-17272
▁다이아	-17273
▁다케시	-17274
▁달리고	-17275
▁당했다	-17276
▁대하고	-17277
▁댓글도	-17278
▁더러움	-17279
▁더빙한	-17280
▁덥잖은	-17281
▁돌이켜	-17282
▁동물의	-17283
▁되가는	-17284
▁됬지만	-17285
▁뒤통수	-17286
▁뒷통수	-17287
▁딸리는	-17288
▁떠나고	-17289
▁라이프	-17290
▁리처드	-17291
▁마루요	-17292
▁마시오	-17293
▁만한데	-17294
▁말로는	-17295
▁말리고	-17296
▁맛으로	-17297
▁맞는데	-17298
▁먹으면	-17299
▁먹히는	-17300
▁멍하니	-17301
▁멜로의	-17302
▁목적을	-17303
▁무너뜨	-17304
▁물가물	-17305
▁뭐냐고	-17306
▁뭐든지	-17307
▁미국을	-17308
▁미래에	-17309
▁미모는	-17310
▁미사일	-17311
▁미화가	-17312
▁믿음이	-17313
▁바가지	-17314
▁박정희	-17315
▁반영한	-17316
▁반전만	-17317
▁발상이	-17318
▁방법을	-17319
▁방송이	-17320
▁벗어날	-17321
▁베일의	-17322
▁별개로	-17323
▁보기만	-17324
▁보였음	-17325
▁보이냐	-17326
▁보지는	-17327
▁복수의	-17328
▁부하고	-17329
▁북한이	-17330
▁브리짓	-17331
▁블러드	-17332
▁비오는	-17333
▁비운의	-17334
▁빌려본	-17335
▁빠져든	-17336
▁빠지면	-17337
▁빼놓을	-17338
▁사극을	-17339
▁사이트	-17340
▁사진을	-17341
▁살아온	-17342
▁삶이란	-17343
▁삼총사	-17344
▁상대로	-17345
▁상업적	-17346
▁상영을	-17347
▁상태가	-17348
▁상해서	-17349
▁색감과	-17350
▁생각엔	-17351
▁생겼음	-17352
▁생기면	-17353
▁생뚱맞	-17354
▁생명을	-17355
▁생방송	-17356
▁성범죄	-17357
▁세계로	-17358
▁세상엔	-17359
▁소녀는	-17360
▁소박한	-17361
▁소재인	-17362
▁소중히	-17363
▁손잡고	-17364
▁송중기	-17365
▁쇼생크	-17366
▁스러운	-17367
▁시원찮	-17368
▁시작을	-17369
▁시점에	-17370
▁시한부	-17371
▁실력도	-17372
▁실망도	-17373
▁실적인	-17374
▁실화라	-17375
▁싫었다	-17376
▁싶은지	-17377
▁싸가지	-17378
▁쓰는지	-17379
▁아깝군	-17380
▁않기를	-17381
▁않다고	-17382
▁알렉산	-17383
▁알아듣	-17384
▁앞뒤도	-17385
▁애들만	-17386
▁애썼다	-17387
▁야구를	-17388
▁언젠간	-17389
▁없다니	-17390
▁없었어	-17391
▁엔딩에	-17392
▁여기선	-17393
▁여성을	-17394
▁여자분	-17395
▁여주도	-17396
▁연상케	-17397
▁열받아	-17398
▁영감을	-17399
▁영국식	-17400
▁예쁜데	-17401
▁예상이	-17402
▁예수님	-17403
▁오묘한	-17404
▁오빠가	-17405
▁온몸에	-17406
▁온전히	-17407
▁올드만	-17408
▁올해의	-17409
▁왔으면	-17410
▁왕짜증	-17411
▁요리를	-17412
▁욕밖에	-17413
▁우아한	-17414
▁우에노	-17415
▁우주에	-17416
▁울기도	-17417
▁월요일	-17418
▁윌리암	-17419
▁유동근	-17420
▁으리가	-17421
▁은은한	-17422
▁의리로	-17423
▁이동진	-17424
▁이루지	-17425
▁이어가	-17426
▁이해한	-17427
▁인기를	-17428
▁있기를	-17429
▁있었군	-17430
▁작가와	-17431
▁잘해주	-17432
▁잡아서	-17433
▁장동민	-17434
▁장만옥	-17435
▁전편과	-17436
▁전형적	-17437
▁점수도	-17438
▁정신분	-17439
▁정신차	-17440
▁정점을	-17441
▁조합이	-17442
▁조화를	-17443
▁주려는	-17444
▁중국산	-17445
▁중국은	-17446
▁지린다	-17447
▁지지부	-17448
▁지켜야	-17449
▁질문을	-17450
▁집으로	-17451
▁짜증난	-17452
▁찍었냐	-17453
▁찡하다	-17454
▁차려라	-17455
▁찾아야	-17456
▁책임을	-17457
▁최곤데	-17458
▁추격전	-17459
▁취향의	-17460
▁치닫는	-17461
▁친구도	-17462
▁친일파	-17463
▁카지노	-17464
▁커플의	-17465
▁키스신	-17466
▁키우고	-17467
▁키우는	-17468
▁태어났	-17469
▁터져서	-17470
▁팔아서	-17471
▁퍼시픽	-17472
▁프로파	-17473
▁필름을	-17474
▁필요하	-17475
▁하구나	-17476
▁하시네	-17477
▁해안감	-17478
▁해줘야	-17479
▁행복이	-17480
▁형님의	-17481
▁형식의	-17482
▁호랑이	-17483
▁홍경인	-17484
▁화나서	-17485
▁화면과	-17486
▁황정음	-17487
▁황홀한	-17488
▁효과는	-17489
▁효과를	-17490
▁후하다	-17491
▁흐름에	-17492
▁희망은	-17493
▁힐러리	-17494
다가스카	-17495
아아아아	-17496
었더라면	-17497
으로서의	-17498
점대인지	-17499
주인공이	-17500
지루하다	-17501
하겠는가	-17502
▁that	-17503
▁가족영화	-17504
▁갈팡질팡	-17505
▁감동이나	-17506
▁감상하고	-17507
▁공존하는	-17508
▁교통사고	-17509
▁국민학교	-17510
▁그녀에게	-17511
▁그들에게	-17512
▁그지없다	-17513
▁글로리아	-17514
▁기다리며	-17515
▁끝내주게	-17516
▁나가다가	-17517
▁나왔어도	-17518
▁나타나서	-17519
▁난잡하고	-17520
▁났습니다	-17521
▁낭비했다	-17522
▁내용까지	-17523
▁내용이다	-17524
▁내용이랑	-17525
▁냉정하게	-17526
▁놀랐어요	-17527
▁눈물까지	-17528
▁다르네요	-17529
▁대해서도	-17530
▁대화하는	-17531
▁되었는지	-17532
▁드니로의	-17533
▁떨어지게	-17534
▁뛰어나고	-17535
▁로맨스가	-17536
▁로맨틱한	-17537
▁만들거면	-17538
▁만들다가	-17539
▁만점짜리	-17540
▁만화책을	-17541
▁많습니다	-17542
▁말밖에는	-17543
▁말하는데	-17544
▁말하자면	-17545
▁망작이다	-17546
▁머하자는	-17547
▁먹먹하게	-17548
▁멍청하게	-17549
▁모른다는	-17550
▁못합니다	-17551
▁무한도전	-17552
▁문제지만	-17553
▁미치겠네	-17554
▁바이올린	-17555
▁받았어요	-17556
▁배틀로얄	-17557
▁별로에요	-17558
▁보고나니	-17559
▁보더라도	-17560
▁보여주려	-17561
▁부끄럽지	-17562
▁부모님께	-17563
▁부정적인	-17564
▁부족해서	-17565
▁불법체류	-17566
▁불쌍하네	-17567
▁불쾌했다	-17568
▁브로스넌	-17569
▁비교하는	-17570
▁비교해서	-17571
▁비하하는	-17572
▁사랑하지	-17573
▁살아보고	-17574
▁삼천포로	-17575
▁상상력과	-17576
▁상상력은	-17577
▁세계적인	-17578
▁소녀시대	-17579
▁송강호의	-17580
▁스케일은	-17581
▁스토리다	-17582
▁시작했다	-17583
▁실망했음	-17584
▁싫어진다	-17585
▁아니니까	-17586
▁아름다울	-17587
▁아이돌이	-17588
▁아일랜드	-17589
▁안주는데	-17590
▁안했지만	-17591
▁않겠지만	-17592
▁알바생들	-17593
▁앞으로는	-17594
▁액션마저	-17595
▁어디에서	-17596
▁어렴풋이	-17597
▁어머니가	-17598
▁어쩌자는	-17599
▁없어져야	-17600
▁엉망이고	-17601
▁엉성하게	-17602
▁엔딩에서	-17603
▁여배우는	-17604
▁연출력의	-17605
▁영화관이	-17606
▁영화만의	-17607
▁영화였고	-17608
▁영화치곤	-17609
▁예술적인	-17610
▁오페라의	-17611
▁올라가는	-17612
▁올리비아	-17613
▁울컥했다	-17614
▁윌리엄스	-17615
▁응원하고	-17616
▁이야기만	-17617
▁이제까지	-17618
▁인정하는	-17619
▁입장에선	-17620
▁있을지도	-17621
▁자신들의	-17622
▁자유로운	-17623
▁잘했다고	-17624
▁장난치나	-17625
▁장난치냐	-17626
▁재미라도	-17627
▁잼잇어요	-17628
▁정도인데	-17629
▁정상적인	-17630
▁정신으로	-17631
▁정신이상	-17632
▁좋았구요	-17633
▁중요성을	-17634
▁중요하지	-17635
▁중입니다	-17636
▁지루함은	-17637
▁지워지지	-17638
▁진정성이	-17639
▁찍었는지	-17640
▁찍으면서	-17641
▁책으로도	-17642
▁최고였고	-17643
▁치더라도	-17644
▁코미디인	-17645
▁크루즈의	-17646
▁투니버스	-17647
▁트라우마	-17648
▁페넬로페	-17649
▁포레스트	-17650
▁포르노를	-17651
▁프랑스의	-17652
▁하나라도	-17653
▁하지원의	-17654
▁한국에선	-17655
▁한국전쟁	-17656
▁함께하는	-17657
▁해줬으면	-17658
▁행복하고	-17659
▁허접하게	-17660
▁헤어지고	-17661
▁혹성탈출	-17662
▁황당하다	-17663
▁후레쉬맨	-17664
▁후회하는	-17665
▁훈훈하게	-17666
▁희망한다	-17667
▁힘들었던	-17668
▁극단적으로	-17669
▁깊었습니다	-17670
▁다시보기로	-17671
▁떨어뜨린다	-17672
▁떨어집니다	-17673
▁러닝타임이	-17674
▁만들어놨네	-17675
▁만들어지는	-17676
▁만족합니다	-17677
▁무서웠는데	-17678
▁보더라구요	-17679
▁비추입니다	-17680
▁빌려봤는데	-17681
▁소름끼치는	-17682
▁시나리오로	-17683
▁시나리오의	-17684
▁아니었다면	-17685
▁아니었지만	-17686
▁아쉬웠어요	-17687
▁아이덴티티	-17688
▁어린애들이	-17689
▁영화로서는	-17690
▁이기적이고	-17691
▁자랑스럽다	-17692
▁작품이지만	-17693
▁장면에서는	-17694
▁주인공에게	-17695
▁지금이라도	-17696
▁지루했는데	-17697
▁코미디라고	-17698
▁하나하나에	-17699
▁해리포터는	-17700
▁행복했어요	-17701
▁현실적이지	-17702
▁환상적이다	-17703
▁글래디에이터	-17704
▁다큐멘터리가	-17705
▁등장인물들의	-17706
▁만들어졌으면	-17707
▁만들었습니다	-17708
▁인상적이네요	-17709
▁크리스마스에	-17710
▁킬링타임으로	-17711
▁라마바사아자차	-17712
▁..........	-17713
!.	-17714
ER	-17715
au	-17716
de	-17717
ks	-17718
ma	-17719
▁갤	-17720
▁괞	-17721
▁깼	-17722
▁꼼	-17723
▁넉	-17724
▁넷	-17725
▁됀	-17726
▁됩	-17727
▁뒹	-17728
▁럭	-17729
▁붓	-17730
▁뷁	-17731
▁뿅	-17732
▁샴	-17733
▁얌	-17734
▁젓	-17735
▁쨩	-17736
▁쵸	-17737
▁텍	-17738
▁풉	-17739
▁홉	-17740
▁훑	-17741
가끔	-17742
가나	-17743
각을	-17744
갈이	-17745
거늘	-17746
거려	-17747
거임	-17748
경택	-17749
공대	-17750
구멍	-17751
국제	-17752
귀가	-17753
그것	-17754
그룹	-17755
글고	-17756
기들	-17757
기분	-17758
나머	-17759
날이	-17760
남는	-17761
남아	-17762
내라	-17763
넣기	-17764
네유	-17765
녀다	-17766
노무	-17767
니당	-17768
단순	-17769
단지	-17770
답지	-17771
당에	-17772
대본	-17773
대왕	-17774
더와	-17775
동화	-17776
되네	-17777
되며	-17778
드려	-17779
디컬	-17780
라며	-17781
레가	-17782
론을	-17783
루미	-17784
리슨	-17785
마와	-17786
면에	-17787
모메	-17788
미지	-17789
반의	-17790
배로	-17791
버트	-17792
베가	-17793
보드	-17794
불쌍	-17795
비로	-17796
사냥	-17797
사라	-17798
산의	-17799
산한	-17800
살아	-17801
살의	-17802
상블	-17803
상수	-17804
석을	-17805
선물	-17806
셔널	-17807
소수	-17808
신교	-17809
신선	-17810
실화	-17811
십쇼	-17812
안을	-17813
알바	-17814
았지	-17815
앤더	-17816
언이	-17817
엉성	-17818
엔탈	-17819
예전	-17820
오를	-17821
오스	-17822
우지	-17823
은데	-17824
인생	-17825
자한	-17826
잖어	-17827
쟈게	-17828
저는	-17829
전도	-17830
정씨	-17831
종이	-17832
좌왕	-17833
주니	-17834
지긋	-17835
지옥	-17836
차기	-17837
차를	-17838
착오	-17839
처음	-17840
철이	-17841
체능	-17842
최근	-17843
카와	-17844
컨대	-17845
코를	-17846
키고	-17847
킨스	-17848
타기	-17849
태의	-17850
터를	-17851
통에	-17852
패닝	-17853
팬이	-17854
픽션	-17855
하도	-17856
한숨	-17857
했냐	-17858
헤헤	-17859
현지	-17860
홍철	-17861
황당	-17862
히히	-17863
!..	-17864
ere	-17865
ess	-17866
low	-17867
▁31	-17868
▁5,	-17869
▁76	-17870
▁87	-17871
▁96	-17872
▁gg	-17873
▁ok	-17874
▁xx	-17875
▁가든	-17876
▁가벼	-17877
▁가스	-17878
▁가이	-17879
▁감고	-17880
▁강의	-17881
▁같구	-17882
▁개낚	-17883
▁개밥	-17884
▁개선	-17885
▁거시	-17886
▁걸쳐	-17887
▁걸친	-17888
▁것뿐	-17889
▁게시	-17890
▁견디	-17891
▁경호	-17892
▁계몽	-17893
▁고창	-17894
▁공무	-17895
▁공영	-17896
▁광대	-17897
▁구질	-17898
▁구한	-17899
▁굴러	-17900
▁굿이	-17901
▁그렌	-17902
▁그분	-17903
▁급작	-17904
▁기막	-17905
▁기운	-17906
▁기초	-17907
▁김새	-17908
▁김승	-17909
▁김청	-17910
▁김흥	-17911
▁깍는	-17912
▁깔고	-17913
▁꺼는	-17914
▁끝인	-17915
▁난이	-17916
▁낡은	-17917
▁낭패	-17918
▁네버	-17919
▁네오	-17920
▁놈놈	-17921
▁놈을	-17922
▁단단	-17923
▁단독	-17924
▁답게	-17925
▁대니	-17926
▁대전	-17927
▁더운	-17928
▁던진	-17929
▁독이	-17930
▁돈의	-17931
▁돋게	-17932
▁돌리	-17933
▁동성	-17934
▁동영	-17935
▁되며	-17936
▁되있	-17937
▁드럼	-17938
▁땀이	-17939
▁땅에	-17940
▁땅을	-17941
▁때리	-17942
▁때와	-17943
▁떡해	-17944
▁똥망	-17945
▁뜻밖	-17946
▁띄엄	-17947
▁롤러	-17948
▁루고	-17949
▁리듬	-17950
▁마나	-17951
▁마네	-17952
▁마더	-17953
▁만도	-17954
▁망칠	-17955
▁맞췄	-17956
▁매즈	-17957
▁머금	-17958
▁멘트	-17959
▁명만	-17960
▁목이	-17961
▁몸은	-17962
▁무용	-17963
▁무진	-17964
▁문자	-17965
▁묻힌	-17966
▁물러	-17967
▁물은	-17968
▁물의	-17969
▁미나	-17970
▁미생	-17971
▁미세	-17972
▁밀고	-17973
▁밉상	-17974
▁바도	-17975
▁바에	-17976
▁박고	-17977
▁박장	-17978
▁박하	-17979
▁반미	-17980
▁반을	-17981
▁반할	-17982
▁발광	-17983
▁발달	-17984
▁발매	-17985
▁방치	-17986
▁배고	-17987
▁배용	-17988
▁베플	-17989
▁볼륨	-17990
▁봣을	-17991
▁봤냐	-17992
▁부당	-17993
▁불협	-17994
▁블럭	-17995
▁비겁	-17996
▁비상	-17997
▁비용	-17998
▁빙의	-17999
▁뻣뻣	-18000
▁뿌듯	-18001
▁뿐이	-18002
▁사자	-18003
▁사족	-18004
▁살이	-18005
▁상기	-18006
▁상담	-18007
▁상위	-18008
▁상품	-18009
▁색이	-18010
▁색히	-18011
▁생산	-18012
▁샤크	-18013
▁서도	-18014
▁서툰	-18015
▁선진	-18016
▁세뇌	-18017
▁소란	-18018
▁소망	-18019
▁소모	-18020
▁소박	-18021
▁소송	-18022
▁수녀	-18023
▁수능	-18024
▁수잇	-18025
▁스멜	-18026
▁스폰	-18027
▁시러	-18028
▁식민	-18029
▁식인	-18030
▁실버	-18031
▁실타	-18032
▁심도	-18033
▁심판	-18034
▁심할	-18035
▁십분	-18036
▁쌓인	-18037
▁씬만	-18038
▁아랑	-18039
▁아려	-18040
▁아씨	-18041
▁아찔	-18042
▁아청	-18043
▁안가	-18044
▁안돼	-18045
▁않구	-18046
▁알맞	-18047
▁앓이	-18048
▁앤딩	-18049
▁야만	-18050
▁얕은	-18051
▁어르	-18052
▁어마	-18053
▁어머	-18054
▁얼렁	-18055
▁없긴	-18056
▁엇나	-18057
▁에바	-18058
▁여긴	-18059
▁여섯	-18060
▁연개	-18061
▁연민	-18062
▁열혈	-18063
▁예외	-18064
▁오달	-18065
▁온데	-18066
▁완결	-18067
▁외설	-18068
▁우수	-18069
▁워크	-18070
▁원스	-18071
▁원피	-18072
▁위원	-18073
▁유이	-18074
▁윤진	-18075
▁음미	-18076
▁의한	-18077
▁이와	-18078
▁이입	-18079
▁이주	-18080
▁일기	-18081
▁일지	-18082
▁일체	-18083
▁임요	-18084
▁있길	-18085
▁잊은	-18086
▁자서	-18087
▁작곡	-18088
▁잠도	-18089
▁장식	-18090
▁잼께	-18091
▁전직	-18092
▁절묘	-18093
▁점차	-18094
▁접해	-18095
▁정소	-18096
▁조음	-18097
▁조형	-18098
▁좋앙	-18099
▁주게	-18100
▁주다	-18101
▁주도	-18102
▁주된	-18103
▁주셨	-18104
▁죽도	-18105
▁줄여	-18106
▁진국	-18107
▁질린	-18108
▁짓고	-18109
▁짙게	-18110
▁짧다	-18111
▁쨋든	-18112
▁쩌러	-18113
▁쩔음	-18114
▁쬐끔	-18115
▁쯔쯔	-18116
▁찍냐	-18117
▁참가	-18118
▁참담	-18119
▁채로	-18120
▁천년	-18121
▁천장	-18122
▁천지	-18123
▁초짜	-18124
▁초한	-18125
▁추운	-18126
▁충동	-18127
▁치즈	-18128
▁친다	-18129
▁카이	-18130
▁칼을	-18131
▁콩은	-18132
▁퀴즈	-18133
▁키운	-18134
▁타케	-18135
▁탕웨	-18136
▁투성	-18137
▁툭툭	-18138
▁파라	-18139
▁패닝	-18140
▁편협	-18141
▁폐해	-18142
▁폭망	-18143
▁품에	-18144
▁하려	-18145
▁한창	-18146
▁해맑	-18147
▁해바	-18148
▁핵심	-18149
▁헨리	-18150
▁현주	-18151
▁홍길	-18152
▁화산	-18153
▁활극	-18154
▁흐미	-18155
▁흐트	-18156
▁흑형	-18157
▁히든	-18158
▁힘도	-18159
▁힘듦	-18160
감독님	-18161
거기다	-18162
극으로	-18163
기면서	-18164
기스칸	-18165
긴장감	-18166
끼리의	-18167
나온다	-18168
됐지만	-18169
되어서	-18170
되지만	-18171
들에겐	-18172
보지마	-18173
설수설	-18174
손가락	-18175
스트의	-18176
시켜서	-18177
어머니	-18178
엔딩이	-18179
오면서	-18180
왔는데	-18181
원으로	-18182
으리라	-18183
잔잔한	-18184
점까진	-18185
졌다고	-18186
주기도	-18187
지던트	-18188
차대전	-18189
최고다	-18190
콘서트	-18191
투성이	-18192
티시즘	-18193
페이스	-18194
프랑스	-18195
하던지	-18196
함이란	-18197
해준다	-18198
했더니	-18199
했었다	-18200
화까지	-18201
히어로	-18202
...3	-18203
▁196	-18204
▁4.5	-18205
▁8.8	-18206
▁But	-18207
▁OUT	-18208
▁Ost	-18209
▁가까워	-18210
▁가는지	-18211
▁가다가	-18212
▁가슴만	-18213
▁가해자	-18214
▁각본도	-18215
▁간절히	-18216
▁갈등을	-18217
▁감사를	-18218
▁감상한	-18219
▁감성은	-18220
▁감성의	-18221
▁강하고	-18222
▁강해서	-18223
▁갖추고	-18224
▁같애요	-18225
▁개같이	-18226
▁개구리	-18227
▁개그를	-18228
▁개노답	-18229
▁거리를	-18230
▁거잖아	-18231
▁거장이	-18232
▁거지로	-18233
▁거창한	-18234
▁건지도	-18235
▁것밖에	-18236
▁것이고	-18237
▁것인데	-18238
▁결혼에	-18239
▁고뇌와	-18240
▁골라서	-18241
▁곳으로	-18242
▁공부를	-18243
▁과감히	-18244
▁과거가	-18245
▁과하다	-18246
▁관계는	-18247
▁관계도	-18248
▁교육용	-18249
▁국가의	-18250
▁국민을	-18251
▁궁금증	-18252
▁귀신도	-18253
▁귀엽네	-18254
▁그렇듯	-18255
▁그리움	-18256
▁그에게	-18257
▁극장을	-18258
▁기다린	-18259
▁기본은	-18260
▁기본이	-18261
▁기분은	-18262
▁김규리	-18263
▁김대희	-18264
▁김원효	-18265
▁김정화	-18266
▁김지운	-18267
▁깜찍한	-18268
▁깨닫는	-18269
▁꺼라고	-18270
▁꺼져라	-18271
▁끌다가	-18272
▁끝나니	-18273
▁나갔다	-18274
▁나라도	-18275
▁나만의	-18276
▁나오죠	-18277
▁나탈리	-18278
▁날렸네	-18279
▁남겨진	-18280
▁남아도	-18281
▁남았을	-18282
▁남편을	-18283
▁낮춰야	-18284
▁내게는	-18285
▁내리고	-18286
▁노트북	-18287
▁논하지	-18288
▁놈들아	-18289
▁높은데	-18290
▁느슨한	-18291
▁니들도	-18292
▁다람쥐	-18293
▁다이빙	-18294
▁다코타	-18295
▁다행히	-18296
▁단점이	-18297
▁달린다	-18298
▁닮았다	-18299
▁담담한	-18300
▁닿았다	-18301
▁대본을	-18302
▁대체로	-18303
▁도중에	-18304
▁돌려서	-18305
▁돌리게	-18306
▁돌아서	-18307
▁되었네	-18308
▁되었음	-18309
▁됬어요	-18310
▁들어온	-18311
▁디지털	-18312
▁따라한	-18313
▁따위가	-18314
▁따지지	-18315
▁딸이랑	-18316
▁땡칠이	-18317
▁떠올랐	-18318
▁똑같아	-18319
▁라이토	-18320
▁라이트	-18321
▁로멘스	-18322
▁리부트	-18323
▁마음과	-18324
▁만났을	-18325
▁만들돈	-18326
▁만들엇	-18327
▁만족할	-18328
▁만화도	-18329
▁많으면	-18330
▁말들이	-18331
▁망설임	-18332
▁매기는	-18333
▁머저리	-18334
▁먹어야	-18335
▁메마른	-18336
▁멜로는	-18337
▁멜로도	-18338
▁명작의	-18339
▁모습들	-18340
▁모자랄	-18341
▁못해요	-18342
▁무겁지	-18343
▁무관심	-18344
▁무인도	-18345
▁무쟈게	-18346
▁문제의	-18347
▁민망할	-18348
▁바꿔야	-18349
▁바스코	-18350
▁박시환	-18351
▁박시후	-18352
▁박용우	-18353
▁박진희	-18354
▁밧는데	-18355
▁방송은	-18356
▁배역을	-18357
▁배우라	-18358
▁백프로	-18359
▁버무린	-18360
▁벌리고	-18361
▁베이커	-18362
▁베테랑	-18363
▁보람이	-18364
▁보시기	-18365
▁보았고	-18366
▁보였던	-18367
▁본능을	-18368
▁본성을	-18369
▁본질에	-18370
▁봐왔던	-18371
▁부모의	-18372
▁브라운	-18373
▁브레드	-18374
▁비극적	-18375
▁비로소	-18376
▁비우고	-18377
▁빠지다	-18378
▁빵점은	-18379
▁뻔해도	-18380
▁뻔했음	-18381
▁뿐더러	-18382
▁사극이	-18383
▁삶에서	-18384
▁상황은	-18385
▁새로움	-18386
▁새벽의	-18387
▁생각됨	-18388
▁생각들	-18389
▁생각뿐	-18390
▁샤이니	-18391
▁서세원	-18392
▁서태지	-18393
▁선택에	-18394
▁설정만	-18395
▁설정의	-18396
▁세대의	-18397
▁세월을	-18398
▁센스가	-18399
▁소년이	-18400
▁속도감	-18401
▁숭고한	-18402
▁스릴을	-18403
▁시작이	-18404
▁실화가	-18405
▁심리적	-18406
▁싶기도	-18407
▁쌍벽을	-18408
▁아내와	-18409
▁아무렇	-18410
▁아빠와	-18411
▁아이큐	-18412
▁아이템	-18413
▁아파트	-18414
▁악마를	-18415
▁안다고	-18416
▁않되는	-18417
▁알렉스	-18418
▁알바다	-18419
▁알바도	-18420
▁앙상블	-18421
▁앤드류	-18422
▁얘기도	-18423
▁어게인	-18424
▁어느덧	-18425
▁어떤지	-18426
▁어지럽	-18427
▁억남는	-18428
▁언어로	-18429
▁엑스파	-18430
▁여기가	-18431
▁여성이	-18432
▁여친이	-18433
▁역겨워	-18434
▁열받는	-18435
▁예뻤다	-18436
▁예상한	-18437
▁예술의	-18438
▁예체능	-18439
▁오스카	-18440
▁오정세	-18441
▁오컬트	-18442
▁옵니다	-18443
▁와이프	-18444
▁웃기도	-18445
▁유준상	-18446
▁의심이	-18447
▁이기심	-18448
▁이네요	-18449
▁이러고	-18450
▁이어지	-18451
▁인류의	-18452
▁인정한	-18453
▁일본어	-18454
▁읽는다	-18455
▁입장이	-18456
▁자극적	-18457
▁자꾸만	-18458
▁자다가	-18459
▁자들의	-18460
▁자르고	-18461
▁자연과	-18462
▁작가도	-18463
▁잔상이	-18464
▁잘못이	-18465
▁잠들어	-18466
▁재밌진	-18467
▁잭슨이	-18468
▁쟁쟁한	-18469
▁적당함	-18470
▁전우치	-18471
▁젊었을	-18472
▁점짜리	-18473
▁정보가	-18474
▁정신과	-18475
▁정의가	-18476
▁정치에	-18477
▁제이콥	-18478
▁조미료	-18479
▁조절이	-18480
▁조진웅	-18481
▁존스의	-18482
▁존재는	-18483
▁졸리다	-18484
▁졸음이	-18485
▁좋을까	-18486
▁주면서	-18487
▁주었던	-18488
▁주연급	-18489
▁죽음과	-18490
▁중년의	-18491
▁진리를	-18492
▁진부함	-18493
▁진행과	-18494
[...]
