<pad>	0
<unk>	0
<s>	0
</s>	0
▁.	-0
▁이	-1
▁는	-2
▁다	-3
▁영	-4
▁영화	-5
▁고	-6
▁하	-7
▁에	-8
▁가	-9
▁아	-10
▁지	-11
▁도	-12
▁의	-13
▁보	-14
▁한	-15
▁은	-16
▁을	-17
▁..	-18
▁어	-19
▁나	-20
▁그	-21
▁재	-22
▁!	-23
▁게	-24
▁만	-25
▁들	-26
▁,	-27
▁없	-28
▁인	-29
▁네	-30
▁기	-31
▁를	-32
▁있	-33
▁정	-34
▁?	-35
▁시	-36
▁으	-37
▁라	-38
▁사	-39
▁좋	-40
▁내	-41
▁해	-42
▁진	-43
▁스	-44
▁감	-45
▁거	-46
▁연	-47
▁너	-48
▁로	-49
니다	-50
▁었	-51
▁너무	-52
▁대	-53
▁주	-54
▁안	-55
▁재미	-56
▁수	-57
▁1	-58
▁음	-59
▁는데	-60
▁적	-61
▁봤	-62
▁최	-63
▁마	-64
▁면	-65
▁점	-66
▁정말	-67
▁전	-68
▁으로	-69
▁여	-70
▁같	-71
▁것	-72
▁더	-73
▁재밌	-74
▁네요	-75
▁했	-76
▁평	-77
▁자	-78
▁과	-79
▁연기	-80
▁진짜	-81
▁지만	-82
▁에서	-83
▁무	-84
▁생	-85
▁되	-86
▁모	-87
▁드	-88
▁...	-89
▁않	-90
▁았	-91
▁말	-92
▁던	-93
▁개	-94
▁때	-95
▁중	-96
▁잘	-97
▁오	-98
▁배	-99
▁부	-100
▁할	-101
▁제	-102
▁최고	-103
▁일	-104
▁와	-105
▁평점	-106
▁본	-107
▁남	-108
▁이런	-109
▁소	-110
▁생각	-111
▁어요	-112
▁미	-113
▁장	-114
▁못	-115
▁왜	-116
▁습	-117
▁겠	-118
▁작	-119
▁느	-120
▁스토	-121
▁듯	-122
▁스토리	-123
▁알	-124
▁습니다	-125
▁드라	-126
▁까	-127
▁함	-128
▁봐	-129
▁유	-130
▁비	-131
▁건	-132
▁볼	-133
▁드라마	-134
▁아니	-135
▁쓰	-136
▁싶	-137
▁2	-138
▁사람	-139
▁서	-140
▁구	-141
▁감동	-142
▁배우	-143
▁세	-144
▁우	-145
▁별	-146
▁니	-147
▁조	-148
▁성	-149
▁요	-150
▁보다	-151
▁까지	-152
▁많	-153
▁좀	-154
▁분	-155
▁지루	-156
▁애	-157
▁공	-158
▁뭐	-159
▁내용	-160
▁감독	-161
▁야	-162
▁만들	-163
▁처	-164
▁10	-165
▁그냥	-166
▁신	-167
▁바	-168
▁명	-169
▁역	-170
▁저	-171
▁상	-172
▁재미있	-173
▁시간	-174
▁완	-175
▁끝	-176
▁입	-177
▁웃	-178
▁였	-179
▁예	-180
▁잼	-181
▁년	-182
▁줄	-183
▁냐	-184
▁걸	-185
레기	-186
▁노	-187
▁반	-188
▁편	-189
▁!!	-190
▁쓰레기	-191
▁사랑	-192
▁번	-193
▁;	-194
▁참	-195
▁살	-196
▁하나	-197
▁된	-198
▁난	-199
▁실	-200
▁결	-201
▁3	-202
▁임	-203
▁원	-204
▁매	-205
▁라고	-206
▁다시	-207
▁눈	-208
▁불	-209
▁면서	-210
▁재미없	-211
▁나오	-212
..	-213
▁화	-214
▁넘	-215
▁코	-216
▁작품	-217
▁"	-218
렇게	-219
▁데	-220
▁해서	-221
▁추	-222
▁후	-223
▁액	-224
▁긴	-225
▁정도	-226
▁따	-227
지막	-228
▁액션	-229
▁마지막	-230
▁죽	-231
▁당	-232
▁짜	-233
▁이건	-234
▁으면	-235
▁완전	-236
▁위	-237
▁엔	-238
▁동	-239
▁입니다	-240
▁다는	-241
▁라는	-242
▁김	-243
▁현	-244
▁아깝	-245
▁두	-246
▁심	-247
▁그리	-248
▁버	-249
▁관	-250
▁처음	-251
▁장면	-252
▁극	-253
▁몰	-254
▁'	-255
▁지금	-256
▁또	-257
▁강	-258
▁길	-259
인공	-260
▁모르	-261
▁돈	-262
▁기대	-263
▁이렇게	-264
▁이야	-265
▁리	-266
▁허	-267
▁초	-268
▁최악	-269
▁멋	-270
▁다가	-271
▁합	-272
▁느낌	-273
▁이게	-274
▁한다	-275
▁괜	-276
▁차	-277
▁....	-278
▁준	-279
▁속	-280
▁한국	-281
▁이야기	-282
▁;;	-283
▁캐	-284
▁별로	-285
▁봐도	-286
▁박	-287
▁어서	-288
▁님	-289
▁그래	-290
▁발	-291
▁타	-292
▁인데	-293
▁연출	-294
▁아까	-295
▁아이	-296
▁다고	-297
▁려	-298
▁명작	-299
▁억	-300
▁받	-301
▁만든	-302
▁그리고	-303
▁역시	-304
▁O	-305
▁에게	-306
▁뭔	-307
▁막	-308
▁간	-309
▁짱	-310
▁단	-311
▁포	-312
▁많이	-313
▁잔	-314
▁주인공	-315
▁부터	-316
▁우리	-317
▁그런	-318
▁맞	-319
▁용	-320
▁여자	-321
▁합니다	-322
▁방	-323
▁선	-324
▁엄	-325
▁필	-326
▁치	-327
▁설	-328
▁괜찮	-329
▁특	-330
▁이나	-331
▁뻔	-332
▁는지	-333
▁아닌	-334
▁울	-335
▁귀	-336
▁빠	-337
▁표	-338
▁때문	-339
▁슬	-340
▁이상	-341
▁물	-342
▁꼭	-343
▁망	-344
▁먹	-345
▁보여	-346
▁아름	-347
▁며	-348
▁졸	-349
▁마음	-350
▁공포	-351
▁존	-352
▁누	-353
▁씨	-354
▁굿	-355
▁없이	-356
▁현실	-357
▁이해	-358
▁OO	-359
!!	-360
▁계	-361
▁무슨	-362
▁내내	-363
▁질	-364
▁유치	-365
▁군	-366
▁랑	-367
▁순	-368
▁결말	-369
▁남자	-370
▁4	-371
▁밋	-372
▁세요	-373
▁일본	-374
▁다른	-375
▁힘	-376
▁전개	-377
▁인생	-378
▁머	-379
▁소재	-380
▁아무	-381
▁낮	-382
▁아서	-383
▁집	-384
▁얼	-385
대로	-386
▁짜증	-387
▁다니	-388
▁뿐	-389
▁수준	-390
▁절	-391
▁은데	-392
▁5	-393
▁새	-394
▁파	-395
▁필요	-396
▁근	-397
▁답	-398
▁문	-399
▁높	-400
▁돌	-401
▁음악	-402
▁피	-403
▁스릴	-404
▁가장	-405
▁흥	-406
▁등	-407
▁급	-408
▁올	-409
▁기억	-410
▁눈물	-411
▁반전	-412
▁매력	-413
▁가슴	-414
▁달	-415
▁9	-416
▁대한	-417
▁인지	-418
▁외	-419
▁프	-420
▁20	-421
▁충	-422
▁원작	-423
▁레	-424
▁솔	-425
▁호	-426
▁인간	-427
▁친	-428
▁영상	-429
▁을까	-430
▁만드	-431
▁8	-432
▁아요	-433
▁날	-434
▁언	-435
▁극장	-436
▁찍	-437
▁나온	-438
▁형	-439
▁크	-440
▁경	-441
▁메	-442
▁몇	-443
▁인가	-444
▁코미	-445
▁갈	-446
▁7	-447
▁러	-448
▁솔직	-449
▁코미디	-450
▁욕	-451
▁찾	-452
▁0	-453
▁추천	-454
▁열	-455
▁모든	-456
▁밖	-457
▁글	-458
▁될	-459
▁행	-460
▁는다	-461
▁아직	-462
▁떨	-463
....	-464
▁처럼	-465
▁자체	-466
▁더라	-467
▁실망	-468
▁아름다	-469
▁캐릭	-470
▁란	-471
▁죠	-472
▁억지	-473
▁된다	-474
▁몰입	-475
▁출	-476
▁놓	-477
▁스럽	-478
▁케	-479
▁디	-480
▁티	-481
▁든	-482
▁판	-483
▁스러	-484
▁애니	-485
▁솔직히	-486
▁딱	-487
▁캐릭터	-488
▁뭔가	-489
▁아주	-490
▁놀	-491
지만	-492
▁교	-493
▁봐야	-494
▁모두	-495
▁가족	-496
▁다면	-497
▁카	-498
▁약	-499
▁건지	-500
▁시리	-501
▁여운	-502
▁전혀	-503
▁나라	-504
▁베	-505
▁중간	-506
▁연기력	-507
▁천	-508
▁국	-509
▁엉	-510
▁그래도	-511
▁손	-512
▁근데	-513
▁악	-514
▁독	-515
▁공감	-516
▁시리즈	-517
▁싸	-518
▁믿	-519
▁어떻	-520
▁긴장	-521
▁엄청	-522
▁표현	-523
▁모습	-524
▁깊	-525
▁그렇	-526
▁이거	-527
▁식	-528
▁계속	-529
▁떨어	-530
▁학	-531
▁개봉	-532
▁이랑	-533
▁이걸	-534
▁제목	-535
▁대단	-536
스터	-537
▁삼	-538
▁보이	-539
▁앞	-540
▁대사	-541
▁부분	-542
▁잡	-543
▁작가	-544
▁담	-545
▁타임	-546
▁어디	-547
▁터	-548
▁즐	-549
▁스릴러	-550
▁흥미	-551
▁아쉽	-552
거리	-553
▁해도	-554
▁그러	-555
▁류	-556
▁진심	-557
▁목	-558
▁막장	-559
▁대박	-560
▁싫	-561
▁나왔	-562
▁삶	-563
▁꺼	-564
▁씬	-565
▁정신	-566
▁친구	-567
▁잠	-568
▁이제	-569
▁나와	-570
▁잊	-571
▁조금	-572
▁해야	-573
▁빨	-574
▁여주	-575
▁같이	-576
▁요즘	-577
▁라도	-578
▁떠	-579
▁홍	-580
▁회	-581
▁개인	-582
▁통	-583
▁팬	-584
스트	-585
▁라면	-586
▁느껴	-587
▁뒤	-588
수록	-589
▁만큼	-590
▁긴장감	-591
▁노래	-592
▁가지	-593
▁제작	-594
▁부족	-595
▁구나	-596
▁6	-597
▁잇	-598
▁아쉬	-599
▁제대로	-600
▁빼	-601
▁시작	-602
▁어야	-603
▁이것	-604
▁시대	-605
▁각	-606
▁엔딩	-607
▁오랜	-608
▁특히	-609
▁복	-610
▁잔잔	-611
메이	-612
▁하지만	-613
▁산	-614
▁아름다운	-615
▁웃기	-616
▁갑	-617
▁제일	-618
▁스타	-619
▁딴	-620
▁기분	-621
▁만화	-622
▁양	-623
▁킬	-624
▁니까	-625
▁점수	-626
▁무서	-627
▁나름	-628
▁세상	-629
▁토	-630
▁려고	-631
▁브	-632
▁당시	-633
▁이유	-634
▁봣	-635
라리	-636
▁훌	-637
▁무섭	-638
▁한테	-639
▁아까운	-640
▁어떻게	-641
▁종	-642
▁미국	-643
▁??	-644
▁못하	-645
▁절대	-646
▁오랜만	-647
▁봄	-648
▁감정	-649
▁출연	-650
▁놈	-651
▁해요	-652
▁차라리	-653
▁끼	-654
▁위해	-655
▁병	-656
▁줘	-657
▁웃음	-658
▁변	-659
▁키	-660
▁!!!	-661
▁희	-662
리오	-663
▁황	-664
▁C	-665
▁테	-666
▁장난	-667
▁훌륭	-668
▁따뜻	-669
▁로맨	-670
▁됨	-671
▁너무나	-672
▁느끼	-673
▁탄	-674
▁답답	-675
▁마다	-676
▁첨	-677
▁전쟁	-678
▁맛	-679
▁어린	-680
▁민	-681
▁t	-682
▁준다	-683
▁OOO	-684
▁던데	-685
▁범	-686
▁뭘	-687
▁걍	-688
▁청	-689
▁채	-690
▁패	-691
▁수작	-692
▁무엇	-693
▁책	-694
▁확	-695
▁그저	-696
▁얼마	-697
▁클	-698
▁태	-699
▁시청	-700
▁깨	-701
▁돋	-702
▁둘	-703
▁투	-704
▁소리	-705
▁행복	-706
▁루	-707
▁어설	-708
리스	-709
▁트	-710
▁히	-711
▁얘	-712
▁설정	-713
▁언제	-714
▁흐	-715
▁라니	-716
▁엇	-717
▁왕	-718
▁끌	-719
▁B	-720
▁자신	-721
▁관객	-722
▁신선	-723
▁문제	-724
▁초반	-725
대체	-726
▁도대체	-727
▁환	-728
▁시절	-729
▁총	-730
▁다큐	-731
▁배경	-732
▁어도	-733
▁지나	-734
▁귀여	-735
▁b	-736
▁추억	-737
▁캐스	-738
▁오늘	-739
▁시나	-740
▁프로	-741
▁광	-742
▁백	-743
▁블	-744
▁옛	-745
▁;;;	-746
▁훨	-747
▁슬프	-748
▁캐스팅	-749
▁낚	-750
▁낭	-751
▁시나리오	-752
▁혼	-753
▁멋진	-754
▁궁	-755
▁맘	-756
▁소름	-757
▁헐	-758
▁못한	-759
▁사실	-760
▁운	-761
▁본다	-762
▁분위	-763
▁어색	-764
▁허접	-765
▁온	-766
▁분위기	-767
▁암	-768
▁나올	-769
▁따라	-770
▁커	-771
▁힘들	-772
▁킬링	-773
▁폭	-774
▁구성	-775
▁어떤	-776
▁봐서	-777
▁엄마	-778
▁의미	-779
▁큰	-780
▁괴	-781
▁졸작	-782
▁그만	-783
▁함께	-784
▁완벽	-785
▁뻔한	-786
▁스러운	-787
▁텐	-788
▁인상	-789
▁역사	-790
▁유쾌	-791
▁왠	-792
▁안타	-793
▁난다	-794
▁낫	-795
▁맨	-796
▁결국	-797
▁굳	-798
▁뛰	-799
▁o	-800
▁코믹	-801
▁포스터	-802
▁더니	-803
▁아무리	-804
▁꿈	-805
▁휴	-806
▁먼	-807
▁애니메이	-808
▁예술	-809
▁얼마나	-810
▁됐	-811
▁버리	-812
▁진정	-813
▁애니메이션	-814
▁나요	-815
▁영화관	-816
어나	-817
▁여기	-818
▁후회	-819
▁몸	-820
▁색	-821
!!!!	-822
세요	-823
▁들어	-824
▁대해	-825
▁어릴	-826
▁머리	-827
▁평가	-828
▁T	-829
▁오래	-830
▁........	-831
▁풀	-832
디오	-833
▁줬	-834
▁흘	-835
▁왔	-836
▁한데	-837
▁보단	-838
▁꼬	-839
▁취	-840
▁개연	-841
▁멋있	-842
▁주제	-843
▁빠져	-844
▁다운	-845
▁c	-846
▁충격	-847
▁금	-848
▁아름답	-849
▁건가	-850
▁텐데	-851
▁주연	-852
▁밖에	-853
진다	-854
▁써	-855
▁딸	-856
▁쳐	-857
▁돌아	-858
▁잔인	-859
▁돼	-860
▁얘기	-861
▁이름	-862
▁진부	-863
▁읽	-864
▁봐라	-865
▁갈수록	-866
▁매우	-867
▁어울	-868
▁얼굴	-869
▁위한	-870
▁나이	-871
▁여러	-872
▁:	-873
▁궁금	-874
▁이후	-875
▁s	-876
▁자기	-877
▁벌	-878
▁낭비	-879
▁불쌍	-880
▁겟	-881
▁철	-882
▁났	-883
▁어느	-884
▁꽤	-885
▁겨	-886
▁대체	-887
▁옛날	-888
▁으나	-889
▁제발	-890
▁동안	-891
▁비디오	-892
▁그나	-893
▁겁	-894
▁순수	-895
▁장르	-896
▁티비	-897
▁짓	-898
▁라서	-899
▁방송	-900
소리	-901
▁권	-902
▁숨	-903
▁충분	-904
▁사회	-905
▁그래서	-906
▁생각나	-907
▁아님	-908
▁다음	-909
▁집중	-910
▁세계	-911
▁30	-912
▁똥	-913
▁그렇게	-914
▁누구	-915
▁중국	-916
▁후반	-917
▁갔	-918
▁효	-919
▁상황	-920
▁감사	-921
▁시즌	-922
니까	-923
▁아야	-924
▁예전	-925
▁잖	-926
▁구만	-927
▁시키	-928
▁100	-929
▁별점	-930
당히	-931
▁햇	-932
▁CG	-933
▁죄	-934
이버	-935
▁떨어지	-936
oo	-937
▁꿀	-938
▁풍	-939
▁소설	-940
▁창	-941
▁흔	-942
▁좋아	-943
▁려는	-944
▁멜	-945
▁빵	-946
▁19	-947
▁비슷	-948
▁로맨스	-949
▁짐	-950
버지	-951
▁약간	-952
▁짜리	-953
▁마세요	-954
▁그나마	-955
▁팔	-956
▁나와서	-957
▁상상	-958
▁인물	-959
배우	-960
▁똑	-961
▁첫	-962
▁걸작	-963
▁그대로	-964
▁그것	-965
st	-966
▁누가	-967
▁g	-968
▁송	-969
▁강추	-970
▁실화	-971
▁갖	-972
▁능	-973
▁직	-974
▁순간	-975
▁훨씬	-976
▁S	-977
▁미친	-978
▁죽이	-979
▁끝나	-980
▁전체	-981
▁여주인공	-982
▁쓸	-983
▁워	-984
▁틀	-985
▁늘	-986
▁200	-987
▁귀엽	-988
▁해라	-989
▁더럽	-990
▁비교	-991
▁감성	-992
▁만점	-993
▁사이	-994
▁아들	-995
▁엉성	-996
▁초딩	-997
▁묘	-998
레이	-999
▁네이버	-1000
;;	-1001
▁섹	-1002
▁승	-1003
▁땜	-1004
▁""	-1005
▁법	-1006
▁혹	-1007
▁마이	-1008
▁이래	-1009
▁나온다	-1010
▁D	-1011
▁새로	-1012
▁훈	-1013
▁.....	-1014
▁셨	-1015
▁단순	-1016
▁어렸	-1017
▁판타	-1018
▁굉	-1019
▁빈	-1020
▁쯤	-1021
자기	-1022
해서	-1023
▁듣	-1024
▁빙	-1025
▁윤	-1026
▁굉장	-1027
▁길래	-1028
▁가능	-1029
▁성룡	-1030
▁평론	-1031
▁혼자	-1032
워서	-1033
▁느낄	-1034
▁등장	-1035
▁학교	-1036
▁버린	-1037
▁체	-1038
▁멋지	-1039
▁바로	-1040
▁어설픈	-1041
▁덕	-1042
▁가치	-1043
▁나가	-1044
▁빨리	-1045
▁존재	-1046
▁멍	-1047
▁교훈	-1048
▁잘못	-1049
▁항	-1050
라도	-1051
▁거의	-1052
▁다르	-1053
▁슈	-1054
▁착	-1055
▁건데	-1056
▁관람	-1057
▁삼류	-1058
▁쓴	-1059
▁밀	-1060
ood	-1061
▁당신	-1062
▁허무	-1063
▁화려	-1064
??	-1065
▁밑	-1066
▁이리	-1067
▁목소리	-1068
▁월	-1069
▁d	-1070
▁헤	-1071
▁판타지	-1072
▁살인	-1073
▁자연	-1074
▁찌	-1075
▁흑	-1076
▁어이	-1077
▁독특	-1078
▁봤었	-1079
▁찬	-1080
▁댓	-1081
▁......	-1082
▁벗	-1083
▁척	-1084
▁는가	-1085
▁살아	-1086
▁어른	-1087
er	-1088
▁넣	-1089
▁영상미	-1090
▁낸	-1091
▁씩	-1092
▁90	-1093
▁질질	-1094
▁케이	-1095
▁스타일	-1096
▁개그	-1097
▁여배우	-1098
▁각본	-1099
▁검	-1100
▁률	-1101
▁잃	-1102
▁떠나	-1103
▁상영	-1104
▁예상	-1105
▁상당히	-1106
▁아버지	-1107
▁평론가	-1108
▁빌	-1109
▁흠	-1110
▁줄거리	-1111
▁짝	-1112
는데	-1113
▁이미	-1114
▁갑자기	-1115
▁십	-1116
▁째	-1117
▁플	-1118
려서	-1119
▁관계	-1120
▁이러	-1121
▁저런	-1122
▁찾아	-1123
▁그러나	-1124
▁아닌가	-1125
▁퍼	-1126
▁버렸	-1127
▁예쁘	-1128
▁움	-1129
린다	-1130
연히	-1131
▁똑같	-1132
▁라이	-1133
▁바라	-1134
▁맥	-1135
▁비해	-1136
▁성우	-1137
▁실제	-1138
▁압	-1139
▁201	-1140
▁페	-1141
▁복수	-1142
▁화면	-1143
▁지루함	-1144
머니	-1145
▁쉽	-1146
이팅	-1147
▁대로	-1148
▁잖아	-1149
▁으면서	-1150
▁빛	-1151
▁향	-1152
▁그녀	-1153
▁전부	-1154
▁a	-1155
▁슬픈	-1156
▁어쩌	-1157
▁그런지	-1158
▁못했	-1159
▁이번	-1160
▁m	-1161
▁앗	-1162
▁만족	-1163
▁져	-1164
▁확실	-1165
▁만나	-1166
▁M	-1167
▁군요	-1168
▁든다	-1169
▁아까움	-1170
▁즐거	-1171
▁뻔하	-1172
▁평범	-1173
▁굉장히	-1174
▁아프	-1175
▁롭	-1176
▁일단	-1177
▁프랑	-1178
▁진행	-1179
▁곳	-1180
▁줌	-1181
다는	-1182
▁뜨	-1183
▁아빠	-1184
▁새로운	-1185
▁뮤	-1186
▁TV	-1187
▁예고	-1188
▁요소	-1189
▁중요	-1190
▁크리스	-1191
▁댓글	-1192
▁선택	-1193
▁깔	-1194
▁탈	-1195
▁항상	-1196
▁쉬	-1197
▁접	-1198
▁거나	-1199
▁더욱	-1200
▁불편	-1201
라이	-1202
없이	-1203
▁아닐	-1204
▁보여준	-1205
▁극장판	-1206
▁섬	-1207
저히	-1208
▁거기	-1209
▁견	-1210
▁랄	-1211
▁80	-1212
▁완성	-1213
▁흥행	-1214
▁연출력	-1215
▁에선	-1216
▁탄탄	-1217
▁심하	-1218
▁편집	-1219
▁한다는	-1220
▁다만	-1221
▁몰랐	-1222
▁북	-1223
▁의도	-1224
▁아까워	-1225
▁땐	-1226
▁물론	-1227
으면	-1228
▁점점	-1229
▁묻	-1230
▁에요	-1231
▁역대	-1232
▁으니	-1233
▁전형	-1234
▁프랑스	-1235
▁졌	-1236
▁짧	-1237
어지	-1238
▁그때	-1239
▁tv	-1240
▁범죄	-1241
▁에로	-1242
▁충분히	-1243
마디	-1244
▁안타깝	-1245
주의	-1246
학생	-1247
▁한마디	-1248
▁화이팅	-1249
▁듬	-1250
▁도록	-1251
▁에겐	-1252
▁카메	-1253
▁응	-1254
▁리얼	-1255
▁자꾸	-1256
▁젊	-1257
▁훈훈	-1258
러운	-1259
▁게임	-1260
▁나옴	-1261
▁어려	-1262
▁원래	-1263
▁이하	-1264
▁헐리	-1265
▁결혼	-1266
▁사건	-1267
▁식상	-1268
▁끄	-1269
▁홍콩	-1270
▁곤	-1271
▁기다	-1272
▁구요	-1273
▁나쁜	-1274
▁자극	-1275
▁놔	-1276
▁12	-1277
▁그게	-1278
▁놀라	-1279
▁미치	-1280
▁안타까	-1281
▁깜	-1282
▁빠지	-1283
▁설명	-1284
▁중반	-1285
▁엿	-1286
▁귀신	-1287
▁소중	-1288
▁엉망	-1289
▁코메	-1290
▁심리	-1291
▁웃겨	-1292
▁께	-1293
▁뭔지	-1294
▁황당	-1295
▁그래픽	-1296
▁어울리	-1297
▁예요	-1298
in	-1299
▁셔	-1300
▁쩔	-1301
▁노력	-1302
▁도저히	-1303
▁코메디	-1304
▁골	-1305
▁미안	-1306
▁했었	-1307
▁닿	-1308
▁됬	-1309
▁쁘	-1310
조건	-1311
▁그림	-1312
▁취향	-1313
▁good	-1314
▁뜬	-1315
우드	-1316
▁먹먹	-1317
▁바람	-1318
▁죽음	-1319
▁어이없	-1320
구나	-1321
▁무조건	-1322
▁유명	-1323
▁진지	-1324
▁넘치	-1325
▁동화	-1326
▁무비	-1327
▁이란	-1328
▁조차	-1329
▁논	-1330
▁증	-1331
▁침	-1332
▁끝내	-1333
▁드립	-1334
▁따위	-1335
▁짱짱	-1336
무리	-1337
▁아쉬운	-1338
▁쇼	-1339
▁과거	-1340
▁나쁘	-1341
▁영웅	-1342
▁어쩔	-1343
▁전설	-1344
▁참신	-1345
▁특유	-1346
▁핵	-1347
려고	-1348
어난	-1349
영화	-1350
▁괜히	-1351
▁분명	-1352
▁좋아하	-1353
▁여성	-1354
▁저질	-1355
▁희망	-1356
▁힘든	-1357
▁또한	-1358
▁새끼	-1359
▁엄청난	-1360
▁간다	-1361
▁더군	-1362
▁바보	-1363
▁사라	-1364
▁꼴	-1365
인다	-1366
▁독립	-1367
▁전기	-1368
▁초등	-1369
▁무서운	-1370
▁촬	-1371
히려	-1372
▁메이	-1373
▁알려	-1374
▁ost	-1375
▁오히려	-1376
▁멍청	-1377
▁아저	-1378
▁영환	-1379
▁웃긴	-1380
▁여전	-1381
▁업	-1382
▁15	-1383
▁대작	-1384
▁아저씨	-1385
▁연기자	-1386
▁후반부	-1387
▁슴	-1388
리티	-1389
▁걸까	-1390
▁돋보	-1391
▁전문	-1392
▁촬영	-1393
▁샤	-1394
▁쩌	-1395
▁그럴	-1396
▁느꼈	-1397
▁천재	-1398
▁할까	-1399
▁소녀	-1400
▁유머	-1401
▁일까	-1402
▁최근	-1403
▁아도	-1404
▁조연	-1405
▁마무리	-1406
▁............	-1407
▁멀	-1408
▁징	-1409
▁고자	-1410
▁더빙	-1411
▁레이	-1412
▁알바	-1413
▁이쁘	-1414
다가	-1415
▁그랬	-1416
▁경찰	-1417
▁봣는데	-1418
▁닥	-1419
▁SF	-1420
▁관심	-1421
▁지난	-1422
▁로맨틱	-1423
▁억지로	-1424
▁가볍	-1425
▁현재	-1426
▁!!!!!!	-1427
▁밤	-1428
▁감상	-1429
▁비추	-1430
▁줘야	-1431
세지	-1432
▁진실	-1433
▁예고편	-1434
00	-1435
▁로서	-1436
▁어라	-1437
▁잊혀	-1438
▁흘러	-1439
▁래	-1440
▁부모	-1441
▁철학	-1442
▁붙	-1443
▁폐	-1444
▁다행	-1445
▁돌려	-1446
▁신기	-1447
▁효과	-1448
▁아무것	-1449
▁아쉬움	-1450
▁표정	-1451
▁는구나	-1452
▁그럼	-1453
▁서로	-1454
민국	-1455
▁그닥	-1456
▁능력	-1457
▁영원	-1458
▁꾸	-1459
▁거리	-1460
▁노출	-1461
▁즐겁	-1462
▁청춘	-1463
▁우연히	-1464
▁봅	-1465
▁셈	-1466
▁대한민국	-1467
▁덜	-1468
▁남기	-1469
▁묘사	-1470
▁오빠	-1471
▁그런데	-1472
▁메세지	-1473
그램	-1474
▁프로그램	-1475
▁우울	-1476
▁촌	-1477
▁누군	-1478
▁문화	-1479
▁졸라	-1480
▁허술	-1481
▁활	-1482
▁역할	-1483
▁어설프	-1484
▁!!!!	-1485
▁힐	-1486
▁가득	-1487
▁시켜	-1488
▁춤	-1489
으나	-1490
▁그려	-1491
▁미래	-1492
▁인정	-1493
▁전달	-1494
▁됩	-1495
▁젤	-1496
▁전작	-1497
▁먼저	-1498
▁센	-1499
▁쪽	-1500
▁올리	-1501
▁왠지	-1502
ST	-1503
▁격	-1504
▁마치	-1505
▁차이	-1506
▁성장	-1507
▁행동	-1508
▁환상	-1509
▁A	-1510
진진	-1511
▁cg	-1512
▁흥미진진	-1513
▁겁나	-1514
▁랄까	-1515
▁마시	-1516
▁아마	-1517
▁적당	-1518
▁정치	-1519
▁피해	-1520
▁실패	-1521
▁아닐까	-1522
터리	-1523
▁나중	-1524
▁선생	-1525
▁스런	-1526
▁해피	-1527
▁아닌데	-1528
▁카메라	-1529
▁씁	-1530
▁찡	-1531
▁퀄	-1532
▁대충	-1533
▁f	-1534
학교	-1535
▁아오	-1536
▁어렵	-1537
▁올라	-1538
▁엑	-1539
▁되게	-1540
▁로운	-1541
▁자유	-1542
▁하고	-1543
▁얻	-1544
▁거지	-1545
▁하루	-1546
▁호러	-1547
▁르	-1548
▁스케	-1549
▁어찌	-1550
▁드립니다	-1551
▁컨	-1552
▁마저	-1553
▁생겼	-1554
▁연애	-1555
▁납	-1556
▁군대	-1557
▁깊이	-1558
▁미스	-1559
▁위대	-1560
▁밥	-1561
▁성공	-1562
▁오글	-1563
▁됩니다	-1564
he	-1565
▁녀	-1566
▁광고	-1567
▁박수	-1568
▁으며	-1569
▁귀여운	-1570
▁늙	-1571
▁앤	-1572
▁쿠	-1573
▁생애	-1574
▁범인	-1575
▁시도	-1576
▁OST	-1577
▁제작비	-1578
▁끊	-1579
▁봉	-1580
▁웬	-1581
▁던지	-1582
▁메시	-1583
▁손발	-1584
▁이기	-1585
▁"""	-1586
▁윌	-1587
▁언니	-1588
▁G	-1589
▁w	-1590
▁간만	-1591
▁과정	-1592
▁전편	-1593
▁평생	-1594
▁블랙	-1595
▁사극	-1596
▁채널	-1597
▁케이블	-1598
▁n	-1599
▁봅니다	-1600
▁뒷	-1601
부분	-1602
▁다소	-1603
▁던가	-1604
▁딩	-1605
▁뜻	-1606
▁챙	-1607
▁.?	-1608
▁가끔	-1609
▁모자	-1610
▁성인	-1611
▁스케일	-1612
▁축	-1613
시다	-1614
▁결론	-1615
▁낚였	-1616
▁한계	-1617
▁엘	-1618
▁칼	-1619
▁느낀	-1620
▁데이	-1621
▁동생	-1622
▁몽	-1623
▁쏘	-1624
▁쥐	-1625
▁무지	-1626
▁싸이	-1627
▁폭력	-1628
▁확실히	-1629
▁펑	-1630
▁푸	-1631
연기	-1632
▁미소	-1633
▁외국	-1634
▁스트	-1635
▁여행	-1636
▁하하	-1637
▁메시지	-1638
▁제작진	-1639
▁i	-1640
▁걸로	-1641
▁괴물	-1642
▁넘어	-1643
▁당하	-1644
▁슬픔	-1645
▁아까웠	-1646
▁꼽	-1647
▁멘	-1648
▁뭉	-1649
▁율	-1650
▁쥬	-1651
난다	-1652
리아	-1653
▁동물	-1654
▁뮤지	-1655
▁여서	-1656
▁밝	-1657
▁잤	-1658
심히	-1659
▁나타	-1660
▁아라	-1661
▁;;;;	-1662
▁11	-1663
▁남주	-1664
▁슈퍼	-1665
▁커플	-1666
▁녹	-1667
▁쩐	-1668
▁감탄	-1669
▁고민	-1670
▁독립영화	-1671
너무	-1672
▁글쎄	-1673
▁리뷰	-1674
▁보내	-1675
▁아침	-1676
▁질리	-1677
▁터지	-1678
▁볼수록	-1679
레스	-1680
▁인기	-1681
▁특별	-1682
▁너무너무	-1683
re	-1684
끄럽	-1685
▁유일	-1686
▁일상	-1687
▁뻐	-1688
▁달리	-1689
▁싸우	-1690
▁오락	-1691
▁포장	-1692
▁뇌	-1693
▁런	-1694
▁젠	-1695
디어	-1696
▁가진	-1697
▁국민	-1698
▁자는	-1699
▁하이	-1700
▁흐름	-1701
▁뜬금	-1702
▁불가	-1703
▁이젠	-1704
▁어린이	-1705
▁결과	-1706
▁살짝	-1707
▁예쁜	-1708
▁간만에	-1709
▁I	-1710
▁싱	-1711
▁썩	-1712
▁잭	-1713
▁연예	-1714
▁혹시	-1715
▁뮤지컬	-1716
▁전기세	-1717
▁정말로	-1718
▁퀄리티	-1719
▁풋	-1720
▁굳이	-1721
▁드럽	-1722
▁마디	-1723
▁소장	-1724
▁시원	-1725
▁종교	-1726
▁표절	-1727
▁상상력	-1728
▁한다고	-1729
▁덕분	-1730
▁불륜	-1731
▁코드	-1732
▁시청자	-1733
▁여전히	-1734
▁열심히	-1735
▁빡	-1736
▁짠	-1737
어요	-1738
▁개판	-1739
▁그걸	-1740
▁남녀	-1741
▁막판	-1742
▁무시	-1743
▁악역	-1744
▁정서	-1745
▁40	-1746
▁몸매	-1747
▁반성	-1748
▁비하	-1749
▁왠만	-1750
▁통해	-1751
▁포기	-1752
▁현대	-1753
▁농	-1754
▁늦	-1755
▁떡	-1756
▁듯이	-1757
▁북한	-1758
▁우정	-1759
▁끔	-1760
▁헛	-1761
다면	-1762
▁00	-1763
▁뿌	-1764
▁쫌	-1765
▁톰	-1766
▁깔끔	-1767
▁끼리	-1768
▁오버	-1769
▁희생	-1770
▁완성도	-1771
▁겉	-1772
▁뉴	-1773
나라	-1774
성애	-1775
파이	-1776
▁나머	-1777
▁섹시	-1778
▁우주	-1779
▁입도	-1780
▁자식	-1781
▁쌍	-1782
▁익	-1783
▁70	-1784
▁무협	-1785
▁분노	-1786
▁상처	-1787
▁신경	-1788
▁으론	-1789
▁홍보	-1790
▁몰라도	-1791
,,	-1792
▁퇴	-1793
▁난해	-1794
▁섹스	-1795
▁속편	-1796
▁자막	-1797
▁조폭	-1798
▁그럭	-1799
▁부르	-1800
▁귀여워	-1801
▁더라구	-1802
▁싸이코	-1803
▁웨	-1804
▁좌	-1805
저럭	-1806
▁남편	-1807
▁는군	-1808
▁니깐	-1809
▁니다	-1810
▁불쾌	-1811
▁시킨	-1812
▁압권	-1813
▁보인다	-1814
▁팀	-1815
▁고생	-1816
▁기술	-1817
▁까진	-1818
▁그럭저럭	-1819
▁공부	-1820
▁힐링	-1821
▁닮	-1822
▁드림	-1823
▁시선	-1824
▁청소	-1825
▁더군요	-1826
▁돌아가	-1827
▁언제나	-1828
ou	-1829
▁꽃	-1830
▁맡	-1831
▁러브	-1832
▁못할	-1833
▁용서	-1834
▁웃겼	-1835
▁지구	-1836
▁살아가	-1837
▁혐	-1838
▁감명	-1839
▁게이	-1840
▁심한	-1841
▁테러	-1842
▁펑펑	-1843
▁쓸데	-1844
▁이루	-1845
▁자리	-1846
▁재난	-1847
멘터리	-1848
▁나머지	-1849
▁칠	-1850
▁거짓	-1851
▁눈빛	-1852
▁슬퍼	-1853
▁장애	-1854
▁조절	-1855
▁썼	-1856
다지	-1857
시아	-1858
즈니	-1859
▁남겨	-1860
▁놀랍	-1861
▁드러	-1862
▁봐요	-1863
▁비주	-1864
▁올해	-1865
▁통쾌	-1866
▁형편	-1867
▁더라도	-1868
▁다큐멘터리	-1869
▁쵝	-1870
▁폴	-1871
▁겨울	-1872
▁그립	-1873
▁생활	-1874
▁아련	-1875
▁엠	-1876
인물	-1877
▁누나	-1878
▁맞추	-1879
▁실력	-1880
▁쓰래	-1881
▁암튼	-1882
▁연결	-1883
▁???	-1884
▁등장인물	-1885
▁떄	-1886
동안	-1887
▁김기	-1888
▁살리	-1889
▁투자	-1890
▁파이	-1891
▁그다지	-1892
▁볼거리	-1893
▁끈	-1894
른다	-1895
▁가까	-1896
▁냐고	-1897
▁아픈	-1898
▁줘서	-1899
▁션	-1900
▁50	-1901
▁대표	-1902
▁설레	-1903
▁스크	-1904
▁씁쓸	-1905
▁디즈니	-1906
▁아쉬웠	-1907
▁어머니	-1908
▁E	-1909
▁아픔	-1910
▁입장	-1911
▁으로서	-1912
▁출연진	-1913
▁뽑	-1914
라스	-1915
어로	-1916
▁방식	-1917
▁비극	-1918
▁비판	-1919
▁생기	-1920
▁적절	-1921
▁한심	-1922
▁비주얼	-1923
▁연예인	-1924
▁청소년	-1925
▁한다면	-1926
▁h	-1927
▁내려	-1928
▁심각	-1929
▁인터	-1930
▁일부	-1931
▁스러움	-1932
▁히어로	-1933
▁무언	-1934
▁반복	-1935
▁불구	-1936
▁아줌	-1937
▁연속	-1938
▁을지	-1939
▁이제야	-1940
▁l	-1941
구려	-1942
니아	-1943
▁18	-1944
▁니콜	-1945
▁러닝	-1946
▁바뀌	-1947
▁발전	-1948
▁방금	-1949
▁스티	-1950
▁악당	-1951
▁오랫	-1952
▁풀어	-1953
▁들어가	-1954
▁픽	-1955
▁흡	-1956
인트	-1957
▁강렬	-1958
▁딱히	-1959
▁려면	-1960
▁올려	-1961
▁존경	-1962
▁아줌마	-1963
▁느라	-1964
▁망한	-1965
▁새벽	-1966
▁세기	-1967
▁열정	-1968
▁인도	-1969
▁베스트	-1970
▁한국인	-1971
▁헐리우드	-1972
▁링	-1973
▁찝	-1974
마스	-1975
▁설마	-1976
▁이어	-1977
▁주변	-1978
an	-1979
▁x	-1980
▁땅	-1981
▁옥	-1982
▁줍	-1983
▁단지	-1984
▁대화	-1985
▁무리	-1986
▁발견	-1987
▁보고	-1988
▁심심	-1989
▁심장	-1990
▁무서웠	-1991
▁어려운	-1992
이스	-1993
▁13	-1994
▁그린	-1995
▁로그	-1996
▁별루	-1997
▁본인	-1998
▁시사	-1999
▁전투	-2000
▁.;;	-2001
▁라지만	-2002
▁싸구려	-2003
▁태어나	-2004
,.	-2005
▁낳	-2006
▁콩	-2007
▁국가	-2008
▁기본	-2009
▁깨닫	-2010
▁돌리	-2011
▁로봇	-2012
▁로써	-2013
▁사기	-2014
▁섬세	-2015
▁지요	-2016
▁뛰어난	-2017
▁k	-2018
너스	-2019
예산	-2020
▁놀랐	-2021
▁반개	-2022
▁소소	-2023
▁시각	-2024
▁아기	-2025
▁조잡	-2026
▁챙겨	-2027
▁흔한	-2028
▁저예산	-2029
▁냉	-2030
▁놨	-2031
▁엽	-2032
▁쩝	-2033
▁콜	-2034
▁탐	-2035
▁그거	-2036
▁색다	-2037
▁최소	-2038
▁풋풋	-2039
▁로그인	-2040
▁스러웠	-2041
▁전문가	-2042
▁오글거리	-2043
▁푹	-2044
▁방법	-2045
▁스스	-2046
▁시트	-2047
▁와서	-2048
▁일반	-2049
▁지도	-2050
▁진리	-2051
▁갑니다	-2052
▁무언가	-2053
▁아름다움	-2054
▁옆	-2055
▁탑	-2056
▁검색	-2057
▁고등	-2058
▁과장	-2059
▁맨날	-2060
▁미드	-2061
▁벌써	-2062
▁싸움	-2063
▁오브	-2064
▁외계	-2065
▁입감	-2066
▁..?	-2067
▁누군가	-2068
▁섞	-2069
▁밋밋	-2070
▁상업	-2071
▁으려	-2072
▁필름	-2073
▁흐르	-2074
▁포인트	-2075
▁갓	-2076
▁껄	-2077
▁술	-2078
▁헌	-2079
▁교육	-2080
▁달라	-2081
▁아류	-2082
▁진다	-2083
▁찝찝	-2084
▁캐리	-2085
▁학생	-2086
▁해리	-2087
▁후속	-2088
▁튀	-2089
▁홀	-2090
▁더러	-2091
▁어제	-2092
▁외모	-2093
▁그런가	-2094
▁댄	-2095
▁맹	-2096
▁삭	-2097
▁컴	-2098
독교	-2099
소드	-2100
▁고통	-2101
▁국내	-2102
▁기에	-2103
▁빠진	-2104
▁이용	-2105
▁전반	-2106
▁짝퉁	-2107
▁기독교	-2108
▁이미지	-2109
▁p	-2110
▁킹	-2111
▁흉	-2112
▁가져	-2113
▁더만	-2114
▁때리	-2115
▁모를	-2116
▁생생	-2117
▁영어	-2118
▁찌질	-2119
▁특이	-2120
▁할지	-2121
▁김기덕	-2122
▁스스로	-2123
on	-2124
이크	-2125
▁뭉클	-2126
▁애기	-2127
▁주말	-2128
▁특수	-2129
▁발연기	-2130
▁했으나	-2131
ad	-2132
▁v	-2133
그라	-2134
라고	-2135
▁깜짝	-2136
▁끼치	-2137
▁로버	-2138
▁버려	-2139
▁점주	-2140
▁조선	-2141
▁지켜	-2142
▁타이	-2143
▁본다면	-2144
▁아이돌	-2145
▁X	-2146
으로	-2147
져서	-2148
▁경험	-2149
▁고양	-2150
▁명품	-2151
▁세월	-2152
▁아역	-2153
▁영국	-2154
▁움직	-2155
▁갠	-2156
가락	-2157
가지	-2158
...	-2159
▁떠오	-2160
▁망했	-2161
▁에피	-2162
▁자살	-2163
▁패러	-2164
▁냄	-2165
▁뱀	-2166
▁옴	-2167
어도	-2168
▁병맛	-2169
▁와우	-2170
▁이연	-2171
▁인해	-2172
▁마이클	-2173
▁봐야지	-2174
▁지나치	-2175
▁.......	-2176
▁륜	-2177
▁염	-2178
말로	-2179
와르	-2180
▁극치	-2181
▁바꿔	-2182
▁불러	-2183
▁신고	-2184
▁최강	-2185
랍니다	-2186
▁육	-2187
▁탁	-2188
▁틈	-2189
▁고요	-2190
▁고전	-2191
▁못해	-2192
▁으리	-2193
▁이럴	-2194
▁조합	-2195
▁199	-2196
▁고양이	-2197
▁느와르	-2198
▁무서워	-2199
▁스파이	-2200
▁고마	-2201
▁슬펐	-2202
▁양심	-2203
▁죽여	-2204
▁촌스	-2205
▁해석	-2206
▁에피소드	-2207
▁!!!!!!!!!!	-2208
ie	-2209
▁e	-2210
거운	-2211
▁망쳐	-2212
▁사진	-2213
▁새롭	-2214
▁유발	-2215
▁참고	-2216
▁치밀	-2217
▁학년	-2218
▁기다리	-2219
▁시사회	-2220
▁즐거운	-2221
▁해야지	-2222
▁꽝	-2223
▁벨	-2224
다고	-2225
ing	-2226
▁개성	-2227
▁보였	-2228
▁빌려	-2229
▁우와	-2230
▁의심	-2231
▁스크린	-2232
▁깎	-2233
▁빅	-2234
전드	-2235
▁21	-2236
▁거슬	-2237
▁다양	-2238
▁무척	-2239
▁민망	-2240
▁자면	-2241
▁007	-2242
▁레전드	-2243
▁저렇게	-2244
▁P	-2245
겨운	-2246
요일	-2247
▁갈등	-2248
▁달달	-2249
▁명성	-2250
▁버림	-2251
▁영혼	-2252
▁예뻐	-2253
▁대부분	-2254
▁돋보이	-2255
▁초등학생	-2256
BS	-2257
▁옷	-2258
▁잉	-2259
▁14	-2260
▁개막	-2261
▁그지	-2262
▁드리	-2263
▁아내	-2264
▁코난	-2265
▁허세	-2266
▁형사	-2267
▁위해서	-2268
▁으로써	-2269
▁찾아보	-2270
or	-2271
▁즈	-2272
로우	-2273
르노	-2274
▁레알	-2275
▁변화	-2276
▁이렇	-2277
▁조용	-2278
▁조작	-2279
▁최대	-2280
▁풍경	-2281
▁한가	-2282
▁겁니다	-2283
▁일어나	-2284
▁더라구요	-2285
▁미쳤	-2286
▁오바	-2287
▁응원	-2288
▁의문	-2289
▁정상	-2290
▁정의	-2291
▁정체	-2292
▁대해서	-2293
▁실제로	-2294
▁오그라	-2295
▁외계인	-2296
▁옹	-2297
운드	-2298
▁개념	-2299
▁개뿔	-2300
▁미모	-2301
▁복잡	-2302
▁신파	-2303
▁여름	-2304
▁줍니다	-2305
▁카리스	-2306
▁패러디	-2307
▁포르노	-2308
▁마이너스	-2309
at	-2310
▁더불	-2311
▁명화	-2312
▁박진	-2313
▁살려	-2314
▁상관	-2315
▁센스	-2316
▁용기	-2317
▁정보	-2318
▁즐기	-2319
▁한번	-2320
메이크	-2321
▁된다는	-2322
▁리메이크	-2323
▁껏	-2324
▁몬	-2325
▁뽕	-2326
▁관점	-2327
▁끌어	-2328
▁따로	-2329
▁마리	-2330
▁볼려	-2331
▁사고	-2332
▁셔서	-2333
▁우려	-2334
▁주성	-2335
▁한참	-2336
▁해결	-2337
▁형제	-2338
▁더라면	-2339
▁할머니	-2340
▁카리스마	-2341
ov	-2342
▁따구	-2343
▁망치	-2344
▁아냐	-2345
▁오로	-2346
▁지르	-2347
▁직접	-2348
▁완전히	-2349
▁정신병	-2350
bs	-2351
▁씀	-2352
▁기준	-2353
▁김민	-2354
▁변태	-2355
▁블록	-2356
▁에이	-2357
▁여태	-2358
▁제이	-2359
▁조아	-2360
▁한편	-2361
▁화끈	-2362
▁기억나	-2363
▁느껴진다	-2364
▁크리스마스	-2365
▁떼	-2366
▁앉	-2367
▁탓	-2368
테일	-2369
▁데리	-2370
▁악마	-2371
▁유지	-2372
▁의식	-2373
▁잠깐	-2374
▁제로	-2375
▁졸리	-2376
▁the	-2377
▁피해자	-2378
▁스트레스	-2379
▁아름다웠	-2380
▁묵	-2381
▁콤	-2382
▁기법	-2383
▁김수	-2384
▁다룬	-2385
▁미화	-2386
▁브라	-2387
▁시걸	-2388
▁야동	-2389
▁약하	-2390
▁울리	-2391
▁책임	-2392
▁하도	-2393
om	-2394
▁r	-2395
▁규	-2396
▁낙	-2397
▁쏟	-2398
▁품	-2399
루스	-2400
▁가수	-2401
▁가요	-2402
▁강력	-2403
▁겨우	-2404
▁내리	-2405
▁내면	-2406
▁다이	-2407
▁몇몇	-2408
▁빠르	-2409
▁수고	-2410
▁역겹	-2411
▁자주	-2412
▁탈출	-2413
▁더러운	-2414
▁아까울	-2415
▁K	-2416
▁덩	-2417
▁린	-2418
▁찰	-2419
▁큐	-2420
▁휘	-2421
지원	-2422
하나	-2423
▁결정	-2424
▁공짜	-2425
▁관한	-2426
▁내요	-2427
▁멋져	-2428
▁몰라	-2429
▁무술	-2430
▁사상	-2431
▁상한	-2432
▁스페	-2433
▁아닙	-2434
▁예산	-2435
▁흘리	-2436
▁디테일	-2437
▁으니까	-2438
▁형편없	-2439
▁y	-2440
▁택	-2441
▁그건	-2442
▁기회	-2443
▁멜로	-2444
▁상태	-2445
▁서부	-2446
▁아동	-2447
▁어우	-2448
▁욕망	-2449
▁2014	-2450
ll	-2451
▁곡	-2452
▁뎁	-2453
▁픈	-2454
!!!	-2455
▁끝난	-2456
▁비밀	-2457
▁쁘고	-2458
▁선물	-2459
▁세련	-2460
▁소년	-2461
▁착한	-2462
▁하늘	-2463
▁흉내	-2464
▁겹	-2465
▁멈	-2466
▁벤	-2467
▁붕	-2468
▁샘	-2469
이터	-2470
타인	-2471
▁감흥	-2472
▁방영	-2473
▁배역	-2474
▁빵점	-2475
▁일품	-2476
▁쵝오	-2477
▁메이크	-2478
▁어야지	-2479
▁하나하나	-2480
VD	-2481
▁력	-2482
▁감히	-2483
▁대중	-2484
▁모험	-2485
▁목적	-2486
▁보통	-2487
▁성격	-2488
▁제시	-2489
▁흑인	-2490
▁DVD	-2491
▁주성치	-2492
▁참으로	-2493
▁땡	-2494
▁구하	-2495
▁당연	-2496
▁대본	-2497
▁도망	-2498
▁레딧	-2499
▁바꾸	-2500
▁승리	-2501
▁알아	-2502
▁야구	-2503
????	-2504
▁는데요	-2505
▁이래서	-2506
▁젼	-2507
▁틱	-2508
▁혜	-2509
▁근래	-2510
▁라기	-2511
▁막히	-2512
▁요리	-2513
▁재방	-2514
▁중독	-2515
▁최초	-2516
▁편견	-2517
▁거짓말	-2518
▁인가요	-2519
▁L	-2520
▁값	-2521
▁캬	-2522
▁감각	-2523
▁견자	-2524
▁깨달	-2525
▁낚시	-2526
▁단편	-2527
▁동영	-2528
▁부부	-2529
▁생긴	-2530
▁시기	-2531
▁아래	-2532
▁제임	-2533
▁넌	-2534
▁왤	-2535
▁칭	-2536
▁단어	-2537
▁베이	-2538
▁부자	-2539
▁아예	-2540
▁웬만	-2541
▁폐지	-2542
▁영원히	-2543
▁흘러가	-2544
▁앙	-2545
▁혀	-2546
간다	-2547
▁냄새	-2548
▁반대	-2549
▁보임	-2550
▁심지	-2551
▁외로	-2552
▁잔뜩	-2553
▁주기	-2554
▁탄생	-2555
▁빠져들	-2556
▁N	-2557
▁깡	-2558
▁껐	-2559
▁듭	-2560
▁털	-2561
드리	-2562
란다	-2563
▁공주	-2564
▁관련	-2565
▁꼬마	-2566
▁동시	-2567
▁떠올	-2568
▁모양	-2569
▁살린	-2570
▁설득	-2571
▁숨겨	-2572
▁스포	-2573
▁심오	-2574
▁예능	-2575
▁작위	-2576
▁조화	-2577
▁지났	-2578
▁짜임	-2579
▁최민	-2580
▁풍자	-2581
▁견자단	-2582
▁제임스	-2583
▁꾼	-2584
으니	-2585
▁기자	-2586
▁다루	-2587
▁부실	-2588
▁빛나	-2589
▁왜곡	-2590
▁은근	-2591
▁차별	-2592
▁키스	-2593
▁확인	-2594
▁공포물	-2595
▁여러분	-2596
▁바랍니다	-2597
▁넹	-2598
▁람	-2599
▁숙	-2600
▁씹	-2601
다니	-2602
버린	-2603
▁다를	-2604
▁매일	-2605
▁산만	-2606
▁색감	-2607
▁인디	-2608
▁추리	-2609
▁클레	-2610
▁그만큼	-2611
▁느껴졌	-2612
▁동성애	-2613
▁해진다	-2614
▁떨어진다	-2615
▁안타까운	-2616
▁곱	-2617
▁콘	-2618
성기	-2619
장면	-2620
트맨	-2621
▁단연	-2622
▁빠졌	-2623
▁안습	-2624
▁어두	-2625
▁조니	-2626
▁지겹	-2627
▁포스	-2628
▁혹은	-2629
▁미스터	-2630
▁겪	-2631
▁석	-2632
▁쿵	-2633
랜드	-2634
친다	-2635
포터	-2636
▁걸리	-2637
▁과학	-2638
▁바다	-2639
▁연인	-2640
▁열받	-2641
아버지	-2642
▁돌아보	-2643
▁색다른	-2644
▁진정한	-2645
........	-2646
▁론	-2647
▁감안	-2648
▁결코	-2649
▁둘째	-2650
▁라인	-2651
▁비행	-2652
▁삭제	-2653
▁생명	-2654
▁신비	-2655
▁연극	-2656
▁운명	-2657
▁자동	-2658
▁자랑	-2659
▁프리	-2660
▁할리	-2661
▁화장	-2662
▁브루스	-2663
▁촌스럽	-2664
▁아닙니다	-2665
▁F	-2666
▁굴	-2667
▁컬	-2668
▁컷	-2669
▁팝	-2670
▁헬	-2671
쟁이	-2672
토록	-2673
▁22	-2674
▁가르	-2675
▁때려	-2676
▁뛰어	-2677
▁못함	-2678
▁무한	-2679
▁부탁	-2680
▁사투	-2681
▁스텝	-2682
▁시점	-2683
▁앞뒤	-2684
▁흔들	-2685
▁매니아	-2686
▁보여준다	-2687
▁깍	-2688
▁낯	-2689
▁므	-2690
우성	-2691
▁60	-2692
▁기발	-2693
▁목숨	-2694
▁버릴	-2695
▁본방	-2696
▁빈약	-2697
▁이쁜	-2698
▁제외	-2699
▁중심	-2700
▁크루	-2701
▁파괴	-2702
▁호구	-2703
▁무서움	-2704
▁심지어	-2705
▁영환데	-2706
▁오랫만	-2707
▁이어지	-2708
▁아이디어	-2709
▁첩	-2710
서야	-2711
어리	-2712
▁구리	-2713
▁다리	-2714
▁신세	-2715
▁언젠	-2716
▁예수	-2717
▁울컥	-2718
▁유아	-2719
▁정확	-2720
▁치곤	-2721
▁아무런	-2722
▁을까요	-2723
▁적당히	-2724
ar	-2725
▁늑	-2726
▁bb	-2727
▁구니	-2728
▁다섯	-2729
▁볼까	-2730
▁살렸	-2731
▁장국	-2732
▁충실	-2733
▁건가요	-2734
▁따라가	-2735
▁사운드	-2736
▁스러워	-2737
▁맙	-2738
▁뽀	-2739
▁웰	-2740
▁펼	-2741
▁혁	-2742
상수	-2743
▁망하	-2744
▁무너	-2745
▁무료	-2746
▁뭘까	-2747
▁심형	-2748
▁어휴	-2749
▁열연	-2750
▁욕심	-2751
▁일깨	-2752
▁일어	-2753
▁자고	-2754
▁잔혹	-2755
▁조카	-2756
▁할아버지	-2757
en	-2758
▁객	-2759
▁널	-2760
▁덤	-2761
▁왓	-2762
리카	-2763
버그	-2764
준다	-2765
▁44	-2766
▁강하	-2767
▁담배	-2768
▁바이	-2769
▁선정	-2770
▁야지	-2771
▁제니	-2772
▁짜집	-2773
▁한지	-2774
▁바라보	-2775
▁손가락	-2776
▁즐거웠	-2777
▁뭥	-2778
▁웅	-2779
아내	-2780
한다	-2781
▁대신	-2782
▁리즈	-2783
▁맞춰	-2784
▁신나	-2785
▁어지	-2786
▁천국	-2787
▁호감	-2788
▁화나	-2789
버스터	-2790
▁W	-2791
▁폰	-2792
▁협	-2793
팩트	-2794
▁be	-2795
▁그야	-2796
▁버전	-2797
▁수많	-2798
▁아파	-2799
▁음식	-2800
▁추격	-2801
▁파워	-2802
▁플롯	-2803
▁그야말로	-2804
▁블록버스터	-2805
여서	-2806
을까	-2807
통령	-2808
▁논리	-2809
▁다크	-2810
▁동네	-2811
▁라곤	-2812
▁아아	-2813
▁인형	-2814
▁자세	-2815
▁집착	-2816
▁환경	-2817
▁뛰어나	-2818
▁러시아	-2819
▁심형래	-2820
▁이연걸	-2821
▁이제서야	-2822
▁곽	-2823
▁균	-2824
과서	-2825
▁건만	-2826
▁고서	-2827
▁공간	-2828
▁당황	-2829
▁따름	-2830
▁마냥	-2831
▁미녀	-2832
▁부작	-2833
▁상대	-2834
▁의리	-2835
▁잠시	-2836
▁찬란	-2837
▁터미	-2838
▁터짐	-2839
▁편안	-2840
▁하드	-2841
▁교과서	-2842
▁대통령	-2843
▁로버트	-2844
▁사투리	-2845
▁영화제	-2846
▁임팩트	-2847
▁띄	-2848
▁앨	-2849
▁쪼	-2850
▁쭉	-2851
▁쿡	-2852
러스	-2853
▁나간	-2854
▁뭥미	-2855
▁생겨	-2856
▁영향	-2857
▁의사	-2858
▁저리	-2859
▁힘내	-2860
▁듭니다	-2861
▁스티븐	-2862
아들	-2863
피스	-2864
▁거부	-2865
▁김혜	-2866
▁끼워	-2867
▁남긴	-2868
▁달려	-2869
▁담겨	-2870
▁도시	-2871
▁도전	-2872
▁마르	-2873
▁모아	-2874
▁바탕	-2875
▁배신	-2876
▁보일	-2877
▁부끄	-2878
▁부인	-2879
▁수입	-2880
▁실수	-2881
▁우뢰	-2882
▁우연	-2883
▁위험	-2884
▁은지	-2885
▁이소	-2886
▁자본	-2887
▁정작	-2888
▁한숨	-2889
▁해진	-2890
▁놀라운	-2891
▁당연히	-2892
▁사라지	-2893
▁일부러	-2894
▁고등학교	-2895
▁쓸데없이	-2896
vd	-2897
▁걱	-2898
▁섭	-2899
ver	-2900
▁25	-2901
▁나무	-2902
▁내일	-2903
▁느니	-2904
▁늑대	-2905
▁멋졌	-2906
▁반드	-2907
▁배급	-2908
▁베드	-2909
▁부러	-2910
▁빠른	-2911
▁서울	-2912
▁유리	-2913
▁컨셉	-2914
▁폭발	-2915
멘타인	-2916
▁나이트	-2917
▁설득력	-2918
▁일깨워	-2919
▁클레멘타인	-2920
▁곧	-2921
▁삐	-2922
퓨터	-2923
▁가정	-2924
▁당할	-2925
▁손색	-2926
▁애매	-2927
▁오프	-2928
▁재능	-2929
▁클래	-2930
▁테이	-2931
네이터	-2932
▁dvd	-2933
▁반드시	-2934
▁숨겨진	-2935
▁시트콤	-2936
▁중학교	-2937
▁크루즈	-2938
▁혹시나	-2939
▁후속작	-2940
▁해리포터	-2941
▁터미네이터	-2942
▁김지	-2943
▁데려	-2944
▁독일	-2945
▁따지	-2946
▁려다	-2947
▁루즈	-2948
▁마약	-2949
▁망친	-2950
▁실험	-2951
▁어째	-2952
▁유덕	-2953
▁적임	-2954
▁전하	-2955
▁주윤	-2956
▁해졌	-2957
▁허허	-2958
▁헤어	-2959
▁you	-2960
▁게다가	-2961
▁상영관	-2962
▁움직이	-2963
▁자동차	-2964
▁R	-2965
▁V	-2966
▁뚱	-2967
▁쯧	-2968
가리	-2969
정우	-2970
▁가벼	-2971
▁걱정	-2972
▁구역	-2973
▁난리	-2974
▁동심	-2975
▁돼지	-2976
▁따듯	-2977
▁만난	-2978
▁분장	-2979
▁사수	-2980
▁사용	-2981
▁시시	-2982
▁애국	-2983
▁어쩜	-2984
▁저급	-2985
▁즐겨	-2986
▁프레	-2987
▁하품	-2988
▁단순히	-2989
▁제니퍼	-2990
▁주윤발	-2991
▁컴퓨터	-2992
▁u	-2993
▁짬	-2994
▁튼	-2995
▁of	-2996
▁거장	-2997
▁극단	-2998
▁김태	-2999
▁끔찍	-3000
▁밀려	-3001
▁사무	-3002
▁온다	-3003
▁이민	-3004
▁전해	-3005
▁전화	-3006
▁절정	-3007
▁착각	-3008
▁패스	-3009
▁희대	-3010
▁명장면	-3011
▁박진감	-3012
▁홍상수	-3013
▁2000	-3014
▁깁	-3015
▁둔	-3016
▁락	-3017
▁족	-3018
치노	-3019
▁기적	-3020
▁내게	-3021
▁부럽	-3022
▁여인	-3023
▁으시	-3024
▁죽인	-3025
▁지경	-3026
▁평균	-3027
▁장국영	-3028
▁제이슨	-3029
▁하하하	-3030
.....	-3031
ut	-3032
▁뭣	-3033
▁쩜	-3034
▁쫄	-3035
스타	-3036
워요	-3037
▁거든	-3038
▁고맙	-3039
▁국판	-3040
▁남성	-3041
▁네티	-3042
▁두려	-3043
▁드래	-3044
▁든지	-3045
▁디워	-3046
▁무어	-3047
▁베리	-3048
▁아나	-3049
▁아우	-3050
▁연상	-3051
▁와이	-3052
▁으신	-3053
▁잠들	-3054
▁저렇	-3055
레이션	-3056
▁귀여움	-3057
▁떠오르	-3058
▁떨어짐	-3059
▁만화책	-3060
▁스포츠	-3061
▁하정우	-3062
▁곰	-3063
▁롤	-3064
▁및	-3065
▁앵	-3066
▁탕	-3067
▁팍	-3068
강호	-3069
바이	-3070
▁가리	-3071
▁군인	-3072
▁당한	-3073
▁런닝	-3074
▁로코	-3075
▁부담	-3076
▁소피	-3077
▁오리	-3078
▁월드	-3079
▁위원	-3080
▁이동	-3081
▁익숙	-3082
▁판단	-3083
▁누군지	-3084
▁동영상	-3085
▁떨어진	-3086
▁못한다	-3087
▁사이코	-3088
▁아무튼	-3089
▁엄청나	-3090
▁Good	-3091
▁정신병자	-3092
▁림	-3093
둥이	-3094
보영	-3095
▁구조	-3096
▁그라	-3097
▁김치	-3098
▁내생	-3099
▁동양	-3100
▁두근	-3101
▁만약	-3102
▁무대	-3103
▁분량	-3104
▁세대	-3105
▁소개	-3106
▁소화	-3107
▁케빈	-3108
▁클라	-3109
▁평화	-3110
▁쓸데없	-3111
▁이토록	-3112
▁적어도	-3113
▁하지원	-3114
▁할리우드	-3115
▁뗄	-3116
▁릭	-3117
▁찐	-3118
대사	-3119
부터	-3120
아지	-3121
▁거북	-3122
▁거품	-3123
▁그대	-3124
▁드려	-3125
▁믿기	-3126
▁요새	-3127
▁유행	-3128
▁재개	-3129
▁주일	-3130
▁준비	-3131
▁지식	-3132
▁차원	-3133
▁축구	-3134
▁혐오	-3135
▁넘어가	-3136
▁인터넷	-3137
▁.........	-3138
le	-3139
▁덴	-3140
▁록	-3141
▁쫓	-3142
놀드	-3143
우스	-3144
웨이	-3145
▁낚이	-3146
▁네유	-3147
▁다녀	-3148
▁도움	-3149
▁만났	-3150
▁명복	-3151
▁반지	-3152
▁발상	-3153
▁부리	-3154
▁뻐서	-3155
▁서양	-3156
▁아만	-3157
▁어리	-3158
▁유럽	-3159
▁처절	-3160
▁출신	-3161
▁키드	-3162
▁파리	-3163
▁폭풍	-3164
▁피아	-3165
▁흑백	-3166
▁네티즌	-3167
▁려다가	-3168
▁빠져서	-3169
▁아놀드	-3170
▁어우러	-3171
▁땀	-3172
▁퀴	-3173
로드	-3174
쳐서	-3175
▁건강	-3176
▁내심	-3177
▁놀이	-3178
▁놓치	-3179
▁되돌	-3180
▁상하	-3181
▁세포	-3182
▁수록	-3183
▁스피	-3184
▁죄송	-3185
▁줘도	-3186
▁진수	-3187
▁하아	-3188
▁호기	-3189
▁뜬금없	-3190
▁배트맨	-3191
▁으려고	-3192
▁장난치	-3193
it	-3194
▁뚝	-3195
▁맴	-3196
▁삽	-3197
▁젖	-3198
▁칸	-3199
▁핑	-3200
게요	-3201
맹이	-3202
▁거림	-3203
▁고어	-3204
▁기존	-3205
▁김정	-3206
▁다신	-3207
▁대상	-3208
▁로드	-3209
▁바닥	-3210
▁발음	-3211
▁불안	-3212
▁아담	-3213
▁안감	-3214
▁엑스	-3215
▁엘리	-3216
▁이만	-3217
▁인종	-3218
▁줄리	-3219
▁참나	-3220
▁평소	-3221
▁배급사	-3222
▁부끄럽	-3223
▁아쉬워	-3224
▁짜임새	-3225
▁아까워서	-3226
is	-3227
▁렉	-3228
▁숭	-3229
▁쿨	-3230
▁16	-3231
▁개똥	-3232
▁계기	-3233
▁극복	-3234
▁글자	-3235
▁김희	-3236
▁대하	-3237
▁데뷔	-3238
▁도둑	-3239
▁무기	-3240
▁변하	-3241
▁선수	-3242
▁애절	-3243
▁정당	-3244
▁존스	-3245
▁종영	-3246
▁주의	-3247
▁납니다	-3248
▁라스트	-3249
▁라이언	-3250
▁벗어나	-3251
▁오프닝	-3252
▁재개봉	-3253
▁찾아볼	-3254
▁최고봉	-3255
갱이	-3256
▁th	-3257
▁고인	-3258
▁공중	-3259
▁꿈꾸	-3260
▁데스	-3261
▁류승	-3262
▁반담	-3263
▁반영	-3264
▁상어	-3265
▁인류	-3266
▁정부	-3267
집니다	-3268
▁가까운	-3269
▁그동안	-3270
▁살인마	-3271
▁언젠가	-3272
▁일본인	-3273
▁정우성	-3274
▁최소한	-3275
▁리얼리티	-3276
▁우리나라	-3277
▁숀	-3278
아치	-3279
어진	-3280
▁각색	-3281
▁긴박	-3282
▁달콤	-3283
▁담백	-3284
▁될까	-3285
▁말투	-3286
▁무겁	-3287
▁민족	-3288
▁별반	-3289
▁보낸	-3290
▁부정	-3291
▁비중	-3292
▁빵빵	-3293
▁약한	-3294
▁엑소	-3295
▁왕국	-3296
▁왤케	-3297
▁윌리	-3298
▁임창	-3299
▁재수	-3300
▁제왕	-3301
▁편하	-3302
▁흡입	-3303
ovie	-3304
▁가벼운	-3305
▁이라도	-3306
▁!!!!!!!!!!!!!!	-3307
▁갱	-3308
▁뎅	-3309
▁롱	-3310
▁찔	-3311
▁킥	-3312
▁홈	-3313
네요	-3314
리언	-3315
ery	-3316
▁강간	-3317
▁난잡	-3318
▁단체	-3319
▁드문	-3320
▁로웠	-3321
▁망할	-3322
▁매미	-3323
▁봐줄	-3324
▁브래	-3325
▁아팠	-3326
▁어둡	-3327
▁어쨌	-3328
▁여신	-3329
▁역량	-3330
▁장동	-3331
▁탁월	-3332
▁파격	-3333
▁피트	-3334
▁빨갱이	-3335
▁송강호	-3336
▁윌리스	-3337
▁은근히	-3338
▁재미나	-3339
▁나레이션	-3340
▁H	-3341
▁낼	-3342
▁벅	-3343
▁쁜	-3344
▁옳	-3345
▁죤	-3346
▁짤	-3347
마자	-3348
숭이	-3349
아나	-3350
테리	-3351
▁각자	-3352
▁객관	-3353
▁녀석	-3354
▁느리	-3355
▁단점	-3356
▁려나	-3357
▁묘한	-3358
▁엇다	-3359
▁여친	-3360
▁연습	-3361
▁이성	-3362
▁일으	-3363
▁즐길	-3364
▁지상	-3365
▁짜릿	-3366
▁콜린	-3367
레이드	-3368
▁게스트	-3369
▁는다는	-3370
▁드디어	-3371
▁드래곤	-3372
▁이소룡	-3373
▁자마자	-3374
▁호기심	-3375
▁껀	-3376
▁밴	-3377
▁빕	-3378
▁엮	-3379
▁웟	-3380
스크	-3381
오글	-3382
▁17	-3383
▁거대	-3384
▁깨알	-3385
▁날리	-3386
▁당했	-3387
▁등록	-3388
▁로빈	-3389
▁마누	-3390
▁몽환	-3391
▁방사	-3392
▁소지	-3393
▁신인	-3394
▁이쁨	-3395
▁절망	-3396
▁정리	-3397
▁졸업	-3398
▁중년	-3399
▁지겨	-3400
▁진한	-3401
▁천만	-3402
▁치유	-3403
▁킬러	-3404
▁타란	-3405
▁회사	-3406
▁덩어리	-3407
▁명대사	-3408
▁모른다	-3409
▁미국식	-3410
▁범죄자	-3411
▁비행기	-3412
▁역겨운	-3413
▁올라가	-3414
▁화장실	-3415
▁2012	-3416
▁오글오글	-3417
ow	-3418
▁걷	-3419
▁쌩	-3420
▁찢	-3421
▁획	-3422
승우	-3423
아가	-3424
▁강한	-3425
▁고독	-3426
▁권력	-3427
▁기획	-3428
▁노무	-3429
▁높이	-3430
▁닥치	-3431
▁대학	-3432
▁던져	-3433
▁도와	-3434
▁만남	-3435
▁무난	-3436
▁뮤직	-3437
▁민주	-3438
▁배꼽	-3439
▁백인	-3440
▁베일	-3441
▁본지	-3442
▁알리	-3443
▁알파	-3444
▁에휴	-3445
▁일지	-3446
▁정준	-3447
▁진진	-3448
▁처리	-3449
▁198	-3450
▁는군요	-3451
▁들어간	-3452
▁임창정	-3453
▁제시카	-3454
▁하나님	-3455
▁하이틴	-3456
▁스파이더	-3457
▁..........	-3458
od	-3459
▁닼	-3460
▁릴	-3461
▁뻥	-3462
▁썸	-3463
▁찜	-3464
▁쾌	-3465
▁탱	-3466
이지	-3467
중훈	-3468
티노	-3469
▁공유	-3470
▁교회	-3471
▁깡패	-3472
▁노인	-3473
▁놀래	-3474
▁대결	-3475
▁말씀	-3476
▁무게	-3477
▁밝혀	-3478
▁불과	-3479
▁상식	-3480
▁상징	-3481
▁선사	-3482
▁시장	-3483
▁앞서	-3484
▁애초	-3485
▁억울	-3486
▁오우	-3487
▁올드	-3488
▁절제	-3489
▁직업	-3490
▁혁명	-3491
메이드	-3492
▁나와야	-3493
▁나타나	-3494
▁된다고	-3495
▁아이언	-3496
▁원숭이	-3497
▁웰메이드	-3498
▁z	-3499
▁냈	-3500
▁렸	-3501
▁혈	-3502
나이	-3503
무지	-3504
워드	-3505
▁.!	-3506
▁re	-3507
▁고뇌	-3508
▁글고	-3509
▁나왓	-3510
▁늘어	-3511
▁망가	-3512
▁맞춘	-3513
▁매번	-3514
▁버스	-3515
▁부활	-3516
▁실감	-3517
▁쓸쓸	-3518
▁엽기	-3519
▁오르	-3520
▁우기	-3521
▁우선	-3522
▁운동	-3523
▁향연	-3524
▁흘렸	-3525
▁EBS	-3526
▁무거운	-3527
▁박중훈	-3528
▁어두운	-3529
▁어울려	-3530
▁좋아할	-3531
▁지나가	-3532
▁미스터리	-3533
▁타란티노	-3534
▁movie	-3535
ot	-3536
▁썰	-3537
▁읍	-3538
생긴	-3539
아먹	-3540
지현	-3541
▁개콘	-3542
▁공룡	-3543
▁구분	-3544
▁나을	-3545
▁낭만	-3546
▁담긴	-3547
▁대전	-3548
▁디카	-3549
▁때우	-3550
▁마법	-3551
▁버튼	-3552
▁보물	-3553
▁상실	-3554
▁수사	-3555
▁순위	-3556
▁심사	-3557
▁연관	-3558
▁의외	-3559
▁이전	-3560
▁저냥	-3561
▁짬뽕	-3562
▁착하	-3563
▁총체	-3564
▁특집	-3565
▁황정	-3566
;;;;	-3567
▁..;	-3568
▁똑같이	-3569
▁마누라	-3570
▁습니까	-3571
▁!!!!!	-3572
.............	-3573
as	-3574
▁J	-3575
▁몫	-3576
▁셋	-3577
▁쳤	-3578
▁퓨	-3579
간도	-3580
겠다	-3581
▁가히	-3582
▁경우	-3583
▁고문	-3584
▁공연	-3585
▁담담	-3586
▁대부	-3587
▁드니	-3588
▁레옹	-3589
▁리암	-3590
▁맛있	-3591
▁무식	-3592
▁발랄	-3593
▁변신	-3594
▁부산	-3595
▁상당	-3596
▁소통	-3597
▁아카	-3598
▁에드	-3599
▁예측	-3600
▁올레	-3601
▁왕조	-3602
▁워낙	-3603
▁원조	-3604
▁위로	-3605
▁의상	-3606
▁장점	-3607
▁지키	-3608
▁포함	-3609
▁피터	-3610
▁개그맨	-3611
▁김수현	-3612
▁무간도	-3613
▁박보영	-3614
▁어쩌면	-3615
▁오로지	-3616
▁유덕화	-3617
▁미스테리	-3618
▁닌	-3619
▁뺏	-3620
▁쏠	-3621
▁얄	-3622
▁핸	-3623
▁힙	-3624
들러	-3625
레인	-3626
▁99	-3627
▁개꿀	-3628
▁괜찬	-3629
▁구려	-3630
▁넘기	-3631
▁놀란	-3632
▁뒤죽	-3633
▁따분	-3634
▁사과	-3635
▁시험	-3636
▁신화	-3637
▁우디	-3638
▁우린	-3639
▁전이	-3640
▁정재	-3641
▁창피	-3642
▁초월	-3643
▁칭찬	-3644
▁커서	-3645
▁클로	-3646
▁기다려	-3647
▁나올까	-3648
▁다시금	-3649
▁아쉬울	-3650
▁영화사	-3651
▁흡입력	-3652
▁..;;	-3653
▁스파이더맨	-3654
ck	-3655
es	-3656
▁렷	-3657
▁쟈	-3658
보이	-3659
워즈	-3660
▁MB	-3661
▁기사	-3662
▁마녀	-3663
▁미션	-3664
▁방해	-3665
▁방향	-3666
▁병원	-3667
▁본질	-3668
▁브리	-3669
▁비록	-3670
▁선동	-3671
▁승부	-3672
▁암울	-3673
▁영구	-3674
▁재앙	-3675
▁조지	-3676
▁주인	-3677
▁쥬얼	-3678
▁지옥	-3679
▁차승	-3680
▁채우	-3681
▁천사	-3682
▁케미	-3683
▁터졌	-3684
▁틀리	-3685
▁형식	-3686
라이언	-3687
▁귀여웠	-3688
▁그리워	-3689
▁던데요	-3690
▁받아들	-3691
▁브래드	-3692
▁짜집기	-3693
▁스타워즈	-3694
▁알파치노	-3695
▁오그라드	-3696
▁껴	-3697
▁낀	-3698
▁벽	-3699
▁셧	-3700
▁측	-3701
라기	-3702
모로	-3703
버렸	-3704
이트	-3705
000	-3706
▁to	-3707
▁가짜	-3708
▁국어	-3709
▁나빠	-3710
▁댄스	-3711
▁도라	-3712
▁망쳤	-3713
▁머릿	-3714
▁모니	-3715
▁뿌리	-3716
▁언어	-3717
▁연주	-3718
▁인권	-3719
▁인식	-3720
▁절로	-3721
▁쯧쯧	-3722
▁최후	-3723
▁코스	-3724
▁혼란	-3725
프리오	-3726
▁돋보였	-3727
▁양아치	-3728
▁잖아요	-3729
▁클래식	-3730
▁생각난다	-3731
▁여러모로	-3732
▁디카프리오	-3733
▁듦	-3734
▁옮	-3735
동생	-3736
박죽	-3737
정화	-3738
???	-3739
▁간지	-3740
▁건질	-3741
▁광구	-3742
▁리의	-3743
▁모욕	-3744
▁보소	-3745
▁브로	-3746
▁블루	-3747
▁성적	-3748
▁스텔	-3749
▁압도	-3750
▁어딘	-3751
▁왕가	-3752
▁작화	-3753
▁조정	-3754
▁집어	-3755
▁키아	-3756
▁트랜	-3757
▁픽사	-3758
▁더라고	-3759
▁매끄럽	-3760
▁명연기	-3761
▁아마추	-3762
▁진짜로	-3763
▁페이크	-3764
▁뒤죽박죽	-3765
▁오그라들	-3766
al	-3767
▁깝	-3768
▁덮	-3769
▁벼	-3770
▁샌	-3771
▁쩡	-3772
▁컸	-3773
▁폼	-3774
더기	-3775
뜨리	-3776
불호	-3777
여진	-3778
예진	-3779
이라	-3780
▁is	-3781
▁게리	-3782
▁고딩	-3783
▁남친	-3784
▁너희	-3785
▁다름	-3786
▁당장	-3787
▁들여	-3788
▁떡밥	-3789
▁미쳐	-3790
▁미학	-3791
▁박신	-3792
▁반응	-3793
▁본능	-3794
▁빠질	-3795
▁뻔뻔	-3796
▁소유	-3797
▁쉬운	-3798
▁시종	-3799
▁아리	-3800
▁어떠	-3801
▁위트	-3802
▁의지	-3803
▁이정	-3804
▁추가	-3805
▁허나	-3806
▁화질	-3807
▁환자	-3808
▁가까이	-3809
▁도무지	-3810
▁떨어져	-3811
▁아만다	-3812
▁아이유	-3813
▁왕조현	-3814
▁전성기	-3815
▁절대로	-3816
▁제작자	-3817
▁줘야지	-3818
▁차승원	-3819
▁해준다	-3820
▁호불호	-3821
▁밧	-3822
▁쉴	-3823
▁톤	-3824
▁핀	-3825
상우	-3826
▁걸린	-3827
▁검사	-3828
▁격투	-3829
▁고증	-3830
▁나루	-3831
▁눈치	-3832
▁뒤늦	-3833
▁마찬	-3834
▁성형	-3835
▁세트	-3836
▁셔야	-3837
▁습니	-3838
▁신데	-3839
▁안녕	-3840
▁애잔	-3841
▁잭슨	-3842
▁지원	-3843
▁지지	-3844
▁징그	-3845
▁짠하	-3846
▁짱구	-3847
▁클리	-3848
▁태국	-3849
▁펼쳐	-3850
▁향수	-3851
▁회상	-3852
▁흥분	-3853
▁김혜수	-3854
▁더러워	-3855
▁머릿속	-3856
▁부자연	-3857
▁엄정화	-3858
▁웃겨서	-3859
▁중학생	-3860
▁집니다	-3861
▁키아누	-3862
▁피아노	-3863
▁스릴러물	-3864
▁아닌가요	-3865
▁아마추어	-3866
ay	-3867
▁냥	-3868
▁쌓	-3869
▁콧	-3870
▁헉	-3871
더니	-3872
어스	-3873
저리	-3874
▁광기	-3875
▁구경	-3876
▁께서	-3877
▁낮추	-3878
▁누님	-3879
▁니슨	-3880
▁로망	-3881
▁매주	-3882
▁민폐	-3883
▁박스	-3884
▁박찬	-3885
▁상큼	-3886
▁섬뜩	-3887
▁시킬	-3888
▁실사	-3889
▁역겨	-3890
▁오해	-3891
▁온갖	-3892
▁위주	-3893
▁주관	-3894
▁지리	-3895
▁찬양	-3896
▁포켓	-3897
▁향기	-3898
▁호흡	-3899
▁환장	-3900
▁활용	-3901
▁느껴질	-3902
▁늘어지	-3903
▁멋져요	-3904
▁명배우	-3905
▁모자라	-3906
▁바란다	-3907
▁세계관	-3908
▁슈퍼맨	-3909
▁어린애	-3910
▁외국인	-3911
▁우려먹	-3912
▁마찬가지	-3913
▁안타까움	-3914
▁됫	-3915
▁밍	-3916
▁툭	-3917
드라	-3918
스키	-3919
▁감수	-3920
▁나갈	-3921
▁니매	-3922
▁만세	-3923
▁문득	-3924
▁방황	-3925
▁보석	-3926
▁새록	-3927
▁스톤	-3928
▁스펙	-3929
▁애틋	-3930
▁여지	-3931
▁였을	-3932
▁음향	-3933
▁이딴	-3934
▁이때	-3935
▁이탈	-3936
▁치료	-3937
▁택시	-3938
▁터져	-3939
▁피식	-3940
라이즈	-3941
▁..!	-3942
▁권상우	-3943
▁김희선	-3944
▁드니로	-3945
▁상관없	-3946
▁오리지	-3947
▁포켓몬	-3948
ed	-3949
ig	-3950
tt	-3951
▁닭	-3952
▁똘	-3953
▁즉	-3954
▁층	-3955
▁캠	-3956
▁톱	-3957
라서	-3958
수정	-3959
아리	-3960
으며	-3961
일관	-3962
일러	-3963
트리	-3964
▁과하	-3965
▁나갔	-3966
▁나서	-3967
▁나았	-3968
▁납득	-3969
▁넘쳐	-3970
▁능가	-3971
▁닥터	-3972
▁본격	-3973
▁색채	-3974
▁속도	-3975
▁수면	-3976
▁스필	-3977
▁시켰	-3978
▁아메	-3979
▁어차	-3980
▁열자	-3981
▁우왕	-3982
▁으러	-3983
▁의견	-3984
▁재탕	-3985
▁정적	-3986
▁조기	-3987
▁지하	-3988
▁차리	-3989
▁쳐도	-3990
▁패션	-3991
▁픽션	-3992
▁하네	-3993
▁해선	-3994
▁com	-3995
▁거려서	-3996
▁마르소	-3997
▁살아남	-3998
▁즐거움	-3999
▁카메론	-4000
▁트랜스	-4001
▁풀어낸	-4002
▁할려고	-4003
▁니콜라스	-4004
▁j	-4005
▁딜	-4006
▁랭	-4007
▁뿜	-4008
▁쁨	-4009
▁셀	-4010
▁쉐	-4011
▁켄	-4012
▁홧	-4013
동근	-4014
렐라	-4015
로로	-4016
야지	-4017
▁가만	-4018
▁고향	-4019
▁관리	-4020
▁뉴스	-4021
▁느냐	-4022
▁먹칠	-4023
▁모른	-4024
▁본색	-4025
▁시스	-4026
▁아바	-4027
▁애인	-4028
▁열라	-4029
▁원주	-4030
▁음모	-4031
▁인연	-4032
▁저러	-4033
▁전도	-4034
▁주먹	-4035
▁집단	-4036
▁채워	-4037
▁친절	-4038
▁커버	-4039
▁타인	-4040
▁파라	-4041
▁홀로	-4042
옵니다	-4043
,,,,	-4044
▁그럴싸	-4045
▁나루토	-4046
▁답니다	-4047
▁보여서	-4048
▁생겨서	-4049
▁스타뎀	-4050
▁스페인	-4051
▁아야지	-4052
▁어울림	-4053
▁어차피	-4054
▁영화판	-4055
▁했어요	-4056
▁시종일관	-4057
▁오랫동안	-4058
▁쏴	-4059
▁춘	-4060
고기	-4061
동자	-4062
릭스	-4063
버리	-4064
부지	-4065
성이	-4066
와서	-4067
지훈	-4068
▁it	-4069
▁간단	-4070
▁고작	-4071
▁귀찮	-4072
▁극본	-4073
▁김명	-4074
▁나열	-4075
▁난무	-4076
▁내놓	-4077
▁대역	-4078
▁든가	-4079
▁막상	-4080
▁메리	-4081
▁멘탈	-4082
▁모독	-4083
▁모호	-4084
▁목사	-4085
▁미니	-4086
▁반갑	-4087
▁번역	-4088
▁복선	-4089
▁비참	-4090
▁사장	-4091
▁설경	-4092
▁신부	-4093
▁애정	-4094
▁여고	-4095
▁왕자	-4096
▁외면	-4097
▁우승	-4098
▁유승	-4099
▁으셨	-4100
▁이라	-4101
▁이병	-4102
▁자라	-4103
▁자아	-4104
▁장소	-4105
▁장진	-4106
▁저것	-4107
▁저지	-4108
▁지대	-4109
▁지독	-4110
▁커피	-4111
▁토니	-4112
▁해외	-4113
▁눈물나	-4114
▁다니엘	-4115
▁데이빗	-4116
▁슬퍼요	-4117
▁아니면	-4118
▁어쨌든	-4119
▁오로라	-4120
▁윌리엄	-4121
▁합시다	-4122
▁나온다고	-4123
im	-4124
▁겻	-4125
▁닷	-4126
▁솜	-4127
▁욤	-4128
▁짙	-4129
▁헷	-4130
동원	-4131
이션	-4132
인지	-4133
저것	-4134
▁개발	-4135
▁고리	-4136
▁고스	-4137
▁과연	-4138
▁구석	-4139
▁구할	-4140
▁금지	-4141
▁깜놀	-4142
▁날려	-4143
▁레기	-4144
▁릭터	-4145
▁마구	-4146
▁박시	-4147
▁쁘다	-4148
▁생김	-4149
▁시민	-4150
▁아가	-4151
▁엉뚱	-4152
▁원하	-4153
▁유익	-4154
▁이럼	-4155
▁이종	-4156
▁질문	-4157
▁참여	-4158
▁틀림	-4159
▁할려	-4160
한다면	-4161
,.,.	-4162
▁.!!	-4163
▁MBC	-4164
▁bad	-4165
▁박찬욱	-4166
▁어딘가	-4167
▁원피스	-4168
▁유치원	-4169
▁이스트	-4170
▁일반인	-4171
▁찾아가	-4172
▁테이큰	-4173
▁고등학생	-4174
▁스필버그	-4175
▁이것저것	-4176
▁크리스찬	-4177
▁닫	-4178
▁뚜	-4179
▁쌈	-4180
▁욱	-4181
▁캡	-4182
인드	-4183
하하	-4184
▁."	-4185
▁.;	-4186
▁vs	-4187
▁강호	-4188
▁갖춘	-4189
▁고질	-4190
▁괴수	-4191
▁국산	-4192
▁꺼져	-4193
▁네여	-4194
▁더더	-4195
▁따스	-4196
▁레오	-4197
▁마블	-4198
▁미달	-4199
▁배울	-4200
▁소품	-4201
▁수치	-4202
▁스콧	-4203
▁여유	-4204
▁오직	-4205
▁위안	-4206
▁이자	-4207
▁일찍	-4208
▁자격	-4209
▁제국	-4210
▁졸려	-4211
▁지우	-4212
▁차분	-4213
▁찬사	-4214
▁청년	-4215
▁황금	-4216
▁흔적	-4217
▁히로	-4218
▁들어도	-4219
▁떠올리	-4220
▁떨어졌	-4221
▁무서울	-4222
▁묻어나	-4223
▁비해서	-4224
▁아바타	-4225
▁전지현	-4226
▁최민수	-4227
▁클라스	-4228
▁2015	-4229
▁귀여워서	-4230
▁에드워드	-4231
OO	-4232
ce	-4233
▁맑	-4234
▁멤	-4235
▁웹	-4236
▁좆	-4237
▁츠	-4238
▁펜	-4239
데미	-4240
비치	-4241
온다	-4242
은이	-4243
프레	-4244
해진	-4245
▁28	-4246
▁간직	-4247
▁강요	-4248
▁거듭	-4249
▁군더	-4250
▁나마	-4251
▁납치	-4252
▁다려	-4253
▁동감	-4254
▁뒤집	-4255
▁라스	-4256
▁마라	-4257
▁모방	-4258
▁베트	-4259
▁불법	-4260
▁빌리	-4261
▁빨간	-4262
▁새삼	-4263
▁스탈	-4264
▁아자	-4265
▁오페	-4266
▁우롱	-4267
▁유령	-4268
▁장미	-4269
▁정석	-4270
▁주온	-4271
▁지워	-4272
▁추구	-4273
▁출발	-4274
▁힙합	-4275
▁.."	-4276
▁300	-4277
▁개소리	-4278
▁는다고	-4279
▁데뷔작	-4280
▁설경구	-4281
▁소지섭	-4282
▁우뢰매	-4283
▁최민식	-4284
▁투성이	-4285
▁한국어	-4286
▁OOOO	-4287
▁나온다는	-4288
▁아카데미	-4289
▁U	-4290
▁곁	-4291
▁밉	-4292
▁붉	-4293
버스	-4294
서트	-4295
승헌	-4296
유리	-4297
저분	-4298
진희	-4299
▁an	-4300
▁sf	-4301
▁각각	-4302
▁걸릴	-4303
▁게끔	-4304
▁경악	-4305
▁공허	-4306
▁괴로	-4307
▁기업	-4308
▁난국	-4309
▁노튼	-4310
▁농담	-4311
▁담아	-4312
▁대놓	-4313
▁도로	-4314
▁될지	-4315
▁드만	-4316
▁때로	-4317
▁말리	-4318
▁맥스	-4319
▁믿음	-4320
▁바르	-4321
▁부드	-4322
▁빠짐	-4323
▁소나	-4324
▁실상	-4325
▁심정	-4326
▁심해	-4327
▁안쓰	-4328
▁았었	-4329
▁어땠	-4330
▁어용	-4331
▁울음	-4332
▁이순	-4333
▁이승	-4334
▁이웃	-4335
▁저희	-4336
▁정점	-4337
▁직장	-4338
▁쳐서	-4339
▁태권	-4340
▁태양	-4341
▁팍팍	-4342
▁포드	-4343
▁학원	-4344
▁후기	-4345
▁히스	-4346
▁197	-4347
▁강아지	-4348
▁그럴듯	-4349
▁김명민	-4350
▁마스터	-4351
▁분명히	-4352
▁송승헌	-4353
▁시끄럽	-4354
▁예뻐서	-4355
▁외로움	-4356
▁군더더기	-4357
▁좋아해서	-4358
am	-4359
bb	-4360
id	-4361
▁눌	-4362
▁둥	-4363
▁뚫	-4364
▁련	-4365
▁숲	-4366
▁슨	-4367
▁싼	-4368
▁팩	-4369
가운	-4370
드로	-4371
들리	-4372
머리	-4373
새록	-4374
슬리	-4375
시오	-4376
어야	-4377
타쿠	-4378
태현	-4379
▁,.	-4380
▁가을	-4381
▁감기	-4382
▁감옥	-4383
▁거려	-4384
▁경제	-4385
▁고르	-4386
▁끝났	-4387
▁끝판	-4388
▁놀랬	-4389
▁들리	-4390
▁디자	-4391
▁러셀	-4392
▁멈추	-4393
▁미술	-4394
▁미야	-4395
▁박정	-4396
▁사망	-4397
▁삼가	-4398
▁색깔	-4399
▁생존	-4400
▁소수	-4401
▁수십	-4402
▁시골	-4403
▁심했	-4404
▁없애	-4405
▁엠마	-4406
▁영광	-4407
▁예뻤	-4408
▁유혹	-4409
▁이별	-4410
▁이은	-4411
▁잃어	-4412
▁임신	-4413
▁쟁이	-4414
▁줘요	-4415
▁지역	-4416
▁집안	-4417
▁커녕	-4418
▁컬트	-4419
▁통수	-4420
▁피곤	-4421
▁해져	-4422
▁핸드	-4423
▁향한	-4424
▁김태희	-4425
▁리스트	-4426
▁먹먹해	-4427
▁스릴감	-4428
▁아닌지	-4429
▁어지럽	-4430
▁오페라	-4431
▁젊은이	-4432
▁줄리아	-4433
▁클라라	-4434
▁키드먼	-4435
▁통해서	-4436
▁그렇지만	-4437
▁더라고요	-4438
▁새록새록	-4439
▁신데렐라	-4440
▁안타까웠	-4441
▁이탈리아	-4442
▁긍	-4443
▁꽉	-4444
▁멸	-4445
▁훔	-4446
▁훼	-4447
길래	-4448
러지	-4449
바로	-4450
석규	-4451
스틴	-4452
에몽	-4453
플린	-4454
▁가관	-4455
▁경기	-4456
▁고수	-4457
▁괴담	-4458
▁구라	-4459
▁국제	-4460
▁기록	-4461
▁깨끗	-4462
▁냉정	-4463
▁드물	-4464
▁만날	-4465
▁명확	-4466
▁모순	-4467
▁묘하	-4468
▁본성	-4469
▁봣다	-4470
▁부여	-4471
▁불허	-4472
▁샤론	-4473
▁성경	-4474
▁성숙	-4475
▁열광	-4476
▁오지	-4477
▁위하	-4478
▁유사	-4479
▁으라	-4480
▁이끌	-4481
▁절묘	-4482
▁정통	-4483
▁조심	-4484
▁주위	-4485
▁찰리	-4486
▁케릭	-4487
▁하여	-4488
▁학살	-4489
▁학창	-4490
▁흑흑	-4491
▁강동원	-4492
▁관람객	-4493
▁손예진	-4494
▁신세계	-4495
▁아오이	-4496
▁애국심	-4497
▁액션물	-4498
▁엑스맨	-4499
▁채플린	-4500
▁한석규	-4501
▁도라에몽	-4502
▁부끄러운	-4503
▁아이언맨	-4504
10	-4505
ct	-4506
et	-4507
▁뻣	-4508
▁뼈	-4509
▁팅	-4510
구라	-4511
부로	-4512
비스	-4513
시스	-4514
에도	-4515
▁24	-4516
▁in	-4517
▁가난	-4518
▁강지	-4519
▁경계	-4520
▁고소	-4521
▁관대	-4522
▁구지	-4523
▁기타	-4524
▁김선	-4525
▁끊기	-4526
▁남매	-4527
▁남아	-4528
▁노예	-4529
▁디스	-4530
▁로마	-4531
▁마마	-4532
▁먼지	-4533
▁멀리	-4534
▁몰락	-4535
▁미인	-4536
▁수다	-4537
▁순진	-4538
▁스킵	-4539
▁스틸	-4540
▁쓴다	-4541
▁역작	-4542
▁요원	-4543
▁울림	-4544
▁재료	-4545
▁재현	-4546
▁저주	-4547
▁적극	-4548
▁져서	-4549
▁지배	-4550
▁차기	-4551
▁첩보	-4552
▁추악	-4553
▁카피	-4554
▁허전	-4555
습니다	-4556
▁123	-4557
▁김구라	-4558
▁김민종	-4559
▁나와라	-4560
▁더더욱	-4561
▁돌아오	-4562
▁레이첼	-4563
▁로버츠	-4564
▁브라인	-4565
▁스러울	-4566
▁신세경	-4567
▁원주율	-4568
▁으세요	-4569
▁이병헌	-4570
▁장동건	-4571
▁적나라	-4572
▁전라도	-4573
▁타이틀	-4574
▁함부로	-4575
▁2013	-4576
▁다운로드	-4577
il	-4578
▁꽁	-4579
▁델	-4580
▁롯	-4581
▁빗	-4582
▁졋	-4583
니스	-4584
싸움	-4585
아이	-4586
장센	-4587
▁강제	-4588
▁고급	-4589
▁공원	-4590
▁구원	-4591
▁날아	-4592
▁데드	-4593
▁동원	-4594
▁또는	-4595
▁람보	-4596
▁려니	-4597
▁마니	-4598
▁맞음	-4599
▁머지	-4600
▁멤버	-4601
▁묵직	-4602
▁뭔데	-4603
▁바꾼	-4604
▁바래	-4605
▁배워	-4606
▁볼일	-4607
▁사냥	-4608
▁성찰	-4609
▁세여	-4610
▁수위	-4611
▁수정	-4612
▁실적	-4613
▁쏘우	-4614
▁에릭	-4615
▁예쁨	-4616
▁요약	-4617
▁우스	-4618
▁우아	-4619
▁우월	-4620
▁위기	-4621
▁임청	-4622
▁작년	-4623
▁접하	-4624
▁정사	-4625
▁주행	-4626
▁최선	-4627
▁취급	-4628
▁키우	-4629
▁피디	-4630
▁한정	-4631
▁할배	-4632
▁홍진	-4633
▁홧팅	-4634
▁기다렸	-4635
▁대놓고	-4636
▁들어오	-4637
▁미장센	-4638
▁샌들러	-4639
▁엑소시	-4640
▁일어날	-4641
▁장난감	-4642
▁재방송	-4643
▁존재감	-4644
▁지저분	-4645
▁플레이	-4646
▁황정민	-4647
▁2005	-4648
▁어울린다	-4649
▁긋	-4650
▁닝	-4651
▁딘	-4652
▁맺	-4653
▁멕	-4654
▁뻤	-4655
▁삘	-4656
▁싹	-4657
▁즘	-4658
▁퉤	-4659
덩이	-4660
로그	-4661
리즘	-4662
미스	-4663
스카	-4664
실히	-4665
우치	-4666
평식	-4667
포머	-4668
▁,,	-4669
▁경의	-4670
▁구도	-4671
▁김영	-4672
▁꺼내	-4673
▁대비	-4674
▁마을	-4675
▁망설	-4676
▁망해	-4677
▁모델	-4678
▁버무	-4679
▁부각	-4680
▁부디	-4681
▁부를	-4682
▁붙이	-4683
▁소문	-4684
▁송지	-4685
▁시체	-4686
▁아끼	-4687
▁안겨	-4688
▁양반	-4689
▁여왕	-4690
▁연령	-4691
▁연장	-4692
▁오유	-4693
▁와중	-4694
▁외치	-4695
▁이겨	-4696
▁이태	-4697
▁잠수	-4698
▁정화	-4699
▁조명	-4700
▁조직	-4701
▁종합	-4702
▁증명	-4703
▁지적	-4704
▁징징	-4705
▁초기	-4706
▁토끼	-4707
▁토할	-4708
▁티나	-4709
▁팝콘	-4710
▁행위	-4711
▁효주	-4712
▁힘드	-4713
▁The	-4714
▁거슬리	-4715
▁공감대	-4716
▁느낀다	-4717
▁박평식	-4718
▁버린다	-4719
▁보낸다	-4720
▁엉터리	-4721
▁입니까	-4722
▁정확히	-4723
▁조승우	-4724
▁풀어내	-4725
▁할수록	-4726
▁했어도	-4727
▁아프리카	-4728
▁트랜스포머	-4729
▁끓	-4730
▁넓	-4731
▁띠	-4732
▁랩	-4733
▁립	-4734
▁맷	-4735
▁묶	-4736
▁믄	-4737
▁펭	-4738
▁헝	-4739
고두	-4740
란히	-4741
렌스	-4742
본다	-4743
스케	-4744
운데	-4745
▁.,	-4746
▁경이	-4747
▁계시	-4748
▁공식	-4749
▁괴롭	-4750
▁교수	-4751
▁김윤	-4752
▁나비	-4753
▁노골	-4754
▁단역	-4755
▁디젤	-4756
▁떠들	-4757
▁뚝뚝	-4758
▁레드	-4759
▁마크	-4760
▁마틴	-4761
▁매트	-4762
▁메인	-4763
▁배려	-4764
▁변호	-4765
▁봐왔	-4766
▁사형	-4767
▁서스	-4768
▁신념	-4769
▁오마	-4770
▁원했	-4771
▁이지	-4772
▁자위	-4773
▁재주	-4774
▁저거	-4775
▁저게	-4776
▁지극	-4777
▁차마	-4778
▁출현	-4779
▁해냈	-4780
▁호텔	-4781
고두고	-4782
스트라	-4783
▁감정선	-4784
▁드러나	-4785
▁뜨거운	-4786
▁미국인	-4787
▁봣어요	-4788
▁사나이	-4789
▁사라져	-4790
▁색다르	-4791
▁실패작	-4792
▁예술가	-4793
▁위원회	-4794
▁이연희	-4795
▁임청하	-4796
▁차태현	-4797
▁파이팅	-4798
▁두고두고	-4799
▁...........	-4800
cn	-4801
▁갇	-4802
▁겸	-4803
▁덧	-4804
▁뎀	-4805
▁뜯	-4806
▁밌	-4807
▁뷰	-4808
▁셜	-4809
▁윈	-4810
▁쟁	-4811
▁줫	-4812
▁쭈	-4813
구니	-4814
구리	-4815
다른	-4816
라지	-4817
저나	-4818
커스	-4819
크스	-4820
혜교	-4821
효진	-4822
ttp	-4823
▁가깝	-4824
▁갈리	-4825
▁구멍	-4826
▁극찬	-4827
▁기념	-4828
▁김소	-4829
▁끌리	-4830
▁남발	-4831
▁뉴욕	-4832
▁동호	-4833
▁드릴	-4834
▁라며	-4835
▁마케	-4836
▁멀쩡	-4837
▁무색	-4838
▁미묘	-4839
▁박사	-4840
▁반감	-4841
▁백배	-4842
▁밴드	-4843
▁빙판	-4844
▁생략	-4845
▁서프	-4846
▁스카	-4847
▁스키	-4848
▁식스	-4849
▁신하	-4850
▁쓰레	-4851
▁어떨	-4852
▁에다	-4853
▁에스	-4854
▁오만	-4855
▁이수	-4856
▁이영	-4857
▁이외	-4858
▁자단	-4859
▁작전	-4860
▁잔한	-4861
▁절반	-4862
▁줘라	-4863
▁체험	-4864
▁총격	-4865
▁크로	-4866
▁퇴보	-4867
▁특징	-4868
▁풍부	-4869
▁허탈	-4870
▁혹평	-4871
▁흔하	-4872
▁흠잡	-4873
리스트	-4874
▁CGV	-4875
▁고질라	-4876
▁그지없	-4877
▁꼬맹이	-4878
▁남긴다	-4879
▁들어왔	-4880
▁빠져드	-4881
▁성유리	-4882
▁송혜교	-4883
▁수면제	-4884
▁안성기	-4885
▁할게요	-4886
▁2003	-4887
▁http	-4888
▁그나저나	-4889
▁그럼에도	-4890
▁무서워서	-4891
▁겄	-4892
▁닉	-4893
▁랏	-4894
▁잣	-4895
▁쫒	-4896
구요	-4897
너지	-4898
더스	-4899
린트	-4900
브리	-4901
역사	-4902
유미	-4903
저기	-4904
조리	-4905
티브	-4906
▁or	-4907
▁강조	-4908
▁걸렸	-4909
▁기간	-4910
▁기어	-4911
▁끊임	-4912
▁다던	-4913
▁다케	-4914
▁덴젤	-4915
▁돼서	-4916
▁등급	-4917
▁떄문	-4918
▁모여	-4919
▁문학	-4920
▁발레	-4921
▁배드	-4922
▁배틀	-4923
▁법정	-4924
▁뻔히	-4925
▁수선	-4926
▁엉엉	-4927
▁예의	-4928
▁워커	-4929
▁으아	-4930
▁의해	-4931
▁일관	-4932
▁장군	-4933
▁전락	-4934
▁전환	-4935
▁젊음	-4936
▁접근	-4937
▁종일	-4938
▁주원	-4939
▁지니	-4940
▁지인	-4941
▁짱나	-4942
▁초점	-4943
▁최하	-4944
▁퀴어	-4945
▁큐브	-4946
▁타령	-4947
▁투표	-4948
▁트라	-4949
▁파트	-4950
▁패턴	-4951
▁활동	-4952
▁흐뭇	-4953
▁강지환	-4954
▁놀래키	-4955
▁다지만	-4956
▁대단히	-4957
▁루이스	-4958
▁모성애	-4959
▁무너지	-4960
▁미이라	-4961
▁스텝업	-4962
▁스피드	-4963
▁아아아	-4964
▁이은주	-4965
▁인터뷰	-4966
▁쥬라기	-4967
▁파이어	-4968
▁흑역사	-4969
▁2004	-4970
▁best	-4971
▁사무라이	-4972
▁여기저기	-4973
▁크리스토	-4974
▁서프라이즈	-4975
▁깃	-4976
▁득	-4977
▁랴	-4978
▁밨	-4979
▁썻	-4980
▁앜	-4981
▁얽	-4982
▁켜	-4983
▁핫	-4984
렉스	-4985
봐도	-4986
상욱	-4987
스틱	-4988
웍스	-4989
진창	-4990
현준	-4991
ove	-4992
▁35	-4993
▁98	-4994
▁PD	-4995
▁가시	-4996
▁가해	-4997
▁고래	-4998
▁그치	-4999
▁기도	-5000
▁김남	-5001
▁김재	-5002
▁난감	-5003
▁대만	-5004
▁등등	-5005
▁똑똑	-5006
▁레인	-5007
▁막힌	-5008
▁묻혀	-5009
▁박해	-5010
▁보스	-5011
▁보인	-5012
▁부른	-5013
▁불면	-5014
▁불행	-5015
▁비롯	-5016
▁비싼	-5017
▁뽕짝	-5018
▁선율	-5019
▁싱크	-5020
▁써서	-5021
▁야하	-5022
▁었었	-5023
▁에러	-5024
▁영활	-5025
▁오인	-5026
▁오토	-5027
▁우익	-5028
▁원표	-5029
▁유희	-5030
▁작렬	-5031
▁장치	-5032
▁장혁	-5033
▁종류	-5034
▁죽임	-5035
▁중후	-5036
▁진작	-5037
▁찜찜	-5038
▁춤추	-5039
▁타지	-5040
▁퍼즐	-5041
▁편의	-5042
▁풀리	-5043
▁피라	-5044
▁하차	-5045
▁허구	-5046
▁헷갈	-5047
▁홍금	-5048
▁흐지	-5049
파이어	-5050
합니다	-5051
▁가져다	-5052
▁그래요	-5053
▁깨달음	-5054
▁는다면	-5055
▁두려움	-5056
▁똑바로	-5057
▁런닝맨	-5058
▁마케팅	-5059
▁벌어지	-5060
▁사라졌	-5061
▁신하균	-5062
▁어쩌다	-5063
▁올라갈	-5064
▁일요일	-5065
▁제작사	-5066
▁조용히	-5067
▁주상욱	-5068
▁짜여진	-5069
▁헤어지	-5070
▁very	-5071
▁받아들이	-5072
▁아기자기	-5073
▁엉망진창	-5074
▁흐지부지	-5075
▁껍	-5076
▁꾹	-5077
▁랍	-5078
▁랫	-5079
▁룰	-5080
▁뭡	-5081
▁밟	-5082
▁앓	-5083
▁왈	-5084
▁퀸	-5085
▁픔	-5086
거워	-5087
근석	-5088
러워	-5089
민아	-5090
이드	-5091
▁23	-5092
▁계획	-5093
▁과잉	-5094
▁글구	-5095
▁기승	-5096
▁김성	-5097
▁느슨	-5098
▁데미	-5099
▁동료	-5100
▁들려	-5101
▁딱딱	-5102
▁라마	-5103
▁미만	-5104
▁바랬	-5105
▁반부	-5106
▁반했	-5107
▁보호	-5108
▁분석	-5109
▁빅뱅	-5110
▁빼놓	-5111
▁세이	-5112
▁써라	-5113
▁써요	-5114
▁언론	-5115
▁역활	-5116
▁외화	-5117
▁웅장	-5118
▁원인	-5119
▁은가	-5120
▁이랬	-5121
▁재발	-5122
▁저녁	-5123
▁저번	-5124
▁죽였	-5125
▁지내	-5126
▁창의	-5127
▁침묵	-5128
▁카타	-5129
▁파고	-5130
▁파악	-5131
▁파일	-5132
▁학대	-5133
▁해짐	-5134
▁향해	-5135
▁휴먼	-5136
▁ebs	-5137
▁겁니까	-5138
▁나타내	-5139
▁넘어선	-5140
▁노동자	-5141
▁류승범	-5142
▁뭡니까	-5143
▁브레이	-5144
▁뻔해서	-5145
▁송지효	-5146
▁스텔라	-5147
▁알려준	-5148
▁앞부분	-5149
▁양동근	-5150
▁유지태	-5151
▁이순신	-5152
▁장근석	-5153
▁지극히	-5154
▁합니까	-5155
▁1000	-5156
▁드림웍스	-5157
▁안타까울	-5158
▁자본주의	-5159
▁이스트우드	-5160
zz	-5161
▁덥	-5162
▁뜸	-5163
▁띵	-5164
▁랜	-5165
▁쉣	-5166
다보	-5167
래도	-5168
스턴	-5169
준호	-5170
펜스	-5171
평가	-5172
혜선	-5173
효주	-5174
▁가식	-5175
▁간간	-5176
▁고발	-5177
▁과대	-5178
▁귀요	-5179
▁그분	-5180
▁극한	-5181
▁김현	-5182
▁깁슨	-5183
▁난생	-5184
▁녹화	-5185
▁느린	-5186
▁단언	-5187
▁대기	-5188
▁도입	-5189
▁디지	-5190
▁리브	-5191
▁묘미	-5192
▁배운	-5193
▁뻐요	-5194
▁서인	-5195
▁수애	-5196
▁싸울	-5197
▁아웃	-5198
▁아일	-5199
▁약해	-5200
▁예매	-5201
▁웃길	-5202
▁일탈	-5203
▁임권	-5204
▁작정	-5205
▁절절	-5206
▁증거	-5207
▁질주	-5208
▁짐승	-5209
▁총질	-5210
▁태도	-5211
▁펭귄	-5212
▁헐크	-5213
▁현장	-5214
▁호소	-5215
▁훈련	-5216
▁.,,	-5217
▁가해자	-5218
▁고마운	-5219
▁구혜선	-5220
▁글쎄요	-5221
▁끝난다	-5222
▁된다면	-5223
▁드러내	-5224
▁마음속	-5225
▁모티브	-5226
▁보여줌	-5227
▁신민아	-5228
▁아시아	-5229
▁아이고	-5230
▁엉덩이	-5231
▁자세히	-5232
▁잠수함	-5233
▁지나친	-5234
▁클린트	-5235
▁태어난	-5236
▁고스란히	-5237
▁뱀파이어	-5238
▁봐야겠다	-5239
▁서스펜스	-5240
▁잃어버린	-5241
el	-5242
op	-5243
▁료	-5244
▁밸	-5245
▁빤	-5246
▁쏙	-5247
▁욬	-5248
▁쯔	-5249
그리	-5250
따위	-5251
맹랑	-5252
아라	-5253
펙트	-5254
피아	-5255
혜정	-5256
▁sh	-5257
▁가질	-5258
▁간첩	-5259
▁고는	-5260
▁고로	-5261
▁곱씹	-5262
▁긍정	-5263
▁김동	-5264
▁날렸	-5265
▁대구	-5266
▁동기	-5267
▁따윈	-5268
▁딸리	-5269
▁땜시	-5270
▁레즈	-5271
▁로움	-5272
▁마츠	-5273
▁매혹	-5274
▁멘붕	-5275
▁물건	-5276
▁바리	-5277
▁부대	-5278
▁붙여	-5279
▁사다	-5280
▁서기	-5281
▁서방	-5282
▁서사	-5283
▁섭외	-5284
▁소방	-5285
▁수지	-5286
▁스마	-5287
▁습작	-5288
▁심히	-5289
▁써도	-5290
▁애쓰	-5291
▁양조	-5292
▁온몸	-5293
▁용감	-5294
▁워싱	-5295
▁웹툰	-5296
▁이준	-5297
▁저기	-5298
▁제리	-5299
▁젠장	-5300
▁져요	-5301
▁조조	-5302
▁존중	-5303
▁졸음	-5304
▁주체	-5305
▁준거	-5306
▁지존	-5307
▁진주	-5308
▁차려	-5309
▁차지	-5310
▁창조	-5311
▁추락	-5312
▁푸른	-5313
▁해안	-5314
▁해질	-5315
▁활약	-5316
▁휴가	-5317
▁히트	-5318
▁500	-5319
▁KBS	-5320
▁꼬라지	-5321
▁담아내	-5322
▁대학생	-5323
▁드려요	-5324
▁떄문에	-5325
▁떨어뜨	-5326
▁무리수	-5327
▁별다른	-5328
▁본다고	-5329
▁불면증	-5330
▁사라진	-5331
▁스티브	-5332
▁예뻐요	-5333
▁웃긴다	-5334
▁임권택	-5335
▁적절히	-5336
▁준다는	-5337
▁행크스	-5338
▁돋보인다	-5339
▁드래곤볼	-5340
▁어우러진	-5341
▁코스프레	-5342
▁허무맹랑	-5343
▁엑소시스트	-5344
▁??????	-5345
▁Y	-5346
▁램	-5347
▁렌	-5348
▁룡	-5349
▁빚	-5350
▁셰	-5351
▁츄	-5352
▁훗	-5353
강우	-5354
같이	-5355
긴다	-5356
래셔	-5357
러움	-5358
리나	-5359
자키	-5360
절로	-5361
프트	-5362
하늘	-5363
est	-5364
ion	-5365
▁가졌	-5366
▁강시	-5367
▁거창	-5368
▁곳곳	-5369
▁공개	-5370
▁과감	-5371
▁구해	-5372
▁김대	-5373
▁논하	-5374
▁도데	-5375
▁마사	-5376
▁마요	-5377
▁명곡	-5378
▁무얼	-5379
▁물리	-5380
▁물씬	-5381
▁미리	-5382
▁미사	-5383
▁미지	-5384
▁박하	-5385
▁봣는	-5386
▁불후	-5387
▁뻔해	-5388
▁손꼽	-5389
▁시끄	-5390
▁시티	-5391
▁시한	-5392
▁실소	-5393
▁아키	-5394
▁어여	-5395
▁여정	-5396
▁열린	-5397
▁엽문	-5398
▁오디	-5399
▁울려	-5400
▁유도	-5401
▁유우	-5402
▁은은	-5403
▁인내	-5404
▁임파	-5405
▁장편	-5406
▁저렴	-5407
▁전국	-5408
▁제미	-5409
▁주목	-5410
▁진하	-5411
▁질러	-5412
▁창작	-5413
▁총알	-5414
▁카드	-5415
▁타락	-5416
▁터진	-5417
▁투신	-5418
▁필수	-5419
▁현상	-5420
▁환불	-5421
▁흡사	-5422
▁ocn	-5423
▁강혜정	-5424
▁금요일	-5425
▁김강우	-5426
▁끌어내	-5427
▁도망가	-5428
▁몬스터	-5429
▁베트남	-5430
▁생각났	-5431
▁슬래셔	-5432
▁슬퍼서	-5433
▁오타쿠	-5434
▁워싱턴	-5435
▁으라고	-5436
▁이동욱	-5437
▁이름값	-5438
▁임수정	-5439
▁저절로	-5440
▁정신없	-5441
▁줄리엣	-5442
▁지금껏	-5443
▁콘서트	-5444
▁한동안	-5445
▁2010	-5446
▁미야자키	-5447
99	-5448
ch	-5449
▁꼇	-5450
▁넋	-5451
▁넼	-5452
▁믹	-5453
▁챔	-5454
▁턱	-5455
▁헨	-5456
▁횡	-5457
▁힌	-5458
능력	-5459
비아	-5460
서블	-5461
은경	-5462
이다	-5463
지우	-5464
쯔이	-5465
혀서	-5466
▁me	-5467
▁on	-5468
▁st	-5469
▁거울	-5470
▁건너	-5471
▁경쾌	-5472
▁계신	-5473
▁고기	-5474
▁고은	-5475
▁고찰	-5476
▁공존	-5477
▁구먼	-5478
▁국적	-5479
▁그룹	-5480
▁끝남	-5481
▁남김	-5482
▁내놔	-5483
▁대안	-5484
▁대장	-5485
▁대형	-5486
▁덜덜	-5487
▁도덕	-5488
▁두말	-5489
▁르네	-5490
▁망상	-5491
▁머피	-5492
▁먼가	-5493
▁멸망	-5494
▁미흡	-5495
▁바치	-5496
▁박지	-5497
▁발생	-5498
▁법칙	-5499
▁사토	-5500
▁삽입	-5501
▁서영	-5502
▁소박	-5503
▁스무	-5504
▁실컷	-5505
▁씨네	-5506
▁암살	-5507
▁야마	-5508
▁어벤	-5509
▁어처	-5510
▁언급	-5511
▁여야	-5512
▁여진	-5513
▁영감	-5514
▁오류	-5515
▁욕구	-5516
▁우습	-5517
▁으으	-5518
▁이념	-5519
▁자료	-5520
▁잡스	-5521
▁장인	-5522
▁조각	-5523
▁진보	-5524
▁진화	-5525
▁철저	-5526
▁최저	-5527
▁최진	-5528
▁충무	-5529
▁침몰	-5530
▁퍼스	-5531
▁할께	-5532
▁합리	-5533
▁호강	-5534
▁황비	-5535
▁흔히	-5536
▁흘렀	-5537
냅니다	-5538
레인저	-5539
립니다	-5540
▁가르쳐	-5541
▁강호동	-5542
▁걸까요	-5543
▁귀요미	-5544
▁기대감	-5545
▁김하늘	-5546
▁내려가	-5547
▁놀라울	-5548
▁되돌아	-5549
▁둘째치	-5550
▁들으면	-5551
▁디자인	-5552
▁마인드	-5553
▁맙시다	-5554
▁양조위	-5555
▁에게서	-5556
▁였으면	-5557
▁오우삼	-5558
▁왕가위	-5559
▁은데요	-5560
▁장나라	-5561
▁장쯔이	-5562
▁졌으면	-5563
▁지겨워	-5564
▁집어넣	-5565
▁크로우	-5566
▁탕웨이	-5567
▁한효주	-5568
▁했을까	-5569
▁홍진호	-5570
▁나옵니다	-5571
▁매트릭스	-5572
▁오리지널	-5573
▁임파서블	-5574
▁크리스토퍼	-5575
ht	-5576
if	-5577
▁럼	-5578
▁뺨	-5579
두근	-5580
부림	-5581
일으	-5582
프만	-5583
▁so	-5584
▁간절	-5585
▁갑갑	-5586
▁겠다	-5587
▁고고	-5588
▁그곳	-5589
▁기보	-5590
▁김보	-5591
▁나누	-5592
▁내겐	-5593
▁내보	-5594
▁내세	-5595
▁넘겨	-5596
▁놓친	-5597
▁뇌리	-5598
▁다구	-5599
▁달러	-5600
▁대가	-5601
▁대책	-5602
▁돌이	-5603
▁동일	-5604
▁든데	-5605
▁뛰쳐	-5606
▁라던	-5607
▁마땅	-5608
▁마초	-5609
▁망함	-5610
▁무성	-5611
▁무적	-5612
▁믿겨	-5613
▁바뀐	-5614
▁박자	-5615
▁배웠	-5616
▁병사	-5617
▁부수	-5618
▁비난	-5619
▁성지	-5620
▁소림	-5621
▁솜씨	-5622
▁수술	-5623
▁시네	-5624
▁신앙	-5625
▁써야	-5626
▁악한	-5627
▁안경	-5628
▁안정	-5629
▁어의	-5630
▁역쉬	-5631
▁요한	-5632
▁윤아	-5633
▁이입	-5634
▁작인	-5635
▁잠자	-5636
▁잡히	-5637
▁접한	-5638
▁정성	-5639
▁지간	-5640
▁지성	-5641
▁직원	-5642
▁진영	-5643
▁치우	-5644
▁콤비	-5645
▁클럽	-5646
▁클루	-5647
▁트리	-5648
▁해줘	-5649
▁형성	-5650
▁황제	-5651
▁황홀	-5652
▁회장	-5653
▁후진	-5654
머니즘	-5655
▁120	-5656
▁깁니다	-5657
▁담아낸	-5658
▁대표작	-5659
▁동아리	-5660
▁멋대로	-5661
▁못생긴	-5662
▁살인자	-5663
▁설레임	-5664
▁신현준	-5665
▁심해서	-5666
▁어찌나	-5667
▁에너지	-5668
▁여동생	-5669
▁와이프	-5670
▁웃겨요	-5671
▁으려는	-5672
▁정재영	-5673
▁졸려서	-5674
▁주지훈	-5675
▁초능력	-5676
▁케이트	-5677
▁현대인	-5678
▁황비홍	-5679
▁2001	-5680
▁두근두근	-5681
▁불러일으	-5682
▁스러워서	-5683
▁쓰레기통	-5684
▁아무래도	-5685
▁인디아나	-5686
▁파워레인저	-5687
▁!!!!!!!	-5688
og	-5689
▁긔	-5690
▁떳	-5691
▁쎄	-5692
▁웩	-5693
▁턴	-5694
▁텅	-5695
▁틴	-5696
▁흰	-5697
대기	-5698
로운	-5699
범수	-5700
시기	-5701
재현	-5702
처럼	-5703
▁97	-5704
▁no	-5705
▁가게	-5706
▁가라	-5707
▁가사	-5708
▁감당	-5709
▁갑작	-5710
▁개독	-5711
▁개미	-5712
▁건진	-5713
▁걸음	-5714
▁관념	-5715
▁그놈	-5716
▁깜찍	-5717
▁끝냈	-5718
▁농구	-5719
▁다수	-5720
▁당당	-5721
▁록키	-5722
▁롯데	-5723
▁마주	-5724
▁매기	-5725
▁매회	-5726
▁므로	-5727
▁미개	-5728
▁백만	-5729
▁보장	-5730
▁부재	-5731
▁불꽃	-5732
▁불만	-5733
▁붕괴	-5734
▁비틀	-5735
▁빼앗	-5736
▁뻔했	-5737
▁사정	-5738
▁산다	-5739
▁상투	-5740
▁서민	-5741
▁설렘	-5742
▁속지	-5743
▁슈렉	-5744
▁스캔	-5745
▁신성	-5746
▁쏠쏠	-5747
▁악평	-5748
▁안다	-5749
▁안젤	-5750
▁압박	-5751
▁어딨	-5752
▁어렷	-5753
▁얼른	-5754
▁이재	-5755
▁입력	-5756
▁자매	-5757
▁자비	-5758
▁작업	-5759
▁조성	-5760
▁주옥	-5761
▁추잡	-5762
▁측면	-5763
▁콧물	-5764
▁투박	-5765
▁파티	-5766
▁함정	-5767
▁화신	-5768
▁후지	-5769
▁.??	-5770
▁kbs	-5771
▁가운데	-5772
▁가치관	-5773
▁그리운	-5774
▁남아돌	-5775
▁더니만	-5776
▁레이싱	-5777
▁몰라서	-5778
▁뭔가요	-5779
▁본다는	-5780
▁살아나	-5781
▁수준급	-5782
▁시스템	-5783
▁어느새	-5784
▁어떨까	-5785
▁와이어	-5786
▁조선족	-5787
▁짓거리	-5788
▁크레이	-5789
▁투자자	-5790
▁프레디	-5791
▁해리슨	-5792
▁흘러도	-5793
▁..!!	-5794
▁2009	-5795
▁그러니까	-5796
▁보냅니다	-5797
▁어처구니	-5798
▁크리스틴	-5799
ve	-5800
▁됌	-5801
▁럭	-5802
▁샀	-5803
▁숫	-5804
▁잎	-5805
▁큼	-5806
▁팽	-5807
▁펀	-5808
▁푼	-5809
구석	-5810
규리	-5811
근영	-5812
데터	-5813
리칸	-5814
무니	-5815
므로	-5816
보잡	-5817
서린	-5818
센트	-5819
시고	-5820
아즈	-5821
잡이	-5822
칼렛	-5823
ill	-5824
▁MC	-5825
▁er	-5826
▁갖추	-5827
▁걸려	-5828
▁결합	-5829
▁고려	-5830
▁고백	-5831
▁광주	-5832
▁교감	-5833
▁근육	-5834
▁끈다	-5835
▁끌려	-5836
▁끝날	-5837
▁나눠	-5838
▁나인	-5839
▁노리	-5840
▁놨다	-5841
▁누르	-5842
▁다기	-5843
▁다듬	-5844
▁대략	-5845
▁대리	-5846
▁들인	-5847
▁매년	-5848
▁머신	-5849
▁메가	-5850
▁몰래	-5851
▁미칠	-5852
▁반가	-5853
▁복제	-5854
▁봣음	-5855
▁비유	-5856
▁상쾌	-5857
▁서정	-5858
▁선배	-5859
▁순이	-5860
▁실종	-5861
▁앵글	-5862
▁야한	-5863
▁오싹	-5864
▁요구	-5865
▁우드	-5866
▁운영	-5867
▁유오	-5868
▁유혼	-5869
▁육체	-5870
▁인과	-5871
▁일기	-5872
▁일체	-5873
▁자전	-5874
▁장기	-5875
▁재치	-5876
▁조여	-5877
▁조인	-5878
▁주민	-5879
▁중세	-5880
▁질투	-5881
▁짜내	-5882
▁치열	-5883
▁크리	-5884
▁팬더	-5885
▁평정	-5886
▁프렌	-5887
▁피스	-5888
▁하얀	-5889
▁한글	-5890
▁한예	-5891
▁허니	-5892
▁헌터	-5893
▁헤이	-5894
▁회복	-5895
▁효민	-5896
▁훼손	-5897
▁간간히	-5898
▁거든요	-5899
▁그레이	-5900
▁기보단	-5901
▁더욱더	-5902
▁듣보잡	-5903
▁따라서	-5904
▁라디오	-5905
▁멍청이	-5906
▁모자란	-5907
▁문근영	-5908
▁사다코	-5909
▁스칼렛	-5910
▁신파극	-5911
▁어려서	-5912
▁어려울	-5913
▁어설퍼	-5914
▁웨슬리	-5915
▁잘생긴	-5916
▁재발견	-5917
▁조재현	-5918
▁중국인	-5919
▁클리셰	-5920
▁튀어나	-5921
▁페이지	-5922
▁바이러스	-5923
▁아메리칸	-5924
▁안타까워	-5925
▁에서부터	-5926
▁윌리엄스	-5927
▁촌스러운	-5928
▁프레데터	-5929
▁휴머니즘	-5930
▁10000	-5931
ap	-5932
bc	-5933
ld	-5934
▁낄	-5935
▁닐	-5936
▁댐	-5937
▁벙	-5938
▁샹	-5939
▁썬	-5940
▁쒸	-5941
▁윽	-5942
▁쨋	-5943
▁킨	-5944
▁텔	-5945
▁횽	-5946
러리	-5947
밀리	-5948
셉션	-5949
오르	-5950
토리	-5951
하면	-5952
▁XX	-5953
▁av	-5954
▁각성	-5955
▁개떡	-5956
▁과도	-5957
▁그릇	-5958
▁근거	-5959
▁기엔	-5960
▁낮춰	-5961
▁넘버	-5962
▁눈부	-5963
▁눈요	-5964
▁단조	-5965
▁당해	-5966
▁먹이	-5967
▁무능	-5968
▁미루	-5969
▁밀라	-5970
▁밀리	-5971
▁발톱	-5972
▁발휘	-5973
▁버티	-5974
▁변해	-5975
▁본드	-5976
▁봉작	-5977
▁부턴	-5978
▁사전	-5979
▁서서	-5980
▁소비	-5981
▁수도	-5982
▁수영	-5983
▁순정	-5984
▁시바	-5985
▁실존	-5986
▁싫어	-5987
▁쌍욕	-5988
▁써먹	-5989
▁앨런	-5990
▁어깨	-5991
▁어둠	-5992
▁옹호	-5993
▁욕할	-5994
▁운운	-5995
▁윤계	-5996
▁이슈	-5997
▁이슬	-5998
▁이터	-5999
▁자제	-6000
▁자존	-6001
▁자칫	-6002
▁잘난	-6003
▁잠든	-6004
▁재회	-6005
▁적응	-6006
▁정권	-6007
▁정돈	-6008
▁제도	-6009
▁제법	-6010
▁져야	-6011
▁좌파	-6012
▁지라	-6013
▁직전	-6014
▁진구	-6015
▁차인	-6016
▁초대	-6017
▁초심	-6018
▁초콜	-6019
▁추적	-6020
▁치고	-6021
▁친다	-6022
▁쾌감	-6023
▁평하	-6024
▁표본	-6025
▁하야	-6026
▁현빈	-6027
▁확신	-6028
▁후유	-6029
니버스	-6030
▁and	-6031
▁그려냈	-6032
▁김남길	-6033
▁김선아	-6034
▁꺼버렸	-6035
▁나왔었	-6036
▁나타난	-6037
▁다케시	-6038
▁데려다	-6039
▁들어갔	-6040
▁로렌스	-6041
▁변호사	-6042
▁산드라	-6043
▁슈스케	-6044
▁스캔들	-6045
▁십니다	-6046
▁씁니다	-6047
▁알맹이	-6048
▁알아보	-6049
▁어려움	-6050
▁어려웠	-6051
▁어울렸	-6052
▁어째서	-6053
▁에다가	-6054
▁에라이	-6055
▁연기파	-6056
▁영상물	-6057
▁오인혜	-6058
▁이범수	-6059
▁인셉션	-6060
▁일본식	-6061
▁지진희	-6062
▁지하철	-6063
▁집중력	-6064
▁출연료	-6065
▁충무로	-6066
▁코스트	-6067
▁클루니	-6068
▁핸드폰	-6069
▁...?	-6070
▁엑스트라	-6071
▁하나같이	-6072
45	-6073
ic	-6074
▁꺄	-6075
▁꽂	-6076
▁뉘	-6077
▁닦	-6078
▁샷	-6079
▁엌	-6080
▁캅	-6081
리즈	-6082
맨쇼	-6083
슬기	-6084
시원	-6085
이치	-6086
춘기	-6087
카시	-6088
탤론	-6089
ent	-6090
▁OC	-6091
▁gt	-6092
▁my	-6093
▁각인	-6094
▁건물	-6095
▁고정	-6096
▁공기	-6097
▁교차	-6098
▁구로	-6099
▁글로	-6100
▁금방	-6101
▁급하	-6102
▁기동	-6103
▁까먹	-6104
▁느려	-6105
▁늘리	-6106
▁대변	-6107
▁독창	-6108
▁동급	-6109
▁똥폼	-6110
▁루지	-6111
▁루크	-6112
▁말기	-6113
▁못지	-6114
▁무도	-6115
▁무의	-6116
▁문명	-6117
▁박한	-6118
▁변명	-6119
▁변함	-6120
▁보영	-6121
▁분열	-6122
▁불리	-6123
▁사연	-6124
▁샤를	-6125
▁서극	-6126
▁성향	-6127
▁소린	-6128
▁스탠	-6129
▁승화	-6130
▁아랫	-6131
▁아휴	-6132
▁악몽	-6133
▁엄태	-6134
▁에어	-6135
▁에일	-6136
▁연쇄	-6137
▁예정	-6138
▁오오	-6139
▁올린	-6140
▁완소	-6141
▁우마	-6142
▁울릴	-6143
▁원빈	-6144
▁유기	-6145
▁유작	-6146
▁은퇴	-6147
▁이뤄	-6148
▁일제	-6149
▁잉여	-6150
▁장만	-6151
▁전통	-6152
▁조쉬	-6153
▁종말	-6154
▁중고	-6155
▁증말	-6156
▁찡하	-6157
▁타입	-6158
▁페미	-6159
▁피하	-6160
▁하긴	-6161
▁하트	-6162
▁하필	-6163
▁한결	-6164
▁호평	-6165
▁화해	-6166
▁흔해	-6167
▁140	-6168
▁갑작스	-6169
▁고소영	-6170
▁공효진	-6171
▁그리스	-6172
▁그치만	-6173
▁기술력	-6174
▁끼친다	-6175
▁라면서	-6176
▁리브스	-6177
▁만든다	-6178
▁모니터	-6179
▁사춘기	-6180
▁아마도	-6181
▁였으나	-6182
▁원맨쇼	-6183
▁윤계상	-6184
▁이승기	-6185
▁인데요	-6186
▁일어난	-6187
▁지겨운	-6188
▁차가운	-6189
▁케이지	-6190
▁터무니	-6191
▁했으면	-6192
▁흔들리	-6193
▁2008	-6194
▁????	-6195
▁오토바이	-6196
▁유치원생	-6197
▁코스트너	-6198
▁.............	-6199
ul	-6200
▁깐	-6201
▁댕	-6202
▁뺀	-6203
▁뻘	-6204
▁욜	-6205
▁찮	-6206
나오	-6207
들이	-6208
릴라	-6209
바닥	-6210
은혜	-6211
젝트	-6212
틀러	-6213
ain	-6214
ant	-6215
▁27	-6216
▁se	-6217
▁가려	-6218
▁가미	-6219
▁가상	-6220
▁거침	-6221
▁건축	-6222
▁걸레	-6223
▁경쟁	-6224
▁골든	-6225
▁공리	-6226
▁구매	-6227
▁군데	-6228
▁그레	-6229
▁기계	-6230
▁기부	-6231
▁기쁨	-6232
▁꼽히	-6233
▁나미	-6234
▁낯선	-6235
▁내린	-6236
▁노라	-6237
▁논란	-6238
▁독도	-6239
▁독백	-6240
▁독재	-6241
▁동방	-6242
▁라라	-6243
▁리부	-6244
▁리플	-6245
▁린치	-6246
▁마련	-6247
▁마루	-6248
▁막스	-6249
▁매튜	-6250
▁메오	-6251
▁명예	-6252
▁모래	-6253
▁물질	-6254
▁미군	-6255
▁미숙	-6256
▁미워	-6257
▁미키	-6258
▁밝히	-6259
▁백미	-6260
▁벗기	-6261
▁분하	-6262
▁비급	-6263
▁비비	-6264
▁사막	-6265
▁살릴	-6266
▁삼국	-6267
▁생뚱	-6268
▁서우	-6269
▁선가	-6270
▁성의	-6271
▁수백	-6272
▁수업	-6273
▁스탭	-6274
▁심함	-6275
▁아용	-6276
▁악인	-6277
▁안목	-6278
▁안전	-6279
▁양산	-6280
▁연계	-6281
▁요란	-6282
▁유역	-6283
▁이론	-6284
▁이브	-6285
▁이완	-6286
▁인공	-6287
▁인증	-6288
▁일방	-6289
▁일생	-6290
▁정답	-6291
▁제한	-6292
▁조커	-6293
▁졸린	-6294
▁졸립	-6295
▁종이	-6296
▁죽일	-6297
▁지민	-6298
▁진솔	-6299
▁쫄깃	-6300
▁참혹	-6301
▁첨보	-6302
▁쿠삭	-6303
▁키워	-6304
▁토미	-6305
▁통일	-6306
▁파란	-6307
▁평이	-6308
▁풍기	-6309
▁하디	-6310
▁합쳐	-6311
▁허영	-6312
▁허준	-6313
▁현지	-6314
▁후한	-6315
▁희한	-6316
▁히치	-6317
스미스	-6318
픕니다	-6319
▁OCN	-6320
▁김수로	-6321
▁눈요기	-6322
▁대가리	-6323
▁데이먼	-6324
▁리들리	-6325
▁망가지	-6326
▁볼려고	-6327
▁서서히	-6328
▁소방관	-6329
▁시켜서	-6330
▁실망감	-6331
▁아이러	-6332
▁오드리	-6333
▁완벽히	-6334
▁외로운	-6335
▁이민기	-6336
▁일으키	-6337
▁저버리	-6338
▁줄려고	-6339
▁퍼펙트	-6340
▁페이스	-6341
▁하야오	-6342
▁호프만	-6343
▁화난다	-6344
▁후유증	-6345
▁2007	-6346
▁고마워요	-6347
▁블레이드	-6348
▁아름다워	-6349
▁옴니버스	-6350
▁프로젝트	-6351
▁하하하하	-6352
▁괘	-6353
▁귓	-6354
▁댈	-6355
▁룬	-6356
▁룸	-6357
▁쇠	-6358
▁쑤	-6359
▁엎	-6360
▁쬐	-6361
▁췌	-6362
▁칙	-6363
▁펙	-6364
▁험	-6365
가루	-6366
나다	-6367
니트	-6368
래원	-6369
레미	-6370
론데	-6371
세원	-6372
스라	-6373
어내	-6374
오래	-6375
으리	-6376
프리	-6377
all	-6378
▁AV	-6379
▁na	-6380
▁각지	-6381
▁강남	-6382
▁강인	-6383
▁강철	-6384
▁계단	-6385
▁공격	-6386
▁균형	-6387
▁그렸	-6388
▁농락	-6389
▁돌렸	-6390
▁동의	-6391
▁동참	-6392
▁둘러	-6393
▁떠난	-6394
▁로즈	-6395
▁망신	-6396
▁무거	-6397
▁무덤	-6398
▁미남	-6399
▁박영	-6400
▁박힌	-6401
▁방울	-6402
▁베르	-6403
▁보리	-6404
▁본받	-6405
▁분신	-6406
▁빠이	-6407
▁사소	-6408
▁사신	-6409
▁상자	-6410
▁선교	-6411
▁설치	-6412
▁셜록	-6413
▁소외	-6414
▁속상	-6415
▁수식	-6416
▁수호	-6417
▁신동	-6418
▁아날	-6419
▁아트	-6420
▁안티	-6421
▁암시	-6422
▁약속	-6423
▁얄팍	-6424
▁언더	-6425
▁여도	-6426
▁여우	-6427
▁오줌	-6428
▁원망	-6429
▁원제	-6430
▁원초	-6431
▁웨이	-6432
▁유전	-6433
▁의존	-6434
▁이뻐	-6435
▁인격	-6436
▁인사	-6437
▁인피	-6438
▁인한	-6439
▁장녀	-6440
▁전무	-6441
▁전사	-6442
▁제공	-6443
▁제인	-6444
▁제자	-6445
▁조건	-6446
▁조디	-6447
▁조미	-6448
▁좌절	-6449
▁주장	-6450
▁지네	-6451
▁지속	-6452
▁지혜	-6453
▁짐작	-6454
▁찌르	-6455
▁최상	-6456
▁취미	-6457
▁치명	-6458
▁친일	-6459
▁침대	-6460
▁태극	-6461
▁토르	-6462
▁통한	-6463
▁팬티	-6464
▁프라	-6465
▁필립	-6466
▁행운	-6467
▁허비	-6468
▁황진	-6469
▁후하	-6470
▁휴지	-6471
▁444	-6472
▁but	-6473
▁가만히	-6474
▁감독판	-6475
▁거시기	-6476
▁관계자	-6477
▁김래원	-6478
▁나와도	-6479
▁노무현	-6480
▁다는데	-6481
▁려는지	-6482
▁로부터	-6483
▁못지않	-6484
▁박해일	-6485
▁버려서	-6486
▁보비치	-6487
▁봤으니	-6488
▁브로디	-6489
▁스트립	-6490
▁어벤져	-6491
▁엄태웅	-6492
▁여실히	-6493
▁오디션	-6494
▁올드만	-6495
▁우울증	-6496
▁유승준	-6497
▁으려나	-6498
▁이루어	-6499
▁정유미	-6500
▁조인성	-6501
▁지상파	-6502
▁최대한	-6503
▁피라냐	-6504
▁하우스	-6505
▁히치콕	-6506
▁2002	-6507
▁love	-6508
▁끊임없이	-6509
▁민주주의	-6510
▁아날로그	-6511
▁아이리스	-6512
▁오래오래	-6513
▁인피니트	-6514
▁갸	-6515
▁돕	-6516
▁듀	-6517
▁랬	-6518
▁륵	-6519
▁릿	-6520
▁쉰	-6521
▁씌	-6522
▁왼	-6523
▁좁	-6524
▁쥔	-6525
▁켠	-6526
▁킴	-6527
▁탔	-6528
▁템	-6529
▁톡	-6530
▁틸	-6531
▁펄	-6532
가니	-6533
다리	-6534
라노	-6535
랑이	-6536
비티	-6537
상미	-6538
생김	-6539
어났	-6540
전히	-6541
지도	-6542
타클	-6543
필드	-6544
하루	-6545
현정	-6546
ast	-6547
hat	-6548
ore	-6549
▁!"	-6550
▁29	-6551
▁45	-6552
▁91	-6553
▁No	-6554
▁zz	-6555
▁가문	-6556
▁강도	-6557
▁거미	-6558
▁결제	-6559
▁경지	-6560
▁광해	-6561
▁괜춘	-6562
▁구림	-6563
▁기리	-6564
▁기반	-6565
▁꾸준	-6566
▁끼쳤	-6567
▁나아	-6568
▁높여	-6569
▁놔서	-6570
▁누워	-6571
▁동정	-6572
▁되새	-6573
▁때론	-6574
▁뚜렷	-6575
▁라구	-6576
▁리더	-6577
▁매치	-6578
▁명량	-6579
▁모드	-6580
▁목표	-6581
▁무장	-6582
▁문구	-6583
▁박용	-6584
▁반짝	-6585
▁발암	-6586
▁벌레	-6587
▁볼꺼	-6588
▁봣던	-6589
▁부시	-6590
▁비긴	-6591
▁비씨	-6592
▁비용	-6593
▁사례	-6594
▁사자	-6595
▁상승	-6596
▁샤이	-6597
▁선입	-6598
▁선전	-6599
▁스며	-6600
▁스콜	-6601
▁신뢰	-6602
▁실체	-6603
▁알렌	-6604
▁압축	-6605
▁애썼	-6606
▁어스	-6607
▁연구	-6608
▁우수	-6609
▁위치	-6610
▁유가	-6611
▁이면	-6612
▁자녀	-6613
▁잘라	-6614
▁재연	-6615
▁저격	-6616
▁정글	-6617
▁주식	-6618
▁중구	-6619
▁쥐어	-6620
▁지연	-6621
▁지웠	-6622
▁진국	-6623
▁진출	-6624
▁처참	-6625
▁천녀	-6626
▁충동	-6627
▁카이	-6628
▁타짜	-6629
▁탐욕	-6630
▁테론	-6631
▁토요	-6632
▁통틀	-6633
▁트루	-6634
▁편지	-6635
▁편히	-6636
▁하구	-6637
▁할래	-6638
▁핵심	-6639
▁형태	-6640
▁화제	-6641
▁희극	-6642
라이트	-6643
르시스	-6644
▁궁금증	-6645
▁느껴짐	-6646
▁데이트	-6647
▁돌아온	-6648
▁마피아	-6649
▁밀려오	-6650
▁볼라고	-6651
▁봅시다	-6652
▁서세원	-6653
▁스마트	-6654
▁스탤론	-6655
▁신동엽	-6656
▁아키라	-6657
▁어리석	-6658
▁일어났	-6659
▁자존심	-6660
▁제레미	-6661
▁주제곡	-6662
▁죽인다	-6663
▁즐거워	-6664
▁지켜보	-6665
▁징그럽	-6666
▁초콜릿	-6667
▁최지우	-6668
▁캐서린	-6669
▁케로로	-6670
▁타이밍	-6671
▁테스트	-6672
▁토마스	-6673
▁할까요	-6674
▁2011	-6675
▁Very	-6676
▁거슬린다	-6677
▁그럴듯한	-6678
▁끝났으면	-6679
▁떠오른다	-6680
▁스펙타클	-6681
▁아일랜드	-6682
▁어벤져스	-6683
▁에일리언	-6684
▁윌스미스	-6685
▁하루하루	-6686
▁naver	-6687
▁카타르시스	-6688
▁!!!!!!!!	-6689
▁;;;;;;;;	-6690
▁럽	-6691
▁웠	-6692
▁쨩	-6693
▁퉁	-6694
▁펠	-6695
니어	-6696
동석	-6697
들여	-6698
르르	-6699
순간	-6700
스코	-6701
시대	-6702
운대	-6703
웃음	-6704
일드	-6705
트라	-6706
표정	-6707
▁88	-6708
▁개월	-6709
▁고만	-6710
▁공상	-6711
▁공익	-6712
▁귀한	-6713
▁기차	-6714
▁김창	-6715
▁꺼라	-6716
▁꺼리	-6717
▁단계	-6718
▁달까	-6719
▁동경	-6720
▁드신	-6721
▁들린	-6722
▁디비	-6723
▁란다	-6724
▁러블	-6725
▁루시	-6726
▁리그	-6727
▁맥아	-6728
▁머니	-6729
▁모건	-6730
▁모리	-6731
▁못난	-6732
▁무려	-6733
▁바꿀	-6734
▁바비	-6735
▁박재	-6736
▁방학	-6737
▁베낀	-6738
▁변한	-6739
▁보라	-6740
▁보상	-6741
▁보수	-6742
▁부류	-6743
▁불멸	-6744
▁불사	-6745
▁성질	-6746
▁소속	-6747
▁소스	-6748
▁수상	-6749
▁수퍼	-6750
▁숭고	-6751
▁스님	-6752
▁스턴	-6753
▁스테	-6754
▁스파	-6755
▁시킴	-6756
▁쏟아	-6757
▁야수	-6758
▁야쿠	-6759
▁어쩐	-6760
▁여군	-6761
▁올림	-6762
▁유부	-6763
▁유산	-6764
▁윤리	-6765
▁작작	-6766
▁재일	-6767
▁저래	-6768
▁조롱	-6769
▁조악	-6770
▁준기	-6771
▁지닌	-6772
▁지치	-6773
▁진가	-6774
▁척하	-6775
▁천박	-6776
▁천하	-6777
▁쳐먹	-6778
▁초라	-6779
▁쿠엔	-6780
▁탈락	-6781
▁터질	-6782
▁통찰	-6783
▁특성	-6784
▁판치	-6785
▁폭탄	-6786
▁플래	-6787
▁해학	-6788
▁헤헤	-6789
▁헬기	-6790
납니다	-6791
러워서	-6792
▁cgv	-6793
▁공포감	-6794
▁그걸로	-6795
▁넘쳐나	-6796
▁다녀온	-6797
▁대학교	-6798
▁도가니	-6799
▁돋보인	-6800
▁라이트	-6801
▁맘대로	-6802
▁모를까	-6803
▁못해서	-6804
▁무의미	-6805
▁무표정	-6806
▁문제점	-6807
▁물고기	-6808
▁버무려	-6809
▁봣네요	-6810
▁부조리	-6811
▁뽀로로	-6812
▁선입견	-6813
▁스페셜	-6814
▁안드로	-6815
▁유역비	-6816
▁유해진	-6817
▁유행어	-6818
▁이성재	-6819
▁이정재	-6820
▁이종석	-6821
▁일까요	-6822
▁자전거	-6823
▁재미난	-6824
▁지브리	-6825
▁차인표	-6826
▁최진실	-6827
▁클로즈	-6828
▁테이크	-6829
▁한국식	-6830
▁해운대	-6831
▁2006	-6832
▁ever	-6833
▁드라마틱	-6834
▁봣습니다	-6835
▁브라이언	-6836
67	-6837
ak	-6838
um	-6839
▁Z	-6840
▁갤	-6841
▁냅	-6842
▁넷	-6843
▁뱅	-6844
▁뻑	-6845
▁쌤	-6846
▁얹	-6847
▁펴	-6848
▁핏	-6849
▁힛	-6850
거지	-6851
난방	-6852
넬리	-6853
라잇	-6854
러웠	-6855
로잡	-6856
리어	-6857
바른	-6858
버트	-6859
부족	-6860
사랑	-6861
사와	-6862
선우	-6863
세포	-6864
수연	-6865
에르	-6866
와일	-6867
지민	-6868
키오	-6869
태규	-6870
▁95	-6871
▁ch	-6872
▁fu	-6873
▁up	-6874
▁가스	-6875
▁갔었	-6876
▁강박	-6877
▁경영	-6878
▁고쳐	-6879
▁공산	-6880
▁관찰	-6881
▁권리	-6882
▁그로	-6883
▁근친	-6884
▁금성	-6885
▁기운	-6886
▁나기	-6887
▁날라	-6888
▁낸다	-6889
▁녹음	-6890
▁놓칠	-6891
▁달린	-6892
▁담주	-6893
▁뜨겁	-6894
▁로멘	-6895
▁리라	-6896
▁마져	-6897
▁만만	-6898
▁맥주	-6899
▁메릴	-6900
▁며칠	-6901
▁모션	-6902
▁모지	-6903
▁몰려	-6904
▁몰아	-6905
▁무명	-6906
▁무모	-6907
▁무미	-6908
▁무튼	-6909
▁민간	-6910
▁반면	-6911
▁별개	-6912
▁붙잡	-6913
▁살림	-6914
▁생길	-6915
▁생물	-6916
▁서태	-6917
▁성괴	-6918
▁수단	-6919
▁수학	-6920
▁썰렁	-6921
▁약자	-6922
▁여사	-6923
▁연민	-6924
▁오죽	-6925
▁오케	-6926
▁외롭	-6927
▁욕설	-6928
▁욕하	-6929
▁우베	-6930
▁원스	-6931
▁웬지	-6932
▁유대	-6933
▁유준	-6934
▁은행	-6935
▁이틀	-6936
▁일병	-6937
▁자질	-6938
▁장사	-6939
▁장수	-6940
▁재판	-6941
▁저건	-6942
▁저딴	-6943
▁전범	-6944
▁제주	-6945
▁종결	-6946
▁종종	-6947
▁주려	-6948
▁챙기	-6949
▁최수	-6950
▁최종	-6951
▁추석	-6952
▁충만	-6953
▁치킨	-6954
▁캡틴	-6955
▁쿠바	-6956
▁파멸	-6957
▁판도	-6958
▁펼치	-6959
▁평타	-6960
▁포근	-6961
▁폭파	-6962
▁피노	-6963
▁해병	-6964
▁해설	-6965
▁호화	-6966
드리게	-6967
ight	-6968
▁sbs	-6969
▁개봉관	-6970
▁결혼식	-6971
▁고마워	-6972
▁고현정	-6973
▁그림자	-6974
▁김승우	-6975
▁남동생	-6976
▁넘친다	-6977
▁다가오	-6978
▁다면서	-6979
▁달라서	-6980
▁두려워	-6981
▁들여서	-6982
▁떠올랐	-6983
▁라길래	-6984
▁랍니다	-6985
▁마니아	-6986
▁마동석	-6987
▁박신혜	-6988
▁배슬기	-6989
▁봉태규	-6990
▁부드럽	-6991
▁부성애	-6992
▁빠진다	-6993
▁사로잡	-6994
▁생뚱맞	-6995
▁생명체	-6996
▁성장기	-6997
▁쉬워요	-6998
▁슬로우	-6999
▁시킨다	-7000
▁쌍둥이	-7001
▁역부족	-7002
▁오늘날	-7003
▁움직임	-7004
▁원작자	-7005
▁으니깐	-7006
▁으라면	-7007
▁읍니다	-7008
▁이나마	-7009
▁이상실	-7010
▁이슬람	-7011
▁저지르	-7012
▁철저히	-7013
▁최강희	-7014
▁출연자	-7015
▁케이스	-7016
▁쿠엔틴	-7017
▁클래스	-7018
▁테이프	-7019
▁트와일	-7020
▁푸하하	-7021
▁하여튼	-7022
▁1990	-7023
▁4000	-7024
▁되돌아보	-7025
▁떨어져서	-7026
▁맥라이언	-7027
▁안젤리나	-7028
▁중구난방	-7029
▁좋아한다면	-7030
▁테러리스트	-7031
▁트와일라잇	-7032
▁;;;;;;	-7033
▁깬	-7034
▁늬	-7035
▁뛴	-7036
▁몹	-7037
▁샬	-7038
▁얕	-7039
▁엥	-7040
▁쪄	-7041
▁쫙	-7042
▁훅	-7043
년자	-7044
다메	-7045
두나	-7046
란도	-7047
레쉬	-7048
말란	-7049
모루	-7050
시윤	-7051
책감	-7052
치기	-7053
타닉	-7054
ome	-7055
▁26	-7056
▁33	-7057
▁am	-7058
▁bl	-7059
▁갈릴	-7060
▁감싸	-7061
▁결투	-7062
▁공각	-7063
▁근대	-7064
▁근본	-7065
▁금치	-7066
▁금포	-7067
▁김유	-7068
▁김주	-7069
▁끝장	-7070
▁나른	-7071
▁날림	-7072
▁낯설	-7073
▁누굴	-7074
▁눌러	-7075
▁늘려	-7076
▁단막	-7077
▁대립	-7078
▁돌림	-7079
▁두뇌	-7080
▁드릅	-7081
▁따른	-7082
▁떨리	-7083
▁리티	-7084
▁망침	-7085
▁맞먹	-7086
▁맴도	-7087
▁무방	-7088
▁무작	-7089
▁민호	-7090
▁밉상	-7091
▁바른	-7092
▁박철	-7093
▁반항	-7094
▁벅차	-7095
▁별거	-7096
▁비노	-7097
▁비명	-7098
▁비트	-7099
▁빈틈	-7100
▁산업	-7101
▁생일	-7102
▁섞인	-7103
▁세력	-7104
▁순례	-7105
▁스나	-7106
▁시망	-7107
▁신분	-7108
▁아함	-7109
▁알라	-7110
▁약함	-7111
▁양키	-7112
▁열차	-7113
▁오른	-7114
▁운전	-7115
▁워킹	-7116
▁유이	-7117
▁유진	-7118
▁윤제	-7119
▁의학	-7120
▁인칭	-7121
▁잠재	-7122
▁장백	-7123
▁저럴	-7124
▁적합	-7125
▁접했	-7126
▁정책	-7127
▁조국	-7128
▁조마	-7129
▁주요	-7130
▁지능	-7131
▁지망	-7132
▁초호	-7133
▁충족	-7134
▁취하	-7135
▁토비	-7136
▁통하	-7137
▁파도	-7138
▁패기	-7139
▁편성	-7140
▁폭소	-7141
▁하비	-7142
▁헌신	-7143
▁환영	-7144
스라엘	-7145
▁Bad	-7146
▁mbc	-7147
▁고릴라	-7148
▁괴롭히	-7149
▁노다메	-7150
▁느껴야	-7151
▁늘어놓	-7152
▁담겨져	-7153
▁돌아간	-7154
▁뛰어났	-7155
▁라더니	-7156
▁라이더	-7157
▁랍시고	-7158
▁모처럼	-7159
▁몸부림	-7160
▁미친다	-7161
▁민영화	-7162
▁박신양	-7163
▁박정희	-7164
▁배두나	-7165
▁볼란다	-7166
▁살아갈	-7167
▁삼국지	-7168
▁새로울	-7169
▁샤말란	-7170
▁서양인	-7171
▁요한슨	-7172
▁위안부	-7173
▁윤시윤	-7174
▁이민정	-7175
▁이어서	-7176
▁그런대로	-7177
▁그럴싸하	-7178
▁로드리게	-7179
▁순간순간	-7180
▁아이러니	-7181
▁에이리언	-7182
▁우월주의	-7183
▁으리으리	-7184
▁이스라엘	-7185
▁이야말로	-7186
▁지니어스	-7187
▁타이타닉	-7188
▁흘러나오	-7189
▁..!!!	-7190
!!!!!!!	-7191
▁낰	-7192
▁댔	-7193
▁뎈	-7194
▁둬	-7195
▁뤽	-7196
▁솟	-7197
▁씻	-7198
▁쟝	-7199
▁짖	-7200
▁퀼	-7201
▁햄	-7202
▁햐	-7203
기스	-7204
끼리	-7205
런스	-7206
브이	-7207
소라	-7208
슬링	-7209
여주	-7210
유천	-7211
패스	-7212
ust	-7213
▁It	-7214
▁lt	-7215
▁sm	-7216
▁간신	-7217
▁개웃	-7218
▁거친	-7219
▁건달	-7220
▁결승	-7221
▁고루	-7222
▁공장	-7223
▁과제	-7224
▁구린	-7225
▁구입	-7226
▁권선	-7227
▁권하	-7228
▁극히	-7229
▁금발	-7230
▁급급	-7231
▁기절	-7232
▁긴급	-7233
▁깔려	-7234
▁낄낄	-7235
▁나치	-7236
▁날카	-7237
▁남겼	-7238
▁내공	-7239
▁넘쳤	-7240
▁니미	-7241
▁다닐	-7242
▁다임	-7243
▁달랐	-7244
▁더블	-7245
▁도중	-7246
▁레터	-7247
▁로다	-7248
▁리스	-7249
▁리언	-7250
▁린다	-7251
▁마술	-7252
▁맡기	-7253
▁멘스	-7254
▁명언	-7255
▁물결	-7256
▁미셸	-7257
▁박인	-7258
▁배제	-7259
▁변질	-7260
▁볼께	-7261
▁불우	-7262
▁뷰티	-7263
▁브레	-7264
▁비리	-7265
▁빠다	-7266
▁사골	-7267
▁사나	-7268
▁산타	-7269
▁새드	-7270
▁서른	-7271
▁성동	-7272
▁성폭	-7273
▁소련	-7274
▁솔로	-7275
▁수년	-7276
▁수목	-7277
▁쓰리	-7278
▁씨리	-7279
▁아껴	-7280
▁아녀	-7281
▁아르	-7282
▁알차	-7283
▁앤드	-7284
▁어긋	-7285
▁어딜	-7286
▁어줍	-7287
▁억압	-7288
▁얼간	-7289
▁여명	-7290
▁여잔	-7291
▁연락	-7292
▁오덕	-7293
▁올랐	-7294
▁울린	-7295
▁워터	-7296
▁원한	-7297
▁유루	-7298
▁으다	-7299
▁을려	-7300
▁이사	-7301
▁일세	-7302
▁입가	-7303
▁입체	-7304
▁자국	-7305
▁자르	-7306
▁잖은	-7307
▁저능	-7308
▁전파	-7309
▁종북	-7310
▁주문	-7311
▁지현	-7312
▁진상	-7313
▁찌푸	-7314
▁창문	-7315
▁최신	-7316
▁축하	-7317
▁쿵푸	-7318
▁크라	-7319
▁탐정	-7320
▁튀기	-7321
▁패트	-7322
▁퍼지	-7323
▁평작	-7324
▁프랭	-7325
▁한쪽	-7326
▁한텐	-7327
▁해군	-7328
▁해소	-7329
▁허각	-7330
▁허우	-7331
▁헤드	-7332
▁호크	-7333
▁홍경	-7334
▁홍수	-7335
▁획기	-7336
▁후려	-7337
▁후보	-7338
바이벌	-7339
오피스	-7340
입니다	-7341
테스크	-7342
▁196	-7343
▁간다는	-7344
▁그려진	-7345
▁김규리	-7346
▁눈물샘	-7347
▁단막극	-7348
▁돌려줘	-7349
▁동화책	-7350
▁뒷부분	-7351
▁뜨거워	-7352
▁류승룡	-7353
▁마모루	-7354
▁마이크	-7355
▁모니카	-7356
▁무작정	-7357
▁박유천	-7358
▁버려라	-7359
▁별론데	-7360
▁살인범	-7361
▁서비스	-7362
▁서사시	-7363
▁서태지	-7364
▁신다면	-7365
▁여고생	-7366
▁올라오	-7367
▁월드컵	-7368
▁유승호	-7369
▁유준상	-7370
▁으려다	-7371
▁음모론	-7372
▁이대로	-7373
▁전투기	-7374
▁정치인	-7375
▁죄책감	-7376
▁쥐어짜	-7377
▁코넬리	-7378
▁팔아먹	-7379
▁패밀리	-7380
▁하여간	-7381
▁한예슬	-7382
▁헷갈리	-7383
▁호랑이	-7384
▁히스레	-7385
▁느껴져서	-7386
▁리얼리즘	-7387
▁모자이크	-7388
▁그로테스크	-7389
▁박스오피스	-7390
▁불러일으키	-7391
▁사이코패스	-7392
▁..............	-7393
dd	-7394
ge	-7395
gm	-7396
sd	-7397
▁겜	-7398
▁곸	-7399
▁굵	-7400
▁뎌	-7401
▁됀	-7402
▁딥	-7403
▁뜰	-7404
▁붐	-7405
▁쌔	-7406
▁썅	-7407
▁앳	-7408
▁엣	-7409
▁욧	-7410
▁짭	-7411
▁펏	-7412
그래	-7413
나무	-7414
노트	-7415
둘기	-7416
란드	-7417
러드	-7418
로스	-7419
리트	-7420
모니	-7421
반도	-7422
올린	-7423
윤아	-7424
인즈	-7425
징악	-7426
킨스	-7427
하다	-7428
OOD	-7429
▁48	-7430
▁93	-7431
▁go	-7432
▁ne	-7433
▁가위	-7434
▁강예	-7435
▁강우	-7436
▁강했	-7437
▁거니	-7438
▁고개	-7439
▁고집	-7440
▁골라	-7441
▁공정	-7442
▁관우	-7443
▁괴리	-7444
▁괴한	-7445
▁국회	-7446
▁그땐	-7447
▁극대	-7448
▁기관	-7449
▁김두	-7450
▁김상	-7451
▁꼬박	-7452
▁꾸밈	-7453
▁꾸역	-7454
▁노트	-7455
▁놀랄	-7456
▁놀람	-7457
▁누드	-7458
▁다라	-7459
▁다우	-7460
▁대치	-7461
▁도박	-7462
▁도서	-7463
▁돼요	-7464
▁두렵	-7465
▁따르	-7466
▁라요	-7467
▁로선	-7468
▁르노	-7469
▁리오	-7470
▁매니	-7471
▁명절	-7472
▁모름	-7473
▁모범	-7474
▁문식	-7475
▁물체	-7476
▁미련	-7477
▁민아	-7478
▁바램	-7479
▁박상	-7480
▁반해	-7481
▁벅찬	-7482
▁불교	-7483
▁비포	-7484
▁빨려	-7485
▁사업	-7486
▁삼각	-7487
▁섞여	-7488
▁설리	-7489
▁성기	-7490
▁소서	-7491
▁소원	-7492
▁속이	-7493
▁쇼킹	-7494
▁슬슬	-7495
▁시계	-7496
▁신발	-7497
▁쓰러	-7498
▁애쓴	-7499
▁액티	-7500
▁어마	-7501
▁에니	-7502
▁오묘	-7503
▁왜냐	-7504
▁용두	-7505
▁우분	-7506
▁위선	-7507
▁유년	-7508
▁윤재	-7509
▁은희	-7510
▁이곳	-7511
▁인위	-7512
▁자이	-7513
▁장담	-7514
▁재벌	-7515
▁재생	-7516
▁재해	-7517
▁정이	-7518
▁정해	-7519
▁조한	-7520
▁죄악	-7521
▁주진	-7522
▁줄께	-7523
▁중도	-7524
▁질감	-7525
▁치닫	-7526
▁크크	-7527
▁큰일	-7528
▁타워	-7529
▁투모	-7530
▁투쟁	-7531
▁트랙	-7532
▁퍼시	-7533
▁편향	-7534
▁현우	-7535
▁호주	-7536
▁후배	-7537
▁흐흐	-7538
▁흠뻑	-7539
릅니다	-7540
적으로	-7541
▁bor	-7542
▁거슬렸	-7543
▁게리온	-7544
▁곽지민	-7545
▁기동대	-7546
▁김민준	-7547
▁김정은	-7548
▁끌어가	-7549
▁나아가	-7550
▁느껴져	-7551
▁다던데	-7552
▁돌아왔	-7553
▁드러난	-7554
▁디아즈	-7555
▁떨어질	-7556
▁뛰어넘	-7557
▁라이프	-7558
▁만드셨	-7559
▁메이저	-7560
▁모아서	-7561
▁박영화	-7562
▁비둘기	-7563
▁생각날	-7564
▁서커스	-7565
▁설레이	-7566
▁성폭행	-7567
▁손꼽히	-7568
▁스카이	-7569
▁스크림	-7570
▁싱크로	-7571
▁쓰러지	-7572
▁아닐지	-7573
▁알렉스	-7574
▁어려워	-7575
▁영화인	-7576
▁웨스턴	-7577
▁이상우	-7578
▁인디언	-7579
▁잡아먹	-7580
▁장동민	-7581
▁장백지	-7582
▁장선우	-7583
▁정준호	-7584
▁질린다	-7585
▁추격전	-7586
▁파트너	-7587
▁펼쳐지	-7588
▁피어스	-7589
▁한다니	-7590
▁해줘서	-7591
▁했으니	-7592
▁1980	-7593
▁bbbb	-7594
▁권선징악	-7595
▁데스노트	-7596
▁동성애자	-7597
▁떨어뜨리	-7598
▁스포일러	-7599
▁아메리카	-7600
▁액티비티	-7601
▁영화배우	-7602
▁오리지날	-7603
▁올드보이	-7604
▁원한다면	-7605
▁유머러스	-7606
▁피노키오	-7607
▁객관적으로	-7608
▁하이라이트	-7609
!!!!!!!!!!!	-7610
▁꽥	-7611
▁낡	-7612
▁떤	-7613
▁뵈	-7614
▁슌	-7615
▁쑈	-7616
▁옵	-7617
▁젬	-7618
▁촉	-7619
▁쵸	-7620
▁쿼	-7621
▁팜	-7622
▁핳	-7623
건조	-7624
고래	-7625
고은	-7626
르트	-7627
만이	-7628
무가	-7629
무시	-7630
불허	-7631
비슷	-7632
수리	-7633
스레	-7634
스톤	-7635
어들	-7636
의식	-7637
이어	-7638
천히	-7639
퀀스	-7640
텔링	-7641
통수	-7642
튜브	-7643
트니	-7644
하니	-7645
▁92	-7646
▁CF	-7647
▁we	-7648
▁감점	-7649
▁건조	-7650
▁겉멋	-7651
▁견디	-7652
▁경각	-7653
▁고난	-7654
▁골랐	-7655
▁광대	-7656
▁교도	-7657
▁구식	-7658
▁김아	-7659
▁김원	-7660
▁꼬리	-7661
▁꾸며	-7662
▁끼칠	-7663
▁난장	-7664
▁네이	-7665
▁네임	-7666
▁노란	-7667
▁노이	-7668
▁는디	-7669
▁당함	-7670
▁대여	-7671
▁대처	-7672
▁도구	-7673
▁들이	-7674
▁루비	-7675
▁리치	-7676
▁릴리	-7677
▁마른	-7678
▁만행	-7679
▁말론	-7680
▁맛깔	-7681
▁맞출	-7682
▁매드	-7683
▁멀미	-7684
▁멈출	-7685
▁무고	-7686
▁무릎	-7687
▁무사	-7688
▁무심	-7689
▁문자	-7690
▁반점	-7691
▁베끼	-7692
▁베니	-7693
▁베를	-7694
▁보낼	-7695
▁보편	-7696
▁볼래	-7697
▁부스	-7698
▁붙인	-7699
▁비됴	-7700
▁뿌려	-7701
▁사미	-7702
▁삼성	-7703
▁삽질	-7704
▁상평	-7705
▁서글	-7706
▁성시	-7707
▁수습	-7708
▁스튜	-7709
▁시공	-7710
▁시위	-7711
▁실베	-7712
▁싱어	-7713
▁쓸모	-7714
▁아따	-7715
▁아포	-7716
▁악어	-7717
▁안개	-7718
▁애비	-7719
▁애환	-7720
▁얼음	-7721
▁업그	-7722
▁에바	-7723
▁여느	-7724
▁오가	-7725
▁오름	-7726
▁오정	-7727
▁온통	-7728
▁옮겨	-7729
▁왕따	-7730
▁왤캐	-7731
▁욕먹	-7732
▁월화	-7733
▁유니	-7734
▁유선	-7735
▁이룬	-7736
▁이시	-7737
▁이혼	-7738
▁인성	-7739
▁임성	-7740
▁작성	-7741
▁잡혀	-7742
▁점대	-7743
▁정복	-7744
▁조장	-7745
▁주로	-7746
▁주저	-7747
▁중견	-7748
▁증오	-7749
▁지어	-7750
▁지쳐	-7751
▁진자	-7752
▁집합	-7753
▁참가	-7754
▁참으	-7755
▁채민	-7756
▁청순	-7757
▁총기	-7758
▁최루	-7759
▁취지	-7760
▁침략	-7761
▁컨데	-7762
▁코너	-7763
▁콜라	-7764
▁큐라	-7765
▁탱고	-7766
▁토이	-7767
▁퇴마	-7768
▁특선	-7769
▁특정	-7770
▁파헤	-7771
▁포트	-7772
▁한두	-7773
▁한방	-7774
▁해놨	-7775
▁해줌	-7776
▁허드	-7777
▁현란	-7778
▁협박	-7779
▁홀리	-7780
▁후련	-7781
▁훌쩍	-7782
▁흘릴	-7783
그래피	-7784
불허전	-7785
아내리	-7786
코비치	-7787
4567	-7788
▁bgm	-7789
▁강예원	-7790
▁고스트	-7791
▁괜찬은	-7792
▁굿바이	-7793
▁그래야	-7794
▁긴박감	-7795
▁김민희	-7796
▁김보성	-7797
▁김주혁	-7798
▁김창완	-7799
▁김현주	-7800
▁도입부	-7801
▁뒤통수	-7802
▁드라만	-7803
▁들어갈	-7804
▁뛰쳐나	-7805
▁라이브	-7806
▁리부트	-7807
▁마이너	-7808
▁모여서	-7809
▁무지하	-7810
▁박용우	-7811
▁반가웠	-7812
▁보너스	-7813
▁봤으나	-7814
▁빌려서	-7815
▁빠르기	-7816
▁쁨여주	-7817
▁새로움	-7818
▁생각난	-7819
▁습니당	-7820
▁시간대	-7821
▁시퀀스	-7822
▁십시오	-7823
▁아이디	-7824
▁야쿠자	-7825
▁어쩐지	-7826
▁역겨웠	-7827
▁용두사	-7828
▁울트라	-7829
▁유튜브	-7830
▁인내심	-7831
▁재해석	-7832
▁전반부	-7833
▁준다고	-7834
▁진다는	-7835
▁천천히	-7836
▁총격전	-7837
▁최수종	-7838
▁콩가루	-7839
▁톱스타	-7840
▁파치노	-7841
▁페미니	-7842
▁폴리스	-7843
▁허허허	-7844
▁홍금보	-7845
▁후레쉬	-7846
▁명불허전	-7847
▁서바이벌	-7848
▁이루어지	-7849
▁쁨여주만이	-7850
▁스토리텔링	-7851
▁업그레이드	-7852
▁??????????	-7853
22	-7854
43	-7855
EC	-7856
ir	-7857
ry	-7858
▁q	-7859
▁꾀	-7860
▁둠	-7861
▁쌀	-7862
▁얌	-7863
▁얔	-7864
▁켈	-7865
▁쿄	-7866
▁흙	-7867
게인	-7868
고생	-7869
니발	-7870
다수	-7871
데기	-7872
데이	-7873
들린	-7874
라드	-7875
랜든	-7876
러울	-7877
레나	-7878
메다	-7879
물관	-7880
베리	-7881
빠진	-7882
슐리	-7883
아르	-7884
옥빈	-7885
윤희	-7886
중기	-7887
채영	-7888
총사	-7889
춰진	-7890
카락	-7891
카스	-7892
틴슨	-7893
▁.'	-7894
▁36	-7895
▁85	-7896
▁Th	-7897
▁xx	-7898
▁간접	-7899
▁갈망	-7900
▁강의	-7901
▁같잖	-7902
▁개운	-7903
▁개척	-7904
▁거늘	-7905
▁거린	-7906
▁건전	-7907
▁경력	-7908
▁경주	-7909
▁공군	-7910
▁관능	-7911
▁괴기	-7912
▁교사	-7913
▁구름	-7914
▁극도	-7915
▁기괴	-7916
▁김병	-7917
▁김우	-7918
▁깔깔	-7919
▁꼬집	-7920
▁끼친	-7921
▁누리	-7922
▁눈살	-7923
▁눈앞	-7924
▁니모	-7925
▁다닌	-7926
▁담당	-7927
▁대답	-7928
▁대성	-7929
▁데요	-7930
▁도다	-7931
▁돌프	-7932
▁된장	-7933
▁떠날	-7934
▁레스	-7935
▁리도	-7936
▁맞서	-7937
▁먹히	-7938
▁메마	-7939
▁면제	-7940
▁명백	-7941
▁모야	-7942
▁무라	-7943
▁무신	-7944
▁밀어	-7945
▁밍밍	-7946
▁바둑	-7947
▁바디	-7948
▁바랄	-7949
▁박준	-7950
▁받쳐	-7951
▁발리	-7952
▁방어	-7953
▁버금	-7954
▁번방	-7955
▁범작	-7956
▁보냈	-7957
▁보람	-7958
▁보삼	-7959
▁부딪	-7960
▁부려	-7961
▁부천	-7962
▁불태	-7963
▁비약	-7964
▁비열	-7965
▁비오	-7966
▁빌린	-7967
▁사바	-7968
▁세끼	-7969
▁세심	-7970
▁소시	-7971
▁손잡	-7972
▁스물	-7973
▁슬플	-7974
▁습격	-7975
▁신사	-7976
▁실천	-7977
▁심금	-7978
▁심야	-7979
▁싸인	-7980
▁연설	-7981
▁영애	-7982
▁영하	-7983
▁요기	-7984
▁우에	-7985
▁워크	-7986
▁위협	-7987
▁유태	-7988
▁윤발	-7989
▁으루	-7990
▁으이	-7991
▁을라	-7992
▁이득	-7993
▁이선	-7994
▁인하	-7995
▁일리	-7996
▁잡탕	-7997
▁장비	-7998
▁전원	-7999
▁정수	-8000
▁정은	-8001
▁죄다	-8002
▁주년	-8003
▁지친	-8004
▁짝짝	-8005
▁참패	-8006
▁챔피	-8007
▁초보	-8008
▁출생	-8009
▁취해	-8010
▁칙칙	-8011
▁캠프	-8012
▁탐험	-8013
▁틀린	-8014
▁파탄	-8015
▁패배	-8016
▁표지	-8017
▁피부	-8018
▁핑계	-8019
▁학예	-8020
▁합격	-8021
▁합작	-8022
▁해적	-8023
▁허리	-8024
▁혈압	-8025
▁홈즈	-8026
▁화보	-8027
▁환희	-8028
▁흘려	-8029
oooo	-8030
reat	-8031
▁,..	-8032
▁간신히	-8033
▁강우석	-8034
▁거린다	-8035
▁겁나게	-8036
▁게이트	-8037
▁경각심	-8038
▁길거리	-8039
▁김소연	-8040
▁김옥빈	-8041
▁김윤석	-8042
▁김준호	-8043
▁껍데기	-8044
▁꾸준히	-8045
▁나무랄	-8046
▁날수록	-8047
▁남상미	-8048
▁내보내	-8049
▁넘어서	-8050
▁놀라움	-8051
▁달려가	-8052
▁돌아갈	-8053
▁만드신	-8054
▁만하다	-8055
▁망쳐놨	-8056
▁맞춰서	-8057
▁바꿔라	-8058
▁바꿔서	-8059
▁박물관	-8060
▁배워라	-8061
▁벗어난	-8062
▁보고서	-8063
▁브란도	-8064
▁서부터	-8065
▁송중기	-8066
▁스펙터	-8067
▁신은경	-8068
▁아무렇	-8069
▁안쓰럽	-8070
▁알려진	-8071
▁앨리스	-8072
▁어지간	-8073
▁에리카	-8074
▁여지껏	-8075
▁여태껏	-8076
▁연출자	-8077
▁영화광	-8078
▁오래간	-8079
▁울린다	-8080
▁울버린	-8081
▁웃긴데	-8082
▁이걸로	-8083
▁이정현	-8084
▁인정받	-8085
▁일본어	-8086
▁자아내	-8087
▁자이언	-8088
▁장애인	-8089
▁저지른	-8090
▁지켜라	-8091
▁채민서	-8092
▁쳐다보	-8093
▁클레이	-8094
▁패틴슨	-8095
▁퍼센트	-8096
▁포스트	-8097
▁포커스	-8098
▁프리퀄	-8099
▁플러스	-8100
▁하모니	-8101
▁해본다	-8102
▁해봐도	-8103
▁화이트	-8104
▁흐른다	-8105
▁GOOD	-8106
▁돌아다니	-8107
▁말코비치	-8108
▁머리카락	-8109
▁무미건조	-8110
▁빠짐없이	-8111
▁아아아아	-8112
▁투모로우	-8113
▁판타스틱	-8114
▁페미니즘	-8115
▁안드로메다	-8116
▁boring	-8117
▁!!!!!!!!!!!	-8118
""	-8119
12	-8120
89	-8121
TV	-8122
ab	-8123
ff	-8124
se	-8125
▁겐	-8126
▁궈	-8127
▁긁	-8128
▁낌	-8129
▁댜	-8130
▁땟	-8131
▁떴	-8132
▁뱃	-8133
▁뱉	-8134
▁뵙	-8135
▁빽	-8136
▁싯	-8137
▁씽	-8138
▁윗	-8139
▁읎	-8140
▁쟤	-8141
▁캔	-8142
▁텍	-8143
▁핡	-8144
▁힝	-8145
거렸	-8146
꾸역	-8147
노소	-8148
도전	-8149
돈나	-8150
머님	-8151
머프	-8152
미남	-8153
민우	-8154
버둥	-8155
버릴	-8156
베스	-8157
보라	-8158
사고	-8159
세이	-8160
션스	-8161
수선	-8162
의자	-8163
전결	-8164
조치	-8165
토벤	-8166
하드	-8167
art	-8168
ime	-8169
▁84	-8170
▁94	-8171
▁IM	-8172
▁SM	-8173
▁do	-8174
▁갈아	-8175
▁강원	-8176
▁개개	-8177
▁개병	-8178
▁건담	-8179
▁걸림	-8180
▁고추	-8181
▁공공	-8182
▁공동	-8183
▁괴상	-8184
▁교양	-8185
▁교통	-8186
▁그날	-8187
▁기능	-8188
▁기름	-8189
▁기만	-8190
▁기울	-8191
▁김진	-8192
▁꼴리	-8193
▁나래	-8194
▁날개	-8195
▁났었	-8196
▁내릴	-8197
▁넘나	-8198
▁노아	-8199
▁닌자	-8200
▁다며	-8201
▁다짐	-8202
▁다코	-8203
▁달인	-8204
▁닭살	-8205
▁댄싱	-8206
▁동서	-8207
▁떠서	-8208
▁떡칠	-8209
▁러시	-8210
▁런지	-8211
▁레고	-8212
▁리처	-8213
▁만지	-8214
▁만한	-8215
▁맛보	-8216
▁먹여	-8217
▁명장	-8218
▁모시	-8219
▁모음	-8220
▁목욕	-8221
▁몽골	-8222
▁무력	-8223
▁무인	-8224
▁물가	-8225
▁물음	-8226
▁미혼	-8227
▁민기	-8228
▁바꿨	-8229
▁바란	-8230
▁바사	-8231
▁바티	-8232
▁반쪽	-8233
▁반하	-8234
▁발악	-8235
▁배달	-8236
▁백성	-8237
▁벌이	-8238
▁벨라	-8239
▁복귀	-8240
▁볼라	-8241
▁부적	-8242
▁부패	-8243
▁분류	-8244
▁불량	-8245
▁붕가	-8246
▁브금	-8247
▁비스	-8248
▁비우	-8249
▁비평	-8250
▁빛났	-8251
▁뻔할	-8252
▁사귀	-8253
▁사물	-8254
▁사악	-8255
▁상품	-8256
▁색히	-8257
▁샤워	-8258
▁세금	-8259
▁세세	-8260
▁세우	-8261
▁소심	-8262
▁수천	-8263
▁수행	-8264
▁숫자	-8265
▁스쳐	-8266
▁스팅	-8267
▁식당	-8268
▁신랑	-8269
▁쌍벽	-8270
▁아낌	-8271
▁아웅	-8272
▁악행	-8273
▁안함	-8274
▁애서	-8275
▁애청	-8276
▁에라	-8277
▁엿볼	-8278
▁영역	-8279
▁영호	-8280
▁오점	-8281
▁와라	-8282
▁완존	-8283
▁요가	-8284
▁우상	-8285
▁울렸	-8286
▁유연	-8287
▁유인	-8288
▁으악	-8289
▁을래	-8290
▁이익	-8291
▁입스	-8292
▁자부	-8293
▁자폐	-8294
▁잔상	-8295
▁장가	-8296
▁전두	-8297
▁절실	-8298
▁절친	-8299
▁제대	-8300
▁제타	-8301
▁주리	-8302
▁준수	-8303
▁줄이	-8304
▁중점	-8305
▁즈음	-8306
▁지껄	-8307
▁직설	-8308
▁찐한	-8309
▁천지	-8310
▁초저	-8311
▁최우	-8312
▁축복	-8313
▁춘향	-8314
▁치부	-8315
▁친근	-8316
▁타잔	-8317
▁토리	-8318
▁토토	-8319
▁토하	-8320
▁통제	-8321
▁퇴폐	-8322
▁트레	-8323
▁특색	-8324
▁핑크	-8325
▁하락	-8326
▁하찮	-8327
▁한때	-8328
▁함축	-8329
▁허망	-8330
▁혼합	-8331
▁화내	-8332
▁화살	-8333
▁훔쳐	-8334
▁휴대	-8335
▁흘린	-8336
레이터	-8337
무가내	-8338
프스키	-8339
▁000	-8340
▁800	-8341
▁SBS	-8342
▁not	-8343
▁가르치	-8344
▁가르침	-8345
▁강소라	-8346
▁겠다는	-8347
▁결승전	-8348
▁그리움	-8349
▁그토록	-8350
▁꽃미남	-8351
▁나와요	-8352
▁날아가	-8353
▁눈부신	-8354
▁느껴진	-8355
▁니까요	-8356
▁달라지	-8357
▁당당히	-8358
▁대다수	-8359
▁돌아와	-8360
▁마스크	-8361
▁망가진	-8362
▁민간인	-8363
▁발가락	-8364
▁밸런스	-8365
▁버려야	-8366
▁베를린	-8367
▁베토벤	-8368
▁블러드	-8369
▁비노쉬	-8370
▁사이트	-8371
▁사토시	-8372
▁산다는	-8373
▁삼총사	-8374
▁성동일	-8375
▁성시경	-8376
▁송윤아	-8377
▁수식어	-8378
▁스머프	-8379
▁스토커	-8380
▁싫어하	-8381
▁아가씨	-8382
▁앤드류	-8383
▁야말로	-8384
▁어게인	-8385
▁어수선	-8386
▁어줍잖	-8387
▁오마이	-8388
▁오션스	-8389
▁오정세	-8390
▁올바른	-8391
▁우스꽝	-8392
▁유아인	-8393
▁으므로	-8394
▁이나영	-8395
▁잘생김	-8396
▁짜장면	-8397
▁챔피언	-8398
▁친일파	-8399
▁클로이	-8400
▁테일러	-8401
▁특별히	-8402
▁풀어냈	-8403
▁프리먼	-8404
▁학예회	-8405
▁할려는	-8406
▁해져서	-8407
▁희생자	-8408
▁Best	-8409
▁this	-8410
▁기승전결	-8411
▁긴급조치	-8412
▁꾸역꾸역	-8413
▁남녀노소	-8414
▁다이하드	-8415
▁막무가내	-8416
▁무한도전	-8417
▁스페이스	-8418
▁지상주의	-8419
▁클로즈업	-8420
▁히스레저	-8421
......	-8422
▁...;;	-8423
▁;;;;;	-8424
▁아름다워요	-8425
▁!!!!!!!!!	-8426
!?	-8427
OD	-8428
gh	-8429
ly	-8430
nd	-8431
ra	-8432
▁갚	-8433
▁걔	-8434
▁겼	-8435
▁꺅	-8436
▁놉	-8437
▁뇬	-8438
▁딧	-8439
▁맬	-8440
▁멎	-8441
▁뭍	-8442
▁붓	-8443
▁뺐	-8444
▁뺴	-8445
▁욯	-8446
▁웡	-8447
▁젓	-8448
▁즌	-8449
▁퍽	-8450
▁홉	-8451
가스	-8452
걸이	-8453
광수	-8454
네스	-8455
더슨	-8456
덕환	-8457
두리	-8458
러기	-8459
먼스	-8460
모습	-8461
모토	-8462
부짖	-8463
비언	-8464
세연	-8465
소니	-8466
시라	-8467
이너	-8468
이야	-8469
잭맨	-8470
지노	-8471
지르	-8472
지마	-8473
집트	-8474
컬트	-8475
톨릭	-8476
파일	-8477
혜진	-8478
,.,	-8479
▁82	-8480
▁87	-8481
▁89	-8482
▁kn	-8483
▁nd	-8484
▁su	-8485
▁가이	-8486
▁감격	-8487
▁개도	-8488
▁걸어	-8489
▁경고	-8490
▁경비	-8491
▁경상	-8492
▁경치	-8493
▁계급	-8494
▁고대	-8495
▁고른	-8496
▁곤란	-8497
▁골드	-8498
▁공평	-8499
▁관광	-8500
▁광수	-8501
▁구한	-8502
▁그루	-8503
▁기여	-8504
▁김종	-8505
▁김준	-8506
▁깨우	-8507
▁나잇	-8508
▁날까	-8509
▁냉소	-8510
▁냉혹	-8511
▁네버	-8512
▁노린	-8513
▁노조	-8514
▁눈알	-8515
▁느릿	-8516
▁능청	-8517
▁다뤄	-8518
▁다지	-8519
▁다치	-8520
▁달래	-8521
▁답습	-8522
▁당첨	-8523
▁대니	-8524
▁대도	-8525
▁대왕	-8526
▁대요	-8527
▁대회	-8528
▁도리	-8529
▁동거	-8530
▁두루	-8531
▁드류	-8532
▁래도	-8533
▁레벨	-8534
▁레지	-8535
▁렸다	-8536
▁로보	-8537
▁리쉬	-8538
▁리차	-8539
▁매너	-8540
▁매춘	-8541
▁맥락	-8542
▁머물	-8543
▁메르	-8544
▁멕시	-8545
▁명분	-8546
▁몸짓	-8547
▁못생	-8548
▁무죄	-8549
▁무진	-8550
▁미생	-8551
▁민국	-8552
▁바바	-8553
▁바쁜	-8554
▁바위	-8555
▁방지	-8556
▁방화	-8557
▁배트	-8558
▁버디	-8559
▁불신	-8560
▁불패	-8561
▁비춰	-8562
▁빙빙	-8563
▁사도	-8564
▁삼촌	-8565
▁생방	-8566
▁생산	-8567
▁성과	-8568
▁성냥	-8569
▁세븐	-8570
▁세워	-8571
▁세지	-8572
▁소위	-8573
▁소이	-8574
▁수녀	-8575
▁수수	-8576
▁신지	-8577
▁심판	-8578
▁아른	-8579
▁안내	-8580
▁애써	-8581
▁애요	-8582
▁양자	-8583
▁어렴	-8584
▁어물	-8585
▁엇갈	-8586
▁여부	-8587
▁연금	-8588
▁연평	-8589
▁예감	-8590
▁옛다	-8591
▁오열	-8592
▁와인	-8593
▁요거	-8594
▁운지	-8595
▁유감	-8596
▁유다	-8597
▁윤진	-8598
▁으실	-8599
▁으휴	-8600
▁음란	-8601
▁응징	-8602
▁이뻤	-8603
▁이진	-8604
▁인질	-8605
▁일치	-8606
▁잡힌	-8607
▁재희	-8608
▁쟁쟁	-8609
▁전후	-8610
▁정기	-8611
▁정무	-8612
▁정식	-8613
▁조이	-8614
▁존슨	-8615
▁종편	-8616
▁주네	-8617
▁줄줄	-8618
▁지수	-8619
▁지향	-8620
▁질려	-8621
▁짜린	-8622
▁찔끔	-8623
▁최곤	-8624
▁추상	-8625
▁치매	-8626
▁콩콩	-8627
▁쿼터	-8628
▁타격	-8629
▁타고	-8630
▁탱크	-8631
▁토크	-8632
▁트로	-8633
▁퍼포	-8634
▁페넬	-8635
▁편도	-8636
▁포레	-8637
▁표출	-8638
▁피로	-8639
▁피우	-8640
▁필모	-8641
▁할로	-8642
▁허락	-8643
▁현명	-8644
▁혼났	-8645
▁흔치	-8646
▁흡혈	-8647
0000	-8648
▁wor	-8649
▁감우성	-8650
▁강원도	-8651
▁개구리	-8652
▁고아라	-8653
▁공드리	-8654
▁괴로웠	-8655
▁김대희	-8656
▁김수미	-8657
▁김아중	-8658
▁김우빈	-8659
▁꺼버린	-8660
▁나오미	-8661
▁누워서	-8662
▁는데도	-8663
▁달라진	-8664
▁도서관	-8665
▁동양인	-8666
▁드러운	-8667
▁들어와	-8668
▁따라잡	-8669
▁딸아이	-8670
▁라이토	-8671
▁러블리	-8672
▁레이스	-8673
▁류덕환	-8674
▁마돈나	-8675
▁마법사	-8676
▁미사일	-8677
▁미지근	-8678
▁바이블	-8679
▁박시환	-8680
▁박진희	-8681
▁발버둥	-8682
▁봣으면	-8683
▁부러웠	-8684
▁브라질	-8685
▁소수자	-8686
▁시네마	-8687
▁시켜라	-8688
▁싸가지	-8689
▁아담스	-8690
▁아파서	-8691
▁아파트	-8692
▁야겠다	-8693
▁어쩌구	-8694
▁여전사	-8695
▁연대기	-8696
▁오컬트	-8697
▁올려야	-8698
▁우베볼	-8699
▁울부짖	-8700
▁워스트	-8701
▁이동진	-8702
▁이따위	-8703
▁이라고	-8704
▁이수근	-8705
▁이지아	-8706
▁이집트	-8707
▁이해력	-8708
▁전도연	-8709
▁주진모	-8710
▁지껄이	-8711
▁직장인	-8712
▁징징대	-8713
▁총싸움	-8714
▁태어났	-8715
▁터진다	-8716
▁토요일	-8717
▁티라노	-8718
▁파고드	-8719
▁파이널	-8720
▁파이트	-8721
▁한구석	-8722
▁한반도	-8723
▁해안가	-8724
▁휴잭맨	-8725
▁...;	-8726
▁1997	-8727
▁1998	-8728
▁거침없이	-8729
▁교통사고	-8730
▁데려다가	-8731
▁두근거리	-8732
▁비슷비슷	-8733
▁상관없이	-8734
▁샤를리즈	-8735
▁어땠을까	-8736
▁어우러져	-8737
▁자연스레	-8738
▁정신없이	-8739
▁제국주의	-8740
▁퍼포먼스	-8741
▁해집니다	-8742
▁아름다워서	-8743
,,,,,,,,	-8744
ia	-8745
ke	-8746
▁깽	-8747
▁꿰	-8748
▁닳	-8749
▁됏	-8750
▁뒀	-8751
▁뤠	-8752
▁름	-8753
▁윙	-8754
▁좃	-8755
▁죵	-8756
▁쨔	-8757
▁쩍	-8758
▁훤	-8759
▁휩	-8760
▁휼	-8761
거나	-8762
꼬마	-8763
꼬박	-8764
덴티	-8765
라인	-8766
문화	-8767
봐야	-8768
생활	-8769
스럽	-8770
신기	-8771
야마	-8772
어날	-8773
어트	-8774
오공	-8775
운서	-8776
의원	-8777
이시	-8778
일리	-8779
재석	-8780
채원	-8781
탈리	-8782
파리	-8783
펜터	-8784
플렉	-8785
학년	-8786
해야	-8787
해전	-8788
현경	-8789
후무	-8790
ack	-8791
erf	-8792
▁''	-8793
▁04	-8794
▁79	-8795
▁BG	-8796
▁SN	-8797
▁ar	-8798
▁im	-8799
▁tr	-8800
▁가방	-8801
▁갈기	-8802
▁감회	-8803
▁강용	-8804
▁강정	-8805
▁거칠	-8806
▁겹쳐	-8807
▁고도	-8808
▁고무	-8809
▁고사	-8810
▁교묘	-8811
▁군사	-8812
▁권장	-8813
▁그랜	-8814
▁극우	-8815
▁기묘	-8816
▁김용	-8817
▁김인	-8818
▁깨지	-8819
▁꼬이	-8820
▁나락	-8821
▁남길	-8822
▁남북	-8823
▁내주	-8824
▁넘침	-8825
▁놔두	-8826
▁느림	-8827
▁다간	-8828
▁다분	-8829
▁대륙	-8830
▁대세	-8831
▁대인	-8832
▁덕화	-8833
▁둔갑	-8834
▁뒷맛	-8835
▁딱지	-8836
▁띄우	-8837
▁라네	-8838
▁래디	-8839
▁레니	-8840
▁로우	-8841
▁로케	-8842
▁리모	-8843
▁리버	-8844
▁리턴	-8845
▁마침	-8846
▁막막	-8847
▁막말	-8848
▁맞춤	-8849
▁매료	-8850
▁메카	-8851
▁면은	-8852
▁모레	-8853
▁무관	-8854
▁무용	-8855
▁문어	-8856
▁묻히	-8857
▁미나	-8858
▁미라	-8859
▁미카	-8860
▁바퀴	-8861
▁박력	-8862
▁박혀	-8863
▁발성	-8864
▁방대	-8865
▁백야	-8866
▁벌리	-8867
▁보드	-8868
▁보듬	-8869
▁보태	-8870
▁복고	-8871
▁부처	-8872
▁부풀	-8873
▁블리	-8874
▁비상	-8875
▁비웃	-8876
▁비정	-8877
▁뽀뽀	-8878
▁사촌	-8879
▁새기	-8880
▁생동	-8881
▁선한	-8882
▁셔요	-8883
▁소금	-8884
▁소니	-8885
▁쇼크	-8886
▁스틱	-8887
▁슴다	-8888
▁승자	-8889
▁심플	-8890
▁싸대	-8891
▁싸워	-8892
▁싸웠	-8893
▁아플	-8894
▁알렉	-8895
▁알맞	-8896
▁어필	-8897
▁없음	-8898
▁여럿	-8899
▁역동	-8900
▁영리	-8901
▁예비	-8902
▁오감	-8903
▁오다	-8904
▁올까	-8905
▁올인	-8906
▁와나	-8907
▁우물	-8908
▁울궈	-8909
▁웨스	-8910
▁위성	-8911
▁유로	-8912
▁유죄	-8913
▁유코	-8914
▁의아	-8915
▁이놈	-8916
▁이명	-8917
▁이분	-8918
▁이주	-8919
▁인건	-8920
▁인천	-8921
▁입술	-8922
▁잊어	-8923
▁자니	-8924
▁자란	-8925
▁장교	-8926
▁재림	-8927
▁전적	-8928
▁정극	-8929
▁정선	-8930
▁정진	-8931
▁제격	-8932
▁제기	-8933
▁존엄	-8934
▁졸이	-8935
▁좀비	-8936
▁주름	-8937
▁지울	-8938
▁지킬	-8939
▁진전	-8940
▁질린	-8941
▁쪼금	-8942
▁쭈욱	-8943
▁차갑	-8944
▁차례	-8945
▁찰스	-8946
▁처벌	-8947
▁천상	-8948
▁총각	-8949
▁추강	-8950
▁추기	-8951
▁추모	-8952
▁출동	-8953
▁출시	-8954
▁커트	-8955
▁컬러	-8956
▁크기	-8957
▁킹콩	-8958
▁탄압	-8959
▁터널	-8960
▁테마	-8961
▁토모	-8962
▁톡톡	-8963
▁투입	-8964
▁트렌	-8965
▁판사	-8966
▁펀치	-8967
▁페인	-8968
▁평온	-8969
▁폭스	-8970
▁퓨전	-8971
▁하울	-8972
▁할매	-8973
▁해내	-8974
▁해바	-8975
▁헤매	-8976
▁헨리	-8977
▁현주	-8978
▁혹성	-8979
▁화성	-8980
▁화재	-8981
▁휼륭	-8982
▁흐를	-8983
▁흥겹	-8984
▁히히	-8985
덴티티	-8986
베이터	-8987
쓰레기	-8988
프리드	-8989
플렉스	-8990
▁..,	-8991
▁are	-8992
▁for	-8993
▁top	-8994
▁가나다	-8995
▁강수연	-8996
▁개고생	-8997
▁격투기	-8998
▁김고은	-8999
▁김대중	-9000
▁김윤진	-9001
▁김지수	-9002
▁김지운	-9003
▁꼬꼬마	-9004
▁나타낸	-9005
▁낮춰야	-9006
▁니콜슨	-9007
▁다코타	-9008
▁될까요	-9009
▁따라올	-9010
▁라운드	-9011
▁루카스	-9012
▁리차드	-9013
▁리처드	-9014
▁멕시코	-9015
▁무심코	-9016
▁문소리	-9017
▁문채원	-9018
▁바라본	-9019
▁박시후	-9020
▁반가운	-9021
▁방송국	-9022
▁브로스	-9023
▁생생히	-9024
▁서영희	-9025
▁소유진	-9026
▁손오공	-9027
▁시켜야	-9028
▁싱거운	-9029
▁쏟아지	-9030
▁아이스	-9031
▁어렴풋	-9032
▁여학생	-9033
▁역겨워	-9034
▁옵니다	-9035
▁월요일	-9036
▁유전자	-9037
▁윤은혜	-9038
▁을수록	-9039
▁이기심	-9040
▁이민호	-9041
▁이선균	-9042
▁자신감	-9043
▁전두환	-9044
▁정무문	-9045
▁정준영	-9046
▁조한선	-9047
▁주의자	-9048
▁중독자	-9049
▁집어치	-9050
▁찾아왔	-9051
▁카메오	-9052
▁카펜터	-9053
▁케이온	-9054
▁클라이	-9055
▁파이터	-9056
▁퍼시픽	-9057
▁페넬로	-9058
▁프랭크	-9059
▁한니발	-9060
▁할라고	-9061
▁할려면	-9062
▁허우적	-9063
▁흘러간	-9064
▁히틀러	-9065
▁힐러리	-9066
▁힘든데	-9067
▁.;;;	-9068
▁1970	-9069
▁국회의원	-9070
▁그럴듯하	-9071
▁꼬박꼬박	-9072
▁끝내준다	-9073
▁늘어진다	-9074
▁레즈비언	-9075
▁무서워요	-9076
▁부드러운	-9077
▁브레이크	-9078
▁스마트폰	-9079
▁스펙터클	-9080
▁아나운서	-9081
▁어울려요	-9082
▁연평해전	-9083
▁올리비아	-9084
▁이루어진	-9085
▁전무후무	-9086
▁포레스트	-9087
▁사이프리드	-9088
▁아이덴티티	-9089
▁필모그래피	-9090
▁1234567	-9091
UT	-9092
hh	-9093
ho	-9094
ol	-9095
pt	-9096
▁꼈	-9097
▁뇨	-9098
▁돠	-9099
▁딕	-9100
▁렛	-9101
▁봇	-9102
▁샐	-9103
▁샴	-9104
▁쏜	-9105
▁옜	-9106
▁웁	-9107
▁젝	-9108
▁쪙	-9109
▁칩	-9110
▁큽	-9111
▁퉷	-9112
▁폄	-9113
▁풉	-9114
▁횟	-9115
관계	-9116
군분	-9117
꾸로	-9118
낸다	-9119
높이	-9120
닉스	-9121
담스	-9122
라블	-9123
람쥐	-9124
로리	-9125
로얄	-9126
루치	-9127
모리	-9128
몬드	-9129
무원	-9130
버려	-9131
범죄	-9132
부성	-9133
생크	-9134
서먼	-9135
소문	-9136
소사	-9137
시노	-9138
시울	-9139
애나	-9140
왕짱	-9141
우마	-9142
음을	-9143
져야	-9144
창석	-9145
커녕	-9146
타분	-9147
탈출	-9148
테랑	-9149
팔마	-9150
포드	-9151
풀이	-9152
하트	-9153
ect	-9154
ife	-9155
ock	-9156
▁32	-9157
▁96	-9158
▁NO	-9159
▁pd	-9160
▁sn	-9161
▁sp	-9162
▁간결	-9163
▁갇힌	-9164
▁감미	-9165
▁감추	-9166
▁강성	-9167
▁개신	-9168
▁개오	-9169
▁검술	-9170
▁결여	-9171
▁결핍	-9172
▁경향	-9173
▁고든	-9174
▁공략	-9175
▁구구	-9176
▁구미	-9177
▁구속	-9178
▁굴곡	-9179
▁굴러	-9180
▁귓가	-9181
▁그은	-9182
▁기원	-9183
▁김해	-9184
▁꽥꽥	-9185
▁꾸미	-9186
▁끈끈	-9187
▁끊이	-9188
▁내부	-9189
▁널리	-9190
▁노고	-9191
▁노랑	-9192
▁노릇	-9193
▁눈감	-9194
▁니라	-9195
▁다물	-9196
▁다스	-9197
▁다카	-9198
▁단다	-9199
▁단면	-9200
▁달렸	-9201
▁당께	-9202
▁대견	-9203
▁댄서	-9204
▁더글	-9205
▁던질	-9206
▁덤덤	-9207
▁도통	-9208
▁돈다	-9209
▁돌파	-9210
▁동반	-9211
▁동성	-9212
▁동포	-9213
▁들으	-9214
▁땡기	-9215
▁뚱뚱	-9216
▁뜨거	-9217
▁뜻밖	-9218
▁료코	-9219
▁루고	-9220
▁링컨	-9221
▁마미	-9222
▁마어	-9223
▁망정	-9224
▁매길	-9225
▁매달	-9226
▁매체	-9227
▁먹방	-9228
▁모던	-9229
▁모도	-9230
▁모였	-9231
▁몰르	-9232
▁무당	-9233
▁무법	-9234
▁묻힌	-9235
▁미성	-9236
▁믹스	-9237
▁바꼈	-9238
▁바쁘	-9239
▁바야	-9240
▁박살	-9241
▁박성	-9242
▁박현	-9243
▁반미	-9244
▁반장	-9245
▁발매	-9246
▁발정	-9247
▁발하	-9248
▁밤새	-9249
▁배끼	-9250
▁백제	-9251
▁벌어	-9252
▁베껴	-9253
▁변했	-9254
▁보네	-9255
▁보도	-9256
▁복장	-9257
▁본래	-9258
▁부녀	-9259
▁부당	-9260
▁분한	-9261
▁불렀	-9262
▁불문	-9263
▁브이	-9264
▁블럭	-9265
▁블레	-9266
▁비서	-9267
▁비운	-9268
▁비장	-9269
▁비호	-9270
▁사치	-9271
▁산뜻	-9272
▁살해	-9273
▁상담	-9274
▁상사	-9275
▁서진	-9276
▁설계	-9277
▁성욕	-9278
▁세라	-9279
▁세밀	-9280
▁세용	-9281
▁소라	-9282
▁소룡	-9283
▁소릴	-9284
▁소망	-9285
▁소주	-9286
▁숀펜	-9287
▁수잔	-9288
▁순서	-9289
▁숨기	-9290
▁숨죽	-9291
▁스승	-9292
▁스웨	-9293
▁시크	-9294
▁식구	-9295
▁써니	-9296
▁씨발	-9297
▁아비	-9298
▁아씨	-9299
▁아유	-9300
▁아치	-9301
▁아하	-9302
▁악령	-9303
▁안나	-9304
▁애교	-9305
▁약했	-9306
▁양념	-9307
▁얘긴	-9308
▁여긴	-9309
▁여섯	-9310
▁역경	-9311
▁연개	-9312
▁연우	-9313
▁엿보	-9314
▁영점	-9315
▁예스	-9316
▁오광	-9317
▁오픈	-9318
▁오후	-9319
▁올릴	-9320
▁옮기	-9321
▁요괴	-9322
▁요세	-9323
▁욕했	-9324
▁우우	-9325
▁우유	-9326
▁운다	-9327
▁웅얼	-9328
▁유방	-9329
▁유투	-9330
▁이니	-9331
▁이장	-9332
▁이즈	-9333
▁입맛	-9334
▁장식	-9335
▁장엄	-9336
▁장판	-9337
▁장학	-9338
▁재즈	-9339
▁저걸	-9340
▁전용	-9341
▁절벽	-9342
▁정우	-9343
▁정직	-9344
▁조셉	-9345
▁조안	-9346
▁조진	-9347
▁주걸	-9348
▁주도	-9349
▁주부	-9350
▁줄까	-9351
▁중화	-9352
▁지아	-9353
▁짜여	-9354
▁쫄딱	-9355
▁쫓아	-9356
▁쯔쯔	-9357
▁처지	-9358
▁천장	-9359
▁철없	-9360
▁쳐라	-9361
▁초중	-9362
▁추하	-9363
▁출근	-9364
▁충돌	-9365
▁치즈	-9366
▁친척	-9367
▁카우	-9368
▁카페	-9369
▁캐치	-9370
▁코끝	-9371
▁퀴즈	-9372
▁크림	-9373
▁클릭	-9374
▁태평	-9375
▁투명	-9376
▁특공	-9377
▁특촬	-9378
▁티켓	-9379
▁파렐	-9380
▁파커	-9381
▁팬텀	-9382
▁폭격	-9383
▁하녀	-9384
▁하류	-9385
▁한류	-9386
▁해당	-9387
▁허점	-9388
▁홍련	-9389
▁활력	-9390
▁회수	-9391
▁회자	-9392
과이어	-9393
군분투	-9394
나이더	-9395
넨버그	-9396
니스트	-9397
래프트	-9398
이야기	-9399
제라블	-9400
티스트	-9401
ally	-9402
good	-9403
▁195	-9404
▁911	-9405
▁BGM	-9406
▁But	-9407
▁REC	-9408
▁You	-9409
▁가져야	-9410
▁가필드	-9411
▁강용석	-9412
▁거꾸로	-9413
▁곽부성	-9414
▁교도소	-9415
▁구해서	-9416
▁귀여우	-9417
▁기념비	-9418
▁기타노	-9419
▁김동완	-9420
▁나오코	-9421
▁내세운	-9422
▁네이션	-9423
▁눈높이	-9424
▁눈시울	-9425
▁다길래	-9426
▁다더니	-9427
▁다람쥐	-9428
▁더구나	-9429
▁더러움	-9430
▁데려가	-9431
▁돌고래	-9432
▁뒷모습	-9433
▁드팔마	-9434
▁라이즈	-9435
▁맙소사	-9436
▁미니언	-9437
▁밑바닥	-9438
▁바가지	-9439
▁바꿔야	-9440
▁바스코	-9441
▁박진영	-9442
▁밨는데	-9443
▁베이비	-9444
▁베이컨	-9445
▁베테랑	-9446
▁브라운	-9447
▁비틀즈	-9448
▁삽입곡	-9449
▁생긴다	-9450
▁소림사	-9451
▁쇼생크	-9452
▁스타크	-9453
▁시한부	-9454
▁십니까	-9455
▁아자니	-9456
▁애슐리	-9457
▁애청자	-9458
▁어떤지	-9459
▁어울린	-9460
▁언젠간	-9461
▁엘리자	-9462
▁여성부	-9463
▁연속극	-9464
▁와일드	-9465
▁우에노	-9466
▁윌리암	-9467
▁유동근	-9468
▁을라나	-9469
▁을려고	-9470
▁일으킨	-9471
▁잔잔히	-9472
▁절실히	-9473
▁정이건	-9474
▁조기종	-9475
▁주변인	-9476
▁죽여도	-9477
▁지겨움	-9478
▁지나쳤	-9479
▁지만은	-9480
▁지켜야	-9481
▁차려라	-9482
▁체인지	-9483
▁충실하	-9484
▁코끼리	-9485
▁킹왕짱	-9486
▁태극기	-9487
▁해병대	-9488
▁현대판	-9489
▁홍경인	-9490
▁황정음	-9491
▁.!!!	-9492
▁..??	-9493
▁that	-9494
▁고군분투	-9495
▁고리타분	-9496
▁구로사와	-9497
▁국민학교	-9498
▁글로리아	-9499
▁들어와서	-9500
▁뛰어다니	-9501
▁만든다고	-9502
▁맥아담스	-9503
▁무서워하	-9504
▁바이올린	-9505
▁배틀로얄	-9506
▁아닐까요	-9507
▁아닙니까	-9508
▁아름다우	-9509
▁어우러지	-9510
▁우마서먼	-9511
▁으로부터	-9512
▁자이언트	-9513
▁트라우마	-9514
▁해바라기	-9515
▁느껴집니다	-9516
▁크로넨버그	-9517
▁!!!!!!!!!!!!!	-9518
▁...............	-9519
na	-9520
os	-9521
ri	-9522
us	-9523
wo	-9524
ye	-9525
▁Q	-9526
▁겅	-9527
▁꺾	-9528
▁껌	-9529
▁꼼	-9530
▁넉	-9531
▁늠	-9532
▁렵	-9533
▁른	-9534
▁뮬	-9535
▁뷁	-9536
▁빔	-9537
▁뿅	-9538
▁쒯	-9539
▁얍	-9540
▁콕	-9541
▁휠	-9542
느님	-9543
달콩	-9544
던트	-9545
러진	-9546
런트	-9547
레비	-9548
렌트	-9549
로소	-9550
만큼	-9551
망상	-9552
매매	-9553
민지	-9554
부인	-9555
부진	-9556
블로	-9557
사벽	-9558
석천	-9559
설수	-9560
스민	-9561
스텔	-9562
식간	-9563
오스	-9564
유키	-9565
장구	-9566
정원	-9567
질팡	-9568
축구	-9569
타기	-9570
텐츠	-9571
티스	-9572
포트	-9573
폴라	-9574
ade	-9575
ell	-9576
ith	-9577
ive	-9578
way	-9579
▁!?	-9580
▁31	-9581
▁67	-9582
▁68	-9583
▁78	-9584
▁CS	-9585
▁al	-9586
▁bc	-9587
▁dd	-9588
▁ok	-9589
▁us	-9590
▁ww	-9591
▁가두	-9592
▁각종	-9593
▁갇혀	-9594
▁갈팡	-9595
▁강해	-9596
▁개무	-9597
▁개선	-9598
▁개지	-9599
▁걸이	-9600
▁겨워	-9601
▁겹치	-9602
▁경호	-9603
▁고아	-9604
▁공백	-9605
▁공자	-9606
▁관서	-9607
▁권총	-9608
▁권투	-9609
▁금가	-9610
▁기초	-9611
▁김새	-9612
▁까요	-9613
▁깜빡	-9614
▁꺼지	-9615
▁남한	-9616
▁내기	-9617
▁내력	-9618
▁넘길	-9619
▁놈놈	-9620
▁놓쳤	-9621
▁눈깔	-9622
▁단단	-9623
▁더운	-9624
▁도착	-9625
▁독고	-9626
▁돌릴	-9627
▁두서	-9628
▁뒤쳐	-9629
▁따져	-9630
▁랜드	-9631
▁레디	-9632
▁로라	-9633
▁로썬	-9634
▁로지	-9635
▁롤러	-9636
▁루피	-9637
▁마나	-9638
▁마당	-9639
▁마더	-9640
▁마력	-9641
▁마스	-9642
▁마한	-9643
▁막혀	-9644
▁만능	-9645
▁말년	-9646
▁매즈	-9647
▁머금	-9648
▁메디	-9649
▁모모	-9650
▁몽상	-9651
▁무스	-9652
▁무자	-9653
▁미덕	-9654
▁미켈	-9655
▁밀도	-9656
▁밋기	-9657
▁바뀔	-9658
▁박근	-9659
▁박세	-9660
▁박이	-9661
▁발광	-9662
▁발칙	-9663
▁밥맛	-9664
▁버그	-9665
▁버킷	-9666
▁벌려	-9667
▁범벅	-9668
▁범수	-9669
▁베꼈	-9670
▁보트	-9671
▁복사	-9672
▁부들	-9673
▁부셔	-9674
▁부하	-9675
▁북극	-9676
▁분단	-9677
▁불평	-9678
▁빙자	-9679
▁뺨치	-9680
▁사리	-9681
▁사마	-9682
▁사뭇	-9683
▁사태	-9684
▁상속	-9685
▁색기	-9686
▁생전	-9687
▁소란	-9688
▁소송	-9689
▁손해	-9690
▁송일	-9691
▁송재	-9692
▁수긍	-9693
▁수능	-9694
▁숙제	-9695
▁승질	-9696
▁신가	-9697
▁신자	-9698
▁싱겁	-9699
▁아랑	-9700
▁아싸	-9701
▁알콩	-9702
▁앙상	-9703
▁애뜻	-9704
▁애처	-9705
▁앤디	-9706
▁얽히	-9707
▁에디	-9708
▁여백	-9709
▁연발	-9710
▁열혈	-9711
▁옆집	-9712
▁오연	-9713
▁오염	-9714
▁오즈	-9715
▁외설	-9716
▁요정	-9717
▁요청	-9718
▁우산	-9719
▁워라	-9720
▁원본	-9721
▁원시	-9722
▁은밀	-9723
▁의의	-9724
▁이길	-9725
▁이르	-9726
▁이색	-9727
▁이여	-9728
▁이요	-9729
▁이화	-9730
▁일류	-9731
▁임금	-9732
▁임무	-9733
▁자칭	-9734
▁자화	-9735
▁작곡	-9736
▁작살	-9737
▁잣대	-9738
▁장모	-9739
▁장화	-9740
▁재기	-9741
▁저랬	-9742
▁전주	-9743
▁정교	-9744
▁정녕	-9745
▁정크	-9746
▁조격	-9747
▁조음	-9748
▁조종	-9749
▁조크	-9750
▁종족	-9751
▁주유	-9752
▁줄여	-9753
▁중성	-9754
▁증언	-9755
▁지긋	-9756
▁지방	-9757
▁짓밟	-9758
▁짠해	-9759
▁착오	-9760
▁찬다	-9761
▁천안	-9762
▁체가	-9763
▁체제	-9764
▁초한	-9765
▁출품	-9766
▁컨대	-9767
▁켈리	-9768
▁크레	-9769
▁키는	-9770
▁타리	-9771
▁테크	-9772
▁템포	-9773
▁투니	-9774
▁툭툭	-9775
▁파더	-9776
▁패닝	-9777
▁편승	-9778
▁편협	-9779
▁평등	-9780
▁폐인	-9781
▁포로	-9782
▁폭동	-9783
▁표면	-9784
▁표방	-9785
▁풀려	-9786
▁풍광	-9787
▁프란	-9788
▁핀처	-9789
▁필드	-9790
▁하리	-9791
▁학도	-9792
▁한들	-9793
▁호모	-9794
▁호연	-9795
▁화산	-9796
▁환호	-9797
▁황후	-9798
▁회차	-9799
▁훔치	-9800
▁훗날	-9801
▁흐믓	-9802
▁희열	-9803
▁히든	-9804
가스카	-9805
그리거	-9806
쁩니다	-9807
주의자	-9808
칩니다	-9809
1010	-9810
9999	-9811
▁..'	-9812
▁150	-9813
▁www	-9814
▁가까워	-9815
▁감동이	-9816
▁개신교	-9817
▁갱스터	-9818
▁겠어요	-9819
▁경상도	-9820
▁귀여니	-9821
▁그리도	-9822
▁기다릴	-9823
▁김병만	-9824
▁김정화	-9825
▁김정훈	-9826
▁나탈리	-9827
▁남겨진	-9828
▁넘사벽	-9829
▁넘어갈	-9830
▁놀라웠	-9831
▁놈놈놈	-9832
▁다네요	-9833
▁다이아	-9834
▁달린다	-9835
▁더이다	-9836
▁데이즈	-9837
▁도망치	-9838
▁독수리	-9839
▁돌이켜	-9840
▁될수록	-9841
▁두근거	-9842
▁드라이	-9843
▁디지털	-9844
▁때려치	-9845
▁말아먹	-9846
▁메이드	-9847
▁멜로디	-9848
▁모자르	-9849
▁모조리	-9850
▁못난이	-9851
▁배신감	-9852
▁버스터	-9853
▁벗어날	-9854
▁베이커	-9855
▁변함없	-9856
▁브레드	-9857
▁브리짓	-9858
▁비스트	-9859
▁살아간	-9860
▁살아온	-9861
▁생동감	-9862
▁샤이니	-9863
▁성범죄	-9864
▁소중히	-9865
▁순식간	-9866
▁스미스	-9867
▁스텔론	-9868
▁아이템	-9869
▁알렉산	-9870
▁알아듣	-9871
▁알아주	-9872
▁어거지	-9873
▁엘리트	-9874
▁여진구	-9875
▁예쁘다	-9876
▁오래가	-9877
▁오리엔	-9878
▁오스카	-9879
▁온전히	-9880
▁용가리	-9881
▁유사라	-9882
▁유오성	-9883
▁유재석	-9884
▁으으으	-9885
▁이명박	-9886
▁이보영	-9887
▁이제훈	-9888
▁이태임	-9889
▁일부분	-9890
▁장만옥	-9891
▁장학우	-9892
▁저학년	-9893
▁전우치	-9894
▁정보석	-9895
▁제라드	-9896
▁제이콥	-9897
▁주걸륜	-9898
▁주어진	-9899
▁줄리안	-9900
▁중국어	-9901
▁징기스	-9902
▁참가자	-9903
▁최곤데	-9904
▁최루성	-9905
▁최시원	-9906
▁카지노	-9907
▁칼싸움	-9908
▁코폴라	-9909
▁클리프	-9910
▁터져서	-9911
▁특공대	-9912
▁프렌즈	-9913
▁하느님	-9914
▁했어야	-9915
▁했으며	-9916
▁홍석천	-9917
▁휴대폰	-9918
▁흉내내	-9919
▁blog	-9920
▁갈팡질팡	-9921
▁깎아내리	-9922
▁뒷이야기	-9923
▁뜬금없이	-9924
▁맥그리거	-9925
▁모른다는	-9926
▁바람둥이	-9927
▁브로스넌	-9928
▁슈퍼스타	-9929
▁슬레이터	-9930
▁아름다울	-9931
▁알콩달콩	-9932
▁야마카시	-9933
▁어렴풋이	-9934
▁어린아이	-9935
▁엑스파일	-9936
▁오마이갓	-9937
▁이리저리	-9938
▁지지부진	-9939
▁튀어나오	-9940
▁페넬로페	-9941
▁혹성탈출	-9942
▁.,.,.	-9943
▁?????	-9944
▁떨어뜨린다	-9945
▁떨어집니다	-9946
▁로드리게즈	-9947
▁마다가스카	-9948
▁엘리베이터	-9949
.......	-9950
▁,.,.,.	-9951
▁;;;;;;;;;;;;	-9952
▁??????????????	-9953
DB	-9954
ER	-9955
cc	-9956
ee	-9957
ks	-9958
ud	-9959
▁괄	-9960
▁괞	-9961
▁굶	-9962
▁깼	-9963
▁꽈	-9964
▁꿋	-9965
▁넬	-9966
▁넴	-9967
▁뒹	-9968
▁럿	-9969
▁룩	-9970
▁릅	-9971
▁벡	-9972
▁뺑	-9973
▁뿔	-9974
▁샵	-9975
▁섀	-9976
▁쇄	-9977
▁잰	-9978
▁쫑	-9979
▁캣	-9980
▁퐁	-9981
▁훑	-9982
겨서	-9983
경택	-9984
고리	-9985
구만	-9986
기리	-9987
길동	-9988
날리	-9989
남아	-9990
느니	-9991
니오	-9992
다나	-9993
대소	-9994
더블	-9995
도질	-9996
드벤	-9997
려원	-9998
르륵	-9999
르신	-10000
립토	-10001
미드	-10002
바지	-10003
박이	-10004
반스	-10005
방식	-10006
벌레	-10007
시간	-10008
시즘	-10009
신도	-10010
업자	-10011
요환	-10012
일성	-10013
장난	-10014
좌왕	-10015
징어	-10016
차기	-10017
청기	-10018
체능	-10019
친절	-10020
트로	-10021
홍철	-10022
;;;	-10023
ere	-10024
ess	-10025
▁!.	-10026
▁58	-10027
▁66	-10028
▁76	-10029
▁83	-10030
▁gg	-10031
▁km	-10032
▁간호	-10033
▁갈증	-10034
▁갈피	-10035
▁강풀	-10036
▁개구	-10037
▁개밥	-10038
▁개재	-10039
▁거래	-10040
▁거저	-10041
▁건드	-10042
▁건졌	-10043
▁걸쳐	-10044
▁걸친	-10045
▁검프	-10046
▁결심	-10047
▁계몽	-10048
▁고흐	-10049
▁공사	-10050
▁공영	-10051
▁관음	-10052
▁교체	-10053
▁구상	-10054
▁구질	-10055
▁군국	-10056
▁굴욕	-10057
▁궁극	-10058
▁권태	-10059
▁규모	-10060
▁금물	-10061
▁급작	-10062
▁기막	-10063
▁김흥	-10064
▁깊숙	-10065
▁껴서	-10066
▁끝맺	-10067
▁나대	-10068
▁난데	-10069
▁낭패	-10070
▁넘겼	-10071
▁노노	-10072
▁노르	-10073
▁논할	-10074
▁니나	-10075
▁닥쳐	-10076
▁단독	-10077
▁단발	-10078
▁달성	-10079
▁닮음	-10080
▁담임	-10081
▁당대	-10082
▁대명	-10083
▁대서	-10084
▁대우	-10085
▁던진	-10086
▁도발	-10087
▁도배	-10088
▁독보	-10089
▁됐었	-10090
▁두리	-10091
▁드럼	-10092
▁따질	-10093
▁똘똘	-10094
▁띄엄	-10095
▁라미	-10096
▁로미	-10097
▁로울	-10098
▁룬드	-10099
▁류급	-10100
▁리네	-10101
▁리듬	-10102
▁립니	-10103
▁마비	-10104
▁말라	-10105
▁망칠	-10106
▁맞췄	-10107
▁매장	-10108
▁멈춰	-10109
▁면모	-10110
▁면상	-10111
▁모녀	-10112
▁모세	-10113
▁모스	-10114
▁모어	-10115
▁모텔	-10116
▁모토	-10117
▁몹시	-10118
▁못된	-10119
▁무민	-10120
▁무상	-10121
▁무전	-10122
▁문란	-10123
▁물러	-10124
▁미로	-10125
▁미세	-10126
▁민정	-10127
▁민중	-10128
▁바닷	-10129
▁박기	-10130
▁박장	-10131
▁박차	-10132
▁발달	-10133
▁벤쳐	-10134
▁병기	-10135
▁보성	-10136
▁복습	-10137
▁볼륨	-10138
▁분리	-10139
▁분야	-10140
▁불명	-10141
▁불협	-10142
▁뻣뻣	-10143
▁뿌린	-10144
▁사납	-10145
▁사족	-10146
▁사채	-10147
▁사탄	-10148
▁살펴	-10149
▁삼생	-10150
▁상기	-10151
▁상위	-10152
▁생소	-10153
▁샤크	-10154
▁서구	-10155
▁서툰	-10156
▁선장	-10157
▁선진	-10158
▁세르	-10159
▁세탁	-10160
▁센세	-10161
▁소동	-10162
▁소모	-10163
▁소용	-10164
▁수박	-10165
▁쉐프	-10166
▁스코	-10167
▁스킨	-10168
▁스태	-10169
▁슬랩	-10170
▁슬립	-10171
▁승기	-10172
▁승승	-10173
▁시어	-10174
▁신문	-10175
▁신중	-10176
▁실버	-10177
▁실타	-10178
▁심할	-10179
▁십자	-10180
▁쌓인	-10181
▁썸머	-10182
▁아려	-10183
▁아멘	-10184
▁아부	-10185
▁아슬	-10186
▁아즈	-10187
▁야만	-10188
▁야호	-10189
▁약점	-10190
▁어유	-10191
▁얼렁	-10192
▁엄지	-10193
▁업적	-10194
▁에잇	-10195
▁여라	-10196
▁연말	-10197
▁연정	-10198
▁영회	-10199
▁예외	-10200
▁온데	-10201
▁완결	-10202
▁요상	-10203
▁용도	-10204
▁울프	-10205
▁원장	-10206
▁유괴	-10207
▁유키	-10208
▁유학	-10209
▁으련	-10210
▁음미	-10211
▁음성	-10212
▁의한	-10213
▁이경	-10214
▁이끄	-10215
▁이다	-10216
▁이빨	-10217
▁이이	-10218
▁일색	-10219
▁입양	-10220
▁잔다	-10221
▁잔치	-10222
▁잡다	-10223
▁재이	-10224
▁전직	-10225
▁점차	-10226
▁접속	-10227
▁접해	-10228
▁정소	-10229
▁제트	-10230
▁조그	-10231
▁조상	-10232
▁조형	-10233
▁졸림	-10234
▁주룩	-10235
▁죽도	-10236
▁줄게	-10237
▁즉시	-10238
▁지휘	-10239
▁진중	-10240
▁쪽팔	-10241
▁쫓기	-10242
▁쭉쭉	-10243
▁찍히	-10244
▁창고	-10245
▁처녀	-10246
▁천포	-10247
▁초록	-10248
▁초짜	-10249
▁총집	-10250
▁추운	-10251
▁취재	-10252
▁치도	-10253
▁카모	-10254
▁칼리	-10255
▁컴백	-10256
▁쿠퍼	-10257
▁키운	-10258
▁탄식	-10259
▁털리	-10260
▁토나	-10261
▁토마	-10262
▁파파	-10263
▁페이	-10264
▁포맷	-10265
▁포즈	-10266
▁품달	-10267
▁하의	-10268
▁한낱	-10269
▁한창	-10270
▁할라	-10271
▁해맑	-10272
▁햇살	-10273
▁향하	-10274
▁혜선	-10275
▁호호	-10276
▁활극	-10277
▁휘둘	-10278
▁흐트	-10279
▁희진	-10280
갑니다	-10281
드벤처	-10282
설수설	-10283
칼립토	-10284
케이지	-10285
콘서트	-10286
▁194	-10287
▁OUT	-10288
▁Ost	-10289
▁bbb	-10290
▁간절히	-10291
▁감수성	-10292
▁갑시다	-10293
▁강해서	-10294
▁검색어	-10295
▁결정판	-10296
▁고창석	-10297
▁골라서	-10298
▁공무원	-10299
▁과감히	-10300
▁곽경택	-10301
▁금성무	-10302
▁기다린	-10303
▁김동욱	-10304
▁김두한	-10305
▁김민정	-10306
▁김영철	-10307
▁김원효	-10308
▁김유정	-10309
▁김인권	-10310
▁김지영	-10311
▁김청기	-10312
▁깨어나	-10313
▁꺼져라	-10314
▁난도질	-10315
▁난장판	-10316
▁내게는	-10317
▁넘버원	-10318
▁노민우	-10319
▁노트북	-10320
▁녹아들	-10321
▁놀아나	-10322
▁능력자	-10323
▁다우니	-10324
▁다이빙	-10325
▁다행히	-10326
▁대체로	-10327
▁더스틴	-10328
▁도시락	-10329
▁돌려서	-10330
▁드려야	-10331
▁들어온	-10332
▁레슬리	-10333
▁레이미	-10334
▁레인져	-10335
▁망설임	-10336
▁머저리	-10337
▁멍하니	-10338
▁메르스	-10339
▁메마른	-10340
▁모레츠	-10341
▁모자랄	-10342
▁문제작	-10343
▁바람직	-10344
▁바래요	-10345
▁박상민	-10346
▁박재정	-10347
▁박철수	-10348
▁박하선	-10349
▁배워야	-10350
▁백진희	-10351
▁버무린	-10352
▁벨루치	-10353
▁불친절	-10354
▁비로소	-10355
▁사기극	-10356
▁사무엘	-10357
▁생명력	-10358
▁성장통	-10359
▁스웨덴	-10360
▁스파르	-10361
▁시대극	-10362
▁시원찮	-10363
▁써본다	-10364
▁쏟아져	-10365
▁아이큐	-10366
▁안다고	-10367
▁앙상블	-10368
▁앤더슨	-10369
▁어느덧	-10370
▁어르신	-10371
▁였음을	-10372
▁예체능	-10373
▁올리버	-10374
▁우주선	-10375
▁이런지	-10376
▁이시영	-10377
▁이제껏	-10378
▁임요환	-10379
▁정려원	-10380
▁제주도	-10381
▁조미료	-10382
▁조진웅	-10383
▁주니어	-10384
▁준다면	-10385
▁찌질이	-10386
▁책임감	-10387
▁추기경	-10388
▁코리아	-10389
▁코스모	-10390
▁큽니다	-10391
▁턱없이	-10392
▁통틀어	-10393
▁툭하면	-10394
▁팔레스	-10395
▁표한다	-10396
▁풀어놓	-10397
▁피닉스	-10398
▁피터팬	-10399
▁현주소	-10400
▁홍길동	-10401
▁흡혈귀	-10402
▁.???	-10403
▁1995	-10404
▁1999	-10405
▁?...	-10406
▁time	-10407
▁갑작스런	-10408
▁귀여운데	-10409
▁기독교인	-10410
▁더러워서	-10411
▁드릴게요	-10412
▁디자이너	-10413
▁떨어트리	-10414
▁레지던트	-10415
▁밀려온다	-10416
▁박장대소	-10417
▁부끄러워	-10418
▁브리트니	-10419
▁사고방식	-10420
▁센세이션	-10421
▁스턴트맨	-10422
▁슬랩스틱	-10423
▁실베스타	-10424
▁아픕니다	-10425
▁어드벤처	-10426
▁어쩌다가	-10427
▁영웅주의	-10428
▁오다기리	-10429
▁오리엔탈	-10430
▁우왕좌왕	-10431
▁크리스티	-10432
▁해서인지	-10433
▁횡설수설	-10434
▁개그콘서트	-10435
▁아포칼립토	-10436
▁엘리자베스	-10437
▁팔레스타인	-10438
▁포켓몬스터	-10439
▁니콜라스케이지	-10440
OP	-10441
au	-10442
kd	-10443
ma	-10444
ne	-10445
th	-10446
▁갯	-10447
▁괸	-10448
▁넝	-10449
▁댁	-10450
▁랙	-10451
▁멱	-10452
▁밭	-10453
▁뻗	-10454
▁샛	-10455
▁슥	-10456
▁앍	-10457
▁욘	-10458
▁욥	-10459
▁융	-10460
▁잌	-10461
▁졷	-10462
▁짚	-10463
▁촛	-10464
▁춥	-10465
▁츤	-10466
▁콱	-10467
▁홥	-10468
궁창	-10469
균동	-10470
느리	-10471
다란	-10472
덕지	-10473
도록	-10474
드레	-10475
드립	-10476
뚱땅	-10477
렁크	-10478
만장	-10479
맥스	-10480
박자	-10481
버거	-10482
벤트	-10483
보기	-10484
보다	-10485
부들	-10486
북자	-10487
분별	-10488
불명	-10489
빨리	-10490
사노	-10491
사자	-10492
새끼	-10493
새벽	-10494
수아	-10495
스피	-10496
와이	-10497
요시	-10498
워야	-10499
자리	-10500
징가	-10501
창기	-10502
카이	-10503
컬리	-10504
패닝	-10505
하이	-10506
학자	-10507
효과	-10508
희경	-10509
EST	-10510
ang	-10511
ies	-10512
les	-10513
ong	-10514
▁08	-10515
▁51	-10516
▁55	-10517
▁KT	-10518
▁Re	-10519
▁br	-10520
▁ex	-10521
▁he	-10522
▁kt	-10523
▁mc	-10524
▁가격	-10525
▁가발	-10526
▁각오	-10527
▁간혹	-10528
▁감도	-10529
▁감자	-10530
▁거물	-10531
▁거인	-10532
▁거절	-10533
▁걸요	-10534
▁겉도	-10535
▁게시	-10536
▁겨운	-10537
▁격하	-10538
▁견딜	-10539
▁겸손	-10540
▁계약	-10541
▁계절	-10542
▁고갈	-10543
▁고조	-10544
▁고치	-10545
▁공통	-10546
▁과자	-10547
▁관해	-10548
▁괜한	-10549
▁구스	-10550
▁구심	-10551
▁구토	-10552
▁구현	-10553
▁궁굼	-10554
▁권해	-10555
▁그딴	-10556
▁그렌	-10557
▁극악	-10558
▁기립	-10559
▁김신	-10560
▁까리	-10561
▁꼇다	-10562
▁꼽힐	-10563
▁꿀꿀	-10564
▁꿋꿋	-10565
▁끈기	-10566
▁나나	-10567
▁나뉜	-10568
▁나선	-10569
▁나위	-10570
▁낚일	-10571
▁날씨	-10572
▁남여	-10573
▁내라	-10574
▁내지	-10575
▁내포	-10576
▁냉철	-10577
▁노자	-10578
▁녹여	-10579
▁농장	-10580
▁눈길	-10581
▁니노	-10582
▁니키	-10583
▁다뤘	-10584
▁당혹	-10585
▁덩달	-10586
▁도달	-10587
▁동작	-10588
▁되살	-10589
▁듬뿍	-10590
▁떠났	-10591
▁떠드	-10592
▁떨림	-10593
▁뛴다	-10594
▁띄워	-10595
▁라다	-10596
▁랄프	-10597
▁러니	-10598
▁려던	-10599
▁로얄	-10600
▁로워	-10601
▁리딕	-10602
▁리틀	-10603
▁마감	-10604
▁마린	-10605
▁마세	-10606
▁마키	-10607
▁막힐	-10608
▁맘마	-10609
▁매염	-10610
▁맹탕	-10611
▁메기	-10612
▁명목	-10613
▁모차	-10614
▁몰두	-10615
▁물려	-10616
▁미침	-10617
▁바그	-10618
▁바지	-10619
▁박희	-10620
▁발사	-10621
▁방치	-10622
▁배고	-10623
▁배용	-10624
▁버릇	-10625
▁번쩍	-10626
▁베송	-10627
▁베티	-10628
▁변할	-10629
▁보복	-10630
▁보안	-10631
▁복싱	-10632
▁본연	-10633
▁볼품	-10634
▁봐선	-10635
▁부다	-10636
▁부유	-10637
▁부제	-10638
▁부지	-10639
▁부진	-10640
▁부질	-10641
▁브릿	-10642
▁비겁	-10643
▁비꼬	-10644
▁비위	-10645
▁비율	-10646
▁비치	-10647
▁빌딩	-10648
▁빚어	-10649
▁빼먹	-10650
▁뿌듯	-10651
▁쁘네	-10652
▁사탕	-10653
▁상류	-10654
▁상술	-10655
▁서늘	-10656
▁서준	-10657
▁석양	-10658
▁선녀	-10659
▁성별	-10660
▁성실	-10661
▁성준	-10662
▁성취	-10663
▁세뇌	-10664
▁소신	-10665
▁소오	-10666
▁소울	-10667
▁손녀	-10668
▁손자	-10669
▁수니	-10670
▁순애	-10671
▁슈트	-10672
▁스터	-10673
▁시급	-10674
▁시답	-10675
▁시즈	-10676
▁시집	-10677
▁식겁	-10678
▁신다	-10679
▁신드	-10680
▁신디	-10681
▁쌓이	-10682
▁쓰여	-10683
▁아네	-10684
▁아랍	-10685
▁아찔	-10686
▁악녀	-10687
▁악질	-10688
▁안보	-10689
▁알콜	-10690
▁암흑	-10691
▁애미	-10692
▁양쪽	-10693
▁어루	-10694
▁얽힌	-10695
▁여하	-10696
▁역설	-10697
▁연이	-10698
▁열매	-10699
▁예기	-10700
▁예언	-10701
▁오경	-10702
▁오달	-10703
▁오호	-10704
▁올렸	-10705
▁올슨	-10706
▁왓슨	-10707
▁왕정	-10708
▁요런	-10709
▁요번	-10710
▁요샌	-10711
▁요인	-10712
▁욕한	-10713
▁용어	-10714
▁울렁	-10715
▁원영	-10716
▁원해	-10717
▁웨폰	-10718
▁위노	-10719
▁위력	-10720
▁유료	-10721
▁음울	-10722
▁의료	-10723
▁이치	-10724
▁인시	-10725
▁인어	-10726
▁일당	-10727
▁일진	-10728
▁입담	-10729
▁자지	-10730
▁장관	-10731
▁재산	-10732
▁전광	-10733
▁전현	-10734
▁절규	-10735
▁접할	-10736
▁정경	-10737
▁정지	-10738
▁제프	-10739
▁조사	-10740
▁조센	-10741
▁조타	-10742
▁주류	-10743
▁주몽	-10744
▁주입	-10745
▁주지	-10746
▁줄기	-10747
▁중복	-10748
▁줬었	-10749
▁지운	-10750
▁지점	-10751
▁직시	-10752
▁진흙	-10753
▁질림	-10754
▁짜깁	-10755
▁짱깨	-10756
▁찡해	-10757
▁찰지	-10758
▁참담	-10759
▁천정	-10760
▁철철	-10761
▁첫날	-10762
▁청각	-10763
▁청법	-10764
▁체자	-10765
▁취업	-10766
▁코치	-10767
▁탐구	-10768
▁태민	-10769
▁토대	-10770
▁토막	-10771
▁통할	-10772
▁통화	-10773
▁퇴화	-10774
▁트래	-10775
▁트릭	-10776
▁티격	-10777
▁틱하	-10778
▁파랑	-10779
▁팔리	-10780
▁편파	-10781
▁편한	-10782
▁편해	-10783
▁폄하	-10784
▁폐쇄	-10785
▁폐해	-10786
▁포도	-10787
▁피비	-10788
▁하난	-10789
▁해답	-10790
▁행진	-10791
▁허슬	-10792
▁헛점	-10793
▁호수	-10794
▁혼신	-10795
▁홀딱	-10796
▁홍성	-10797
▁환생	-10798
▁황인	-10799
▁회의	-10800
▁회전	-10801
▁횟수	-10802
▁후아	-10803
▁후쿠	-10804
▁휴잇	-10805
▁흐미	-10806
▁히데	-10807
▁힘겹	-10808
드리언	-10809
OOOO	-10810
zzzz	-10811
▁CSI	-10812
▁VOD	-10813
▁각본가	-10814
▁감춰진	-10815
▁감탄사	-10816
▁걸려서	-10817
▁공산당	-10818
▁구지성	-10819
▁그러면	-10820
▁그리울	-10821
▁그만두	-10822
▁기네스	-10823
▁김사랑	-10824
▁김재원	-10825
▁김혜선	-10826
▁김효진	-10827
▁깨우치	-10828
▁나간다	-10829
▁난다고	-10830
▁노리스	-10831
▁노홍철	-10832
▁느라고	-10833
▁다녀왔	-10834
▁다름없	-10835
▁다세포	-10836
▁다이스	-10837
▁대명사	-10838
▁데니스	-10839
▁돌아볼	-10840
▁돌아올	-10841
▁동남아	-10842
▁들어감	-10843
▁라던지	-10844
▁레슬링	-10845
▁마징가	-10846
▁만족감	-10847
▁망설이	-10848
▁모자람	-10849
▁못생겼	-10850
▁무분별	-10851
▁바르뎀	-10852
▁박시연	-10853
▁박한별	-10854
▁반대편	-10855
▁버러지	-10856
▁버틀러	-10857
▁볼게요	-10858
▁봉준호	-10859
▁브라보	-10860
▁블레어	-10861
▁빠져든	-10862
▁사라질	-10863
▁상속자	-10864
▁서부극	-10865
▁소린지	-10866
▁송새벽	-10867
▁숨죽이	-10868
▁스며드	-10869
▁스타트	-10870
▁스틸러	-10871
▁시공간	-10872
▁시궁창	-10873
▁시대상	-10874
▁시크릿	-10875
▁식민지	-10876
▁안겨준	-10877
▁애새끼	-10878
▁양자경	-10879
▁엄지원	-10880
▁여균동	-10881
▁연예계	-10882
▁연정훈	-10883
▁영향력	-10884
▁오광록	-10885
▁오락물	-10886
▁오른다	-10887
▁오징어	-10888
▁오케이	-10889
▁위해선	-10890
▁유부녀	-10891
▁이라니	-10892
▁이래도	-10893
▁이럴까	-10894
▁이벤트	-10895
▁이어질	-10896
▁이준기	-10897
▁자화상	-10898
▁작품상	-10899
▁저스틴	-10900
▁정윤희	-10901
▁정준하	-10902
▁죽여야	-10903
▁지르르	-10904
▁질러대	-10905
▁쪽팔리	-10906
▁쯧쯧쯧	-10907
▁초창기	-10908
▁추격자	-10909
▁컨텐츠	-10910
▁타고난	-10911
▁테니스	-10912
▁토렌트	-10913
▁토시오	-10914
▁트렁크	-10915
▁트레이	-10916
▁특촬물	-10917
▁티아라	-10918
▁파이퍼	-10919
▁풀어낼	-10920
▁한없이	-10921
▁한채영	-10922
▁할로윈	-10923
▁햄버거	-10924
▁헛웃음	-10925
▁헤어진	-10926
▁홉킨스	-10927
▁황진미	-10928
▁휘날리	-10929
▁히트맨	-10930
▁...!	-10931
▁1996	-10932
▁3500	-10933
▁This	-10934
▁with	-10935
▁군국주의	-10936
▁그레이스	-10937
▁나온다면	-10938
▁날아다니	-10939
▁다이애나	-10940
▁더러워지	-10941
▁들어간다	-10942
▁따라간다	-10943
▁마구잡이	-10944
▁망한다는	-10945
▁모차르트	-10946
▁미성년자	-10947
▁보입니다	-10948
▁부들부들	-10949
▁살아간다	-10950
▁선라이즈	-10951
▁소림축구	-10952
▁스트리트	-10953
▁스페이시	-10954
▁슬픕니다	-10955
▁시원시원	-10956
▁아티스트	-10957
▁애니스톤	-10958
▁얼렁뚱땅	-10959
▁왜냐하면	-10960
▁찾아봐도	-10961
▁파란만장	-10962
▁피라미드	-10963
▁흘러간다	-10964
▁great	-10965
▁생각납니다	-10966
▁123456789	-10967
.?	-10968
NG	-10969
iv	-10970
ue	-10971
un	-10972
▁굽	-10973
▁꺠	-10974
▁꼐	-10975
▁끗	-10976
▁냔	-10977
▁넨	-10978
▁놧	-10979
▁닠	-10980
▁덱	-10981
▁뒈	-10982
▁땔	-10983
▁령	-10984
▁례	-10985
▁밓	-10986
▁섯	-10987
▁읭	-10988
▁잴	-10989
▁줏	-10990
▁쥑	-10991
▁퀘	-10992
▁팰	-10993
▁헴	-10994
▁혓	-10995
구멍	-10996
기만	-10997
기증	-10998
나가	-10999
네리	-11000
네이	-11001
놀이	-11002
더라	-11003
돌이	-11004
든지	-11005
딱지	-11006
뜨린	-11007
뜨릴	-11008
뜩이	-11009
레마	-11010
르크	-11011
멘트	-11012
반기	-11013
번에	-11014
변이	-11015
보드	-11016
보아	-11017
브라	-11018
비안	-11019
빙빙	-11020
성근	-11021
술사	-11022
쉬튼	-11023
아아	-11024
어마	-11025
어먹	-11026
우어	-11027
운전	-11028
은희	-11029
익준	-11030
정희	-11031
제욱	-11032
주룩	-11033
중간	-11034
쨋든	-11035
체류	-11036
카다	-11037
캅스	-11038
코더	-11039
킨슨	-11040
행위	-11041
화음	-11042
확인	-11043
희라	-11044
힌다	-11045
"""	-11046
,,,	-11047
ass	-11048
hen	-11049
ice	-11050
ine	-11051
low	-11052
sdf	-11053
▁01	-11054
▁37	-11055
▁49	-11056
▁56	-11057
▁57	-11058
▁81	-11059
▁Be	-11060
▁IP	-11061
▁NG	-11062
▁St	-11063
▁as	-11064
▁cm	-11065
▁co	-11066
▁db	-11067
▁ic	-11068
▁le	-11069
▁li	-11070
▁pl	-11071
▁가릴	-11072
▁가면	-11073
▁가인	-11074
▁감금	-11075
▁감시	-11076
▁값진	-11077
▁강대	-11078
▁강자	-11079
▁개차	-11080
▁거라	-11081
▁거렸	-11082
▁거참	-11083
▁건네	-11084
▁견뎌	-11085
▁계층	-11086
▁고지	-11087
▁공작	-11088
▁관가	-11089
▁관상	-11090
▁괴짜	-11091
▁교제	-11092
▁구두	-11093
▁구마	-11094
▁구슬	-11095
▁구제	-11096
▁궁합	-11097
▁귀환	-11098
▁그간	-11099
▁그물	-11100
▁근디	-11101
▁글썽	-11102
▁금고	-11103
▁기교	-11104
▁기르	-11105
▁기생	-11106
▁기용	-11107
▁길이	-11108
▁김범	-11109
▁김연	-11110
▁김은	-11111
▁깬다	-11112
▁끄덕	-11113
▁낙원	-11114
▁낙하	-11115
▁냐구	-11116
▁너머	-11117
▁노년	-11118
▁노동	-11119
▁노숙	-11120
▁놀리	-11121
▁눈썹	-11122
▁느낍	-11123
▁니당	-11124
▁다냐	-11125
▁다투	-11126
▁달릴	-11127
▁당근	-11128
▁당기	-11129
▁대강	-11130
▁대적	-11131
▁댕기	-11132
▁더냐	-11133
▁더듬	-11134
▁더락	-11135
▁더프	-11136
▁더한	-11137
▁덕지	-11138
▁덧붙	-11139
▁도어	-11140
▁도쿄	-11141
▁독자	-11142
▁돌연	-11143
▁동갑	-11144
▁동명	-11145
▁동전	-11146
▁동질	-11147
▁동해	-11148
▁돼야	-11149
▁뒤돌	-11150
▁뒤틀	-11151
▁디게	-11152
▁떳떳	-11153
▁또래	-11154
▁똥칠	-11155
▁라리	-11156
▁랜턴	-11157
▁러쉬	-11158
▁레아	-11159
▁로리	-11160
▁로비	-11161
▁마담	-11162
▁마무	-11163
▁만끽	-11164
▁망각	-11165
▁매개	-11166
▁모으	-11167
▁모이	-11168
▁모임	-11169
▁목격	-11170
▁몽땅	-11171
▁무감	-11172
▁무렵	-11173
▁물어	-11174
▁뮬란	-11175
▁미끼	-11176
▁미도	-11177
▁미아	-11178
▁미연	-11179
▁민비	-11180
▁바뀜	-11181
▁박민	-11182
▁반데	-11183
▁반열	-11184
▁발라	-11185
▁발표	-11186
▁배치	-11187
▁백설	-11188
▁버프	-11189
▁벅스	-11190
▁번개	-11191
▁번호	-11192
▁보살	-11193
▁보세	-11194
▁보아	-11195
▁보지	-11196
▁부숴	-11197
▁부조	-11198
▁브룩	-11199
▁블라	-11200
▁빨랑	-11201
▁뺏기	-11202
▁뻤다	-11203
▁삘이	-11204
▁사단	-11205
▁사명	-11206
▁사우	-11207
▁사위	-11208
▁사지	-11209
▁상세	-11210
▁서현	-11211
▁선명	-11212
▁선언	-11213
▁설퍼	-11214
▁성대	-11215
▁세나	-11216
▁세염	-11217
▁세자	-11218
▁셀마	-11219
▁셔도	-11220
▁소사	-11221
▁소식	-11222
▁소연	-11223
▁솟구	-11224
▁수경	-11225
▁수레	-11226
▁수용	-11227
▁수출	-11228
▁순결	-11229
▁순박	-11230
▁순풍	-11231
▁순환	-11232
▁스와	-11233
▁스킬	-11234
▁시드	-11235
▁시디	-11236
▁시련	-11237
▁시인	-11238
▁식사	-11239
▁식인	-11240
▁신랄	-11241
▁실리	-11242
▁실물	-11243
▁실질	-11244
▁실현	-11245
▁심도	-11246
▁심보	-11247
▁아멜	-11248
▁아미	-11249
▁아베	-11250
▁안도	-11251
▁안재	-11252
▁알린	-11253
▁암만	-11254
▁앞선	-11255
▁앞세	-11256
▁애프	-11257
▁앨범	-11258
▁야심	-11259
▁약혼	-11260
▁얄밉	-11261
▁어눌	-11262
▁어다	-11263
▁어염	-11264
▁엔드	-11265
▁여겨	-11266
▁연희	-11267
▁왼쪽	-11268
▁욕정	-11269
▁욕해	-11270
▁욱일	-11271
▁울먹	-11272
▁원판	-11273
▁웟다	-11274
▁위인	-11275
▁위장	-11276
▁위태	-11277
▁유효	-11278
▁육성	-11279
▁으뜸	-11280
▁은혜	-11281
▁음산	-11282
▁음침	-11283
▁이현	-11284
▁익살	-11285
▁익스	-11286
▁인민	-11287
▁인용	-11288
▁인척	-11289
▁일루	-11290
▁입증	-11291
▁자네	-11292
▁자서	-11293
▁작자	-11294
▁잡지	-11295
▁장이	-11296
▁저그	-11297
▁적도	-11298
▁전미	-11299
▁전역	-11300
▁전자	-11301
▁점프	-11302
▁정규	-11303
▁정아	-11304
▁정정	-11305
▁정조	-11306
▁정태	-11307
▁제안	-11308
▁제약	-11309
▁종료	-11310
▁주완	-11311
▁줄라	-11312
▁줄래	-11313
▁중계	-11314
▁중단	-11315
▁중립	-11316
▁중사	-11317
▁중앙	-11318
▁즐겼	-11319
▁증인	-11320
▁지미	-11321
▁지붕	-11322
▁지으	-11323
▁지효	-11324
▁진도	-11325
▁질렌	-11326
▁질색	-11327
▁쬐끔	-11328
▁찔러	-11329
▁찬성	-11330
▁참된	-11331
▁채운	-11332
▁채웠	-11333
▁챙피	-11334
▁철수	-11335
▁첨가	-11336
▁첫째	-11337
▁체리	-11338
▁총사	-11339
▁최재	-11340
▁추종	-11341
▁축소	-11342
▁축제	-11343
▁충성	-11344
▁충이	-11345
▁치장	-11346
▁치켜	-11347
▁친숙	-11348
▁카레	-11349
▁카렐	-11350
▁카르	-11351
▁카밀	-11352
▁카터	-11353
▁캐미	-11354
▁코피	-11355
▁쾌락	-11356
▁타카	-11357
▁타케	-11358
▁테드	-11359
▁토로	-11360
▁통곡	-11361
▁투더	-11362
▁특급	-11363
▁틀렸	-11364
▁팔린	-11365
▁퍼니	-11366
▁평면	-11367
▁포토	-11368
▁필리	-11369
▁핏줄	-11370
▁하악	-11371
▁하치	-11372
▁함량	-11373
▁해명	-11374
▁해변	-11375
▁행성	-11376
▁행세	-11377
▁허공	-11378
▁허황	-11379
▁헤니	-11380
▁헬렌	-11381
▁홍어	-11382
▁화났	-11383
▁화법	-11384
▁확률	-11385
▁황우	-11386
▁후세	-11387
▁후손	-11388
▁후퇴	-11389
▁후후	-11390
▁휘두	-11391
▁흐느	-11392
▁흐른	-11393
▁힘찬	-11394
는데도	-11395
다니엘	-11396
드라마	-11397
린다고	-11398
을지도	-11399
친다는	-11400
코스터	-11401
포스터	-11402
▁one	-11403
▁out	-11404
▁see	-11405
▁가려진	-11406
▁가져가	-11407
▁간다고	-11408
▁거북이	-11409
▁게라도	-11410
▁게시판	-11411
▁고은아	-11412
▁공포증	-11413
▁기다림	-11414
▁기획사	-11415
▁길들여	-11416
▁김새론	-11417
▁김일성	-11418
▁끊임없	-11419
▁나타났	-11420
▁남겨요	-11421
▁남배우	-11422
▁남주의	-11423
▁내려놓	-11424
▁내리막	-11425
▁넘나드	-11426
▁노래방	-11427
▁눈동자	-11428
▁다니까	-11429
▁달라졌	-11430
▁돌려주	-11431
▁동시대	-11432
▁되새기	-11433
▁됩니까	-11434
▁드러워	-11435
▁들어야	-11436
▁딜레마	-11437
▁따라갈	-11438
▁따라오	-11439
▁램버트	-11440
▁레이저	-11441
▁로보캅	-11442
▁리턴즈	-11443
▁마우스	-11444
▁메가폰	-11445
▁메디컬	-11446
▁며느리	-11447
▁몰라요	-11448
▁무덤덤	-11449
▁무법자	-11450
▁무진장	-11451
▁문성근	-11452
▁미디어	-11453
▁미어지	-11454
▁미확인	-11455
▁민세연	-11456
▁박은혜	-11457
▁박지성	-11458
▁박지윤	-11459
▁발차기	-11460
▁배신자	-11461
▁버금가	-11462
▁베이더	-11463
▁보여요	-11464
▁보여줘	-11465
▁볼려면	-11466
▁브랜든	-11467
▁빚어낸	-11468
▁빨라서	-11469
▁뼈저리	-11470
▁사이비	-11471
▁살아오	-11472
▁상대방	-11473
▁새로웠	-11474
▁서인국	-11475
▁성년자	-11476
▁송일국	-11477
▁수치심	-11478
▁순전히	-11479
▁스러우	-11480
▁스토린	-11481
▁스피릿	-11482
▁신드롬	-11483
▁신성일	-11484
▁심혜진	-11485
▁아마존	-11486
▁아부지	-11487
▁아우라	-11488
▁아이폰	-11489
▁안다면	-11490
▁애국가	-11491
▁애쉬튼	-11492
▁양익준	-11493
▁어긋나	-11494
▁어쨋든	-11495
▁얼간이	-11496
▁엇갈리	-11497
▁에어컨	-11498
▁여하튼	-11499
▁연제욱	-11500
▁연출가	-11501
▁예쁜데	-11502
▁예지원	-11503
▁오구리	-11504
▁오버랩	-11505
▁요리사	-11506
▁용의자	-11507
▁위노나	-11508
▁유태인	-11509
▁으리라	-11510
▁이라크	-11511
▁이소연	-11512
▁이어졌	-11513
▁이영애	-11514
▁이재은	-11515
▁이태리	-11516
▁임상수	-11517
▁잊혀질	-11518
▁자의식	-11519
▁잘라서	-11520
▁장진영	-11521
▁재대로	-11522
▁저능아	-11523
▁저따위	-11524
▁정겨운	-11525
▁정상인	-11526
▁졌어요	-11527
▁좋아해	-11528
▁주르륵	-11529
▁주유소	-11530
▁지나갈	-11531
▁지나갔	-11532
▁지식인	-11533
▁지어다	-11534
▁찾아본	-11535
▁채시라	-11536
▁최상급	-11537
▁최우식	-11538
▁커다란	-11539
▁탈북자	-11540
▁터트리	-11541
▁토마토	-11542
▁투캅스	-11543
▁트렌드	-11544
▁트리오	-11545
▁파고들	-11546
▁판빙빙	-11547
▁편의점	-11548
▁프로파	-11549
▁하희라	-11550
▁할께요	-11551
▁현기증	-11552
▁현저히	-11553
▁홍성진	-11554
▁화딱지	-11555
▁후진국	-11556
▁1500	-11557
▁1992	-11558
▁BEST	-11559
▁know	-11560
▁what	-11561
▁가르시아	-11562
▁그럴싸한	-11563
▁그리워지	-11564
▁끝났어야	-11565
▁노랑머리	-11566
▁느낍니다	-11567
▁단조로운	-11568
▁더글라스	-11569
▁돌연변이	-11570
▁레드포드	-11571
▁만드세요	-11572
▁무시무시	-11573
▁불법체류	-11574
▁불협화음	-11575
▁스튜어트	-11576
▁승승장구	-11577
▁아쉬워서	-11578
▁어마어마	-11579
▁올립니다	-11580
▁왠만해서	-11581
▁윌리암스	-11582
▁이루어질	-11583
▁일지라도	-11584
▁좋아한다	-11585
▁주룩주룩	-11586
▁징기스칸	-11587
▁청소년기	-11588
▁최다니엘	-11589
▁캐리비안	-11590
▁코스모스	-11591
▁크레이지	-11592
▁태권브이	-11593
▁터무니없	-11594
▁퍼레이드	-11595
▁프랑스인	-11596
▁하비에르	-11597
▁다이아몬드	-11598
▁다코타패닝	-11599
▁롤러코스터	-11600
▁시끄러워서	-11601
▁오케스트라	-11602
▁조디포스터	-11603
▁터무니없이	-11604
▁피아니스트	-11605
▁오리엔탈리즘	-11606
▁,,,,,,,,,,	-11607
AT	-11608
BI	-11609
LL	-11610
av	-11611
ib	-11612
nt	-11613
▁갘	-11614
▁겔	-11615
▁곀	-11616
▁꺽	-11617
▁꿉	-11618
▁꿔	-11619
▁끙	-11620
▁넥	-11621
▁됴	-11622
▁떵	-11623
▁렴	-11624
▁롹	-11625
▁릉	-11626
▁쉘	-11627
▁쎈	-11628
▁앰	-11629
▁왁	-11630
▁잦	-11631
▁쨰	-11632
▁쫘	-11633
▁찼	-11634
▁챈	-11635
▁쾅	-11636
▁킁	-11637
▁헵	-11638
▁흩	-11639
가드	-11640
각시	-11641
갈이	-11642
고루	-11643
고짜	-11644
광이	-11645
구구	-11646
궁민	-11647
권력	-11648
기물	-11649
기준	-11650
께요	-11651
노스	-11652
놀즈	-11653
대고	-11654
대장	-11655
데올	-11656
드려	-11657
들인	-11658
디다	-11659
라클	-11660
락스	-11661
례식	-11662
로기	-11663
로니	-11664
마리	-11665
마부	-11666
무라	-11667
사키	-11668
상식	-11669
선영	-11670
셀러	-11671
소년	-11672
스톱	-11673
아슬	-11674
아요	-11675
엄마	-11676
예련	-11677
우돌	-11678
은하	-11679
이즈	-11680
인간	-11681
장고	-11682
저래	-11683
제이	-11684
조마	-11685
조명	-11686
준희	-11687
츠야	-11688
큘라	-11689
킬머	-11690
탐정	-11691
택트	-11692
튀기	-11693
특급	-11694
퍼스	-11695
햅번	-11696
현실	-11697
혜영	-11698
효성	-11699
app	-11700
are	-11701
aut	-11702
ctv	-11703
ilm	-11704
ody	-11705
one	-11706
per	-11707
ree	-11708
▁',	-11709
▁'.	-11710
▁39	-11711
▁41	-11712
▁86	-11713
▁Cg	-11714
▁LA	-11715
▁So	-11716
▁가량	-11717
▁가학	-11718
▁간디	-11719
▁갈구	-11720
▁갈비	-11721
▁감출	-11722
▁감칠	-11723
▁갑옷	-11724
▁강연	-11725
▁강점	-11726
▁강함	-11727
▁개방	-11728
▁개입	-11729
▁격렬	-11730
▁경음	-11731
▁경직	-11732
▁계실	-11733
▁곤충	-11734
▁관통	-11735
▁구사	-11736
▁구여	-11737
▁구축	-11738
▁구타	-11739
▁구태	-11740
▁군상	-11741
▁궁상	-11742
▁귀염	-11743
▁규칙	-11744
▁그릴	-11745
▁그해	-11746
▁극명	-11747
▁근원	-11748
▁근처	-11749
▁글래	-11750
▁글씨	-11751
▁급조	-11752
▁기미	-11753
▁기지	-11754
▁기질	-11755
▁까나	-11756
▁까놓	-11757
▁까대	-11758
▁꼬여	-11759
▁꼬인	-11760
▁꼭두	-11761
▁꿀리	-11762
▁나뉘	-11763
▁나쁨	-11764
▁낙태	-11765
▁날로	-11766
▁내년	-11767
▁냉무	-11768
▁냉전	-11769
▁냐면	-11770
▁네오	-11771
▁노부	-11772
▁누적	-11773
▁니니	-11774
▁닉쿤	-11775
▁다웠	-11776
▁다짜	-11777
▁단비	-11778
▁단절	-11779
▁달아	-11780
▁당분	-11781
▁대동	-11782
▁대런	-11783
▁대원	-11784
▁덤벼	-11785
▁도요	-11786
▁동굴	-11787
▁드렸	-11788
▁들였	-11789
▁라나	-11790
▁라즈	-11791
▁래쉬	-11792
▁랭보	-11793
▁러너	-11794
▁러스	-11795
▁런던	-11796
▁레시	-11797
▁련다	-11798
▁로로	-11799
▁로스	-11800
▁로저	-11801
▁론가	-11802
▁롤링	-11803
▁리슨	-11804
▁마가	-11805
▁마는	-11806
▁마십	-11807
▁마카	-11808
▁막연	-11809
▁막혔	-11810
▁막힘	-11811
▁만져	-11812
▁말려	-11813
▁맘껏	-11814
▁맞물	-11815
▁매국	-11816
▁매직	-11817
▁매진	-11818
▁맥클	-11819
▁맴돈	-11820
▁맹인	-11821
▁멘토	-11822
▁명치	-11823
▁모기	-11824
▁모로	-11825
▁목마	-11826
▁무공	-11827
▁무참	-11828
▁문장	-11829
▁물든	-11830
▁물량	-11831
▁므흣	-11832
▁미셀	-11833
▁민감	-11834
▁밀러	-11835
▁반한	-11836
▁발단	-11837
▁발자	-11838
▁배출	-11839
▁백수	-11840
▁뱅크	-11841
▁버텨	-11842
▁버틸	-11843
▁벗겨	-11844
▁보가	-11845
▁보디	-11846
▁보증	-11847
▁본도	-11848
▁볼지	-11849
▁봉만	-11850
▁봉준	-11851
▁봣어	-11852
▁봣을	-11853
▁부감	-11854
▁부엉	-11855
▁부추	-11856
▁분발	-11857
▁불릴	-11858
▁불타	-11859
▁붙였	-11860
▁비견	-11861
▁비범	-11862
▁비애	-11863
▁비할	-11864
▁빈다	-11865
▁쁜데	-11866
▁사각	-11867
▁사색	-11868
▁사유	-11869
▁삭막	-11870
▁상우	-11871
▁상향	-11872
▁상호	-11873
▁새겨	-11874
▁서도	-11875
▁서동	-11876
▁서론	-11877
▁서리	-11878
▁서툴	-11879
▁선거	-11880
▁선조	-11881
▁설교	-11882
▁설날	-11883
▁설원	-11884
▁성당	-11885
▁성재	-11886
▁센터	-11887
▁센트	-11888
▁수근	-11889
▁수리	-11890
▁수염	-11891
▁수현	-11892
▁숙면	-11893
▁술집	-11894
▁스노	-11895
▁스모	-11896
▁승전	-11897
▁시내	-11898
▁신소	-11899
▁신애	-11900
▁신용	-11901
▁신작	-11902
▁신체	-11903
▁실로	-11904
▁실태	-11905
▁심취	-11906
▁십쇼	-11907
▁싸운	-11908
▁썬더	-11909
▁아선	-11910
▁아스	-11911
▁안면	-11912
▁안심	-11913
▁애마	-11914
▁애완	-11915
▁앨리	-11916
▁앵앵	-11917
▁야망	-11918
▁야야	-11919
▁야이	-11920
▁어떡	-11921
▁어뜨	-11922
▁억만	-11923
▁억양	-11924
▁얼룩	-11925
▁얼핏	-11926
▁엄한	-11927
▁에볼	-11928
▁엘렌	-11929
▁엠버	-11930
▁여요	-11931
▁역도	-11932
▁연가	-11933
▁연도	-11934
▁연수	-11935
▁연작	-11936
▁연하	-11937
▁열쇠	-11938
▁예민	-11939
▁오공	-11940
▁오전	-11941
▁옥택	-11942
▁올가	-11943
▁왓츠	-11944
▁왔음	-11945
▁왕년	-11946
▁욜라	-11947
▁용인	-11948
▁우러	-11949
▁원생	-11950
▁월터	-11951
▁월트	-11952
▁위엄	-11953
▁유민	-11954
▁유세	-11955
▁유유	-11956
▁유호	-11957
▁육아	-11958
▁윤두	-11959
▁윤성	-11960
▁으랴	-11961
▁응급	-11962
▁이겼	-11963
▁이긴	-11964
▁이룰	-11965
▁이마	-11966
▁이프	-11967
▁인원	-11968
▁일침	-11969
▁자시	-11970
▁자평	-11971
▁잠기	-11972
▁저분	-11973
▁저하	-11974
▁적벽	-11975
▁적시	-11976
▁적용	-11977
▁전시	-11978
▁전우	-11979
▁전지	-11980
▁점령	-11981
▁정겹	-11982
▁정색	-11983
▁정일	-11984
▁정하	-11985
▁조던	-11986
▁조율	-11987
▁좌충	-11988
▁죄수	-11989
▁주고	-11990
▁주군	-11991
▁준영	-11992
▁지로	-11993
▁지체	-11994
▁진이	-11995
▁질까	-11996
▁징글	-11997
▁짤라	-11998
▁짤린	-11999
▁쫒아	-12000
▁차량	-12001
▁창정	-12002
▁챔프	-12003
▁처분	-12004
▁처한	-12005
▁천진	-12006
▁청승	-12007
▁체도	-12008
▁출산	-12009
▁취소	-12010
▁취한	-12011
▁치사	-12012
▁칭하	-12013
▁케인	-12014
▁코코	-12015
▁쿄코	-12016
▁키튼	-12017
▁태풍	-12018
▁터트	-12019
▁통통	-12020
▁퇴물	-12021
▁퇴색	-12022
▁투영	-12023
▁퉤퉤	-12024
▁트랩	-12025
▁트럭	-12026
▁트립	-12027
▁파인	-12028
▁판다	-12029
▁판매	-12030
▁판정	-12031
▁팔마	-12032
▁패자	-12033
▁평행	-12034
▁폭행	-12035
▁푸르	-12036
▁품격	-12037
▁풍선	-12038
▁풍성	-12039
▁풍운	-12040
▁피자	-12041
▁피티	-12042
▁하곤	-12043
▁하급	-12044
▁하셈	-12045
▁하수	-12046
▁하심	-12047
▁학부	-12048
▁한껏	-12049
▁한판	-12050
▁할린	-12051
▁합창	-12052
▁합친	-12053
▁해골	-12054
▁해방	-12055
▁해체	-12056
▁헌트	-12057
▁헝거	-12058
▁헵번	-12059
▁혁신	-12060
▁형용	-12061
▁호빵	-12062
▁혼돈	-12063
▁화가	-12064
▁화난	-12065
▁화남	-12066
▁환각	-12067
▁황신	-12068
▁후끈	-12069
▁훤히	-12070
▁휩쓸	-12071
▁휴식	-12072
▁휴우	-12073
▁휴일	-12074
▁흐릿	-12075
▁흔드	-12076
▁흥하	-12077
디아즈	-12078
마부키	-12079
멋대로	-12080
스크림	-12081
스토리	-12082
어난다	-12083
어진다	-12084
페이지	-12085
하하하	-12086
▁110	-12087
▁180	-12088
▁193	-12089
▁220	-12090
▁FBI	-12091
▁KTX	-12092
▁Not	-12093
▁TOP	-12094
▁all	-12095
▁bom	-12096
▁god	-12097
▁wat	-12098
▁거슬려	-12099
▁거침없	-12100
▁결정체	-12101
▁고준희	-12102
▁골고루	-12103
▁공권력	-12104
▁광신도	-12105
▁국정원	-12106
▁그랜트	-12107
▁그려지	-12108
▁기막힌	-12109
▁김상경	-12110
▁꾸러기	-12111
▁끌려서	-12112
▁끌어올	-12113
▁나눠서	-12114
▁나머진	-12115
▁남궁민	-12116
▁냉장고	-12117
▁넘어갔	-12118
▁논스톱	-12119
▁늘어나	-12120
▁다를까	-12121
▁당한다	-12122
▁더구만	-12123
▁도자기	-12124
▁돌려도	-12125
▁동서양	-12126
▁된다니	-12127
▁드러낸	-12128
▁드레스	-12129
▁드린다	-12130
▁들어서	-12131
▁따라간	-12132
▁따라한	-12133
▁때린다	-12134
▁라고요	-12135
▁라기에	-12136
▁라던데	-12137
▁려구요	-12138
▁로미오	-12139
▁류현경	-12140
▁리포터	-12141
▁마리아	-12142
▁마리오	-12143
▁마음껏	-12144
▁마츠코	-12145
▁막혀서	-12146
▁망설였	-12147
▁망친다	-12148
▁매니저	-12149
▁매들린	-12150
▁먹먹하	-12151
▁메이퀸	-12152
▁명탐정	-12153
▁명확히	-12154
▁모가지	-12155
▁모욕감	-12156
▁몰랐었	-12157
▁몰아가	-12158
▁무거울	-12159
▁무자비	-12160
▁물리치	-12161
▁물어내	-12162
▁물음표	-12163
▁미란다	-12164
▁미술관	-12165
▁미워할	-12166
▁미쳐서	-12167
▁미혼모	-12168
▁밀어주	-12169
▁바티칸	-12170
▁박선영	-12171
▁박영규	-12172
▁박예진	-12173
▁박준형	-12174
▁박철민	-12175
▁박현지	-12176
▁발킬머	-12177
▁방사능	-12178
▁배용준	-12179
▁부질없	-12180
▁분열증	-12181
▁불태우	-12182
▁블로그	-12183
▁비긴즈	-12184
▁비해선	-12185
▁뻥튀기	-12186
▁사라짐	-12187
▁사세요	-12188
▁상류층	-12189
▁서글픈	-12190
▁섞여서	-12191
▁설레였	-12192
▁소고기	-12193
▁소나기	-12194
▁소이다	-12195
▁소이현	-12196
▁속상하	-12197
▁수퍼맨	-12198
▁쉰들러	-12199
▁스타쉽	-12200
▁스탠리	-12201
▁스턴트	-12202
▁시답잖	-12203
▁심리전	-12204
▁심은하	-12205
▁씁시다	-12206
▁아까우	-12207
▁아낌없	-12208
▁아무거	-12209
▁아이즈	-12210
▁아이콘	-12211
▁아파하	-12212
▁안소니	-12213
▁알아들	-12214
▁애국자	-12215
▁약해서	-12216
▁어루만	-12217
▁어리숙	-12218
▁어중간	-12219
▁엄연히	-12220
▁에이즈	-12221
▁였으며	-12222
▁오스틴	-12223
▁온라인	-12224
▁올라온	-12225
▁올림픽	-12226
▁우연찮	-12227
▁유대인	-12228
▁유부남	-12229
▁윤제문	-12230
▁으라는	-12231
▁으려면	-12232
▁으련만	-12233
▁을려나	-12234
▁이데올	-12235
▁이미숙	-12236
▁이뻐서	-12237
▁이어져	-12238
▁이어진	-12239
▁이자벨	-12240
▁이화영	-12241
▁인질극	-12242
▁일수록	-12243
▁장난질	-12244
▁장례식	-12245
▁전쟁터	-12246
▁정해진	-12247
▁제이크	-12248
▁조여정	-12249
▁좋아함	-12250
▁주의보	-12251
▁주저리	-12252
▁줄라고	-12253
▁줍시다	-12254
▁진지희	-12255
▁찌푸리	-12256
▁차예련	-12257
▁창의력	-12258
▁초특급	-12259
▁캠코더	-12260
▁커리어	-12261
▁커티스	-12262
▁콘택트	-12263
▁콜라보	-12264
▁콜린스	-12265
▁태권도	-12266
▁퇴마록	-12267
▁트라이	-12268
▁트루먼	-12269
▁티브이	-12270
▁프레임	-12271
▁플래툰	-12272
▁하락세	-12273
▁한지민	-12274
▁한지훈	-12275
▁한테서	-12276
▁합쳐서	-12277
▁해져요	-12278
▁허영심	-12279
▁헤어짐	-12280
▁효과음	-12281
▁흐흐흐	-12282
코프스키	-12283
▁IMDB	-12284
▁cctv	-12285
▁life	-12286
▁perf	-12287
▁thum	-12288
▁want	-12289
▁갑작스럽	-12290
▁그리스도	-12291
▁꼭두각시	-12292
▁나와야지	-12293
▁노르웨이	-12294
▁다짜고짜	-12295
▁더군다나	-12296
▁돌아간다	-12297
▁드라큘라	-12298
▁들어온다	-12299
▁들으면서	-12300
▁따라다니	-12301
▁떠올라서	-12302
▁레이놀즈	-12303
▁맥클레인	-12304
▁멕라이언	-12305
▁못한다면	-12306
▁미치광이	-12307
▁받아들여	-12308
▁시어머니	-12309
▁아슬아슬	-12310
▁오래도록	-12311
▁용두사미	-12312
▁이래저래	-12313
▁이어진다	-12314
▁정체불명	-12315
▁조마조마	-12316
▁좌충우돌	-12317
▁지겨워서	-12318
▁징그러운	-12319
▁츠마부키	-12320
▁컴플렉스	-12321
▁크레이그	-12322
▁한다면서	-12323
▁..???	-12324
▁world	-12325
▁베스트셀러	-12326
▁어처구니없	-12327
▁이데올로기	-12328
▁101010	-12329
▁스타크래프트	-12330
▁카메론디아즈	-12331
▁;;;;;;;	-12332
▁.,.,.,.,.	-12333
15	-12334
AR	-12335
CC	-12336
TA	-12337
TL	-12338
gg	-12339
gk	-12340
we	-12341
▁궤	-12342
▁꿨	-12343
▁냨	-12344
▁눕	-12345
▁뎃	-12346
▁둑	-12347
▁랐	-12348
▁멧	-12349
▁벚	-12350
▁빰	-12351
▁뺄	-12352
▁쌉	-12353
▁썪	-12354
▁썽	-12355
▁앱	-12356
▁얀	-12357
▁읊	-12358
▁짊	-12359
▁짰	-12360
▁첸	-12361
▁쳇	-12362
▁쳣	-12363
▁촘	-12364
▁캄	-12365
▁탠	-12366
▁톨	-12367
▁팡	-12368
▁훠	-12369
▁휙	-12370
갑수	-12371
게이	-12372
귀신	-12373
그러	-12374
그린	-12375
기에	-12376
까봐	-12377
네디	-12378
네마	-12379
느릿	-12380
니깐	-12381
당초	-12382
대생	-12383
데레	-12384
들갑	-12385
라니	-12386
레븐	-12387
마다	-12388
말라	-12389
멘토	-12390
방울	-12391
버님	-12392
벌이	-12393
베르	-12394
볼타	-12395
사리	-12396
사상	-12397
사스	-12398
서도	-12399
수염	-12400
순환	-12401
스탄	-12402
스토	-12403
어맞	-12404
어보	-12405
어져	-12406
언정	-12407
얼리	-12408
우먼	-12409
웅인	-12410
워라	-12411
유주	-12412
윤식	-12413
이입	-12414
인력	-12415
자락	-12416
자와	-12417
저스	-12418
전트	-12419
정신	-12420
종옥	-12421
주희	-12422
즈음	-12423
지스	-12424
창호	-12425
처녀	-12426
코어	-12427
파인	-12428
팽이	-12429
편제	-12430
푸드	-12431
푼젤	-12432
호준	-12433
회사	-12434
ace	-12435
age	-12436
ark	-12437
ash	-12438
ile	-12439
iss	-12440
our	-12441
ous	-12442
▁"'	-12443
▁03	-12444
▁34	-12445
▁43	-12446
▁47	-12447
▁?!	-12448
▁Ch	-12449
▁Tv	-12450
▁de	-12451
▁ng	-12452
▁ro	-12453
▁un	-12454
▁가구	-12455
▁가닥	-12456
▁가든	-12457
▁가로	-12458
▁가혹	-12459
▁간부	-12460
▁간츠	-12461
▁간통	-12462
▁갈까	-12463
▁감방	-12464
▁감초	-12465
▁강림	-12466
▁강마	-12467
▁강변	-12468
▁갖춰	-12469
▁갖췄	-12470
▁거랑	-12471
▁거룩	-12472
▁걸출	-12473
▁겉핥	-12474
▁겨냥	-12475
▁견주	-12476
▁겸비	-12477
▁경박	-12478
▁계승	-12479
▁고귀	-12480
▁골목	-12481
▁골수	-12482
▁공모	-12483
▁공항	-12484
▁공화	-12485
▁과소	-12486
▁관용	-12487
▁관장	-12488
▁괄호	-12489
▁광태	-12490
▁괘씸	-12491
▁교복	-12492
▁교실	-12493
▁교포	-12494
▁교황	-12495
▁구별	-12496
▁구출	-12497
▁국경	-12498
▁국군	-12499
▁권유	-12500
▁귀족	-12501
▁그늘	-12502
▁그램	-12503
▁그쪽	-12504
▁금기	-12505
▁기성	-12506
▁김서	-12507
▁김예	-12508
▁까이	-12509
▁깨금	-12510
▁깨닳	-12511
▁꺼림	-12512
▁껄렁	-12513
▁꼬띠	-12514
▁끈적	-12515
▁끓여	-12516
▁끝낸	-12517
▁나발	-12518
▁나사	-12519
▁나영	-12520
▁나우	-12521
▁날린	-12522
▁날짜	-12523
▁낭자	-12524
▁내고	-12525
▁내뱉	-12526
▁내전	-12527
▁네일	-12528
▁노망	-12529
▁녹아	-12530
▁누명	-12531
▁니코	-12532
▁닐슨	-12533
▁다룰	-12534
▁다움	-12535
▁다정	-12536
▁다채	-12537
▁달기	-12538
▁달튼	-12539
▁답변	-12540
▁대대	-12541
▁대입	-12542
▁대접	-12543
▁대조	-12544
▁댄다	-12545
▁더해	-12546
▁덩크	-12547
▁데모	-12548
▁데인	-12549
▁도끼	-12550
▁도심	-12551
▁도우	-12552
▁돌변	-12553
▁동요	-12554
▁동창	-12555
▁두목	-12556
▁두세	-12557
▁뒤섞	-12558
▁뒷골	-12559
▁드레	-12560
▁들썩	-12561
▁디질	-12562
▁딴판	-12563
▁딸린	-12564
▁떨구	-12565
▁떨쳐	-12566
▁래미	-12567
▁래요	-12568
▁랭킹	-12569
▁레논	-12570
▁레미	-12571
▁로건	-12572
▁로랑	-12573
▁마네	-12574
▁마의	-12575
▁마일	-12576
▁마틸	-12577
▁만찬	-12578
▁말초	-12579
▁맞짱	-12580
▁매겨	-12581
▁매긴	-12582
▁먼데	-12583
▁멈춘	-12584
▁메스	-12585
▁메타	-12586
▁명세	-12587
▁모성	-12588
▁목록	-12589
▁몸소	-12590
▁무뎌	-12591
▁무례	-12592
▁무정	-12593
▁무턱	-12594
▁물간	-12595
▁물들	-12596
▁뭘로	-12597
▁믄서	-12598
▁미미	-12599
▁미우	-12600
▁미처	-12601
▁미취	-12602
▁민서	-12603
▁밀폐	-12604
▁밌음	-12605
▁바니	-12606
▁바랐	-12607
▁박쥐	-12608
▁박히	-12609
▁밖엔	-12610
▁반란	-12611
▁발기	-12612
▁발언	-12613
▁발작	-12614
▁밥상	-12615
▁방관	-12616
▁밸류	-12617
▁버겁	-12618
▁버들	-12619
▁버렷	-12620
▁번지	-12621
▁벌인	-12622
▁별명	-12623
▁병장	-12624
▁보나	-12625
▁보정	-12626
▁보조	-12627
▁보컬	-12628
▁보험	-12629
▁복원	-12630
▁복판	-12631
▁볼트	-12632
▁봐온	-12633
▁봣네	-12634
▁부도	-12635
▁부렸	-12636
▁부린	-12637
▁부서	-12638
▁북미	-12639
▁불어	-12640
▁비례	-12641
▁비싸	-12642
▁비아	-12643
▁빈스	-12644
▁빗대	-12645
▁빠리	-12646
▁빨라	-12647
▁뽑아	-12648
▁삐뚤	-12649
▁삐리	-12650
▁사살	-12651
▁사슴	-12652
▁산악	-12653
▁산책	-12654
▁살벌	-12655
▁생사	-12656
▁샤오	-12657
▁샬롯	-12658
▁서막	-12659
▁서지	-12660
▁서투	-12661
▁선악	-12662
▁설국	-12663
▁섭섭	-12664
▁성현	-12665
▁세영	-12666
▁셀프	-12667
▁셰익	-12668
▁소감	-12669
▁소아	-12670
▁속성	-12671
▁속하	-12672
▁손목	-12673
▁손현	-12674
▁송이	-12675
▁쇼타	-12676
▁쇼핑	-12677
▁수동	-12678
▁수신	-12679
▁쉬리	-12680
▁쉬워	-12681
▁스리	-12682
▁스완	-12683
▁스치	-12684
▁스톰	-12685
▁스프	-12686
▁습관	-12687
▁승호	-12688
▁시린	-12689
▁시미	-12690
▁시온	-12691
▁식객	-12692
▁식탁	-12693
▁신도	-12694
▁신호	-12695
▁실증	-12696
▁싱글	-12697
▁썩어	-12698
▁쓰이	-12699
▁아노	-12700
▁아악	-12701
▁아진	-12702
▁아홉	-12703
▁악랄	-12704
▁악수	-12705
▁악의	-12706
▁안중	-12707
▁안토	-12708
▁안톤	-12709
▁않되	-12710
▁알몸	-12711
▁알찬	-12712
▁암담	-12713
▁애자	-12714
▁애증	-12715
▁액츄	-12716
▁야경	-12717
▁야기	-12718
▁약물	-12719
▁없인	-12720
▁엔젤	-12721
▁엔진	-12722
▁엘프	-12723
▁여관	-12724
▁여비	-12725
▁여호	-12726
▁역전	-12727
▁역행	-12728
▁연약	-12729
▁연재	-12730
▁연합	-12731
▁열악	-12732
▁염소	-12733
▁염정	-12734
▁영양	-12735
▁예모	-12736
▁예진	-12737
▁오닐	-12738
▁오도	-12739
▁오를	-12740
▁오아	-12741
▁오웬	-12742
▁와요	-12743
▁외우	-12744
▁요시	-12745
▁용사	-12746
▁용자	-12747
▁우동	-12748
▁우웨	-12749
▁울화	-12750
▁원소	-12751
▁원어	-12752
▁원츄	-12753
▁원치	-12754
▁월광	-12755
▁월급	-12756
▁웨딩	-12757
▁위버	-12758
▁유독	-12759
▁유라	-12760
▁유해	-12761
▁윤하	-12762
▁으셔	-12763
▁응답	-12764
▁응사	-12765
▁의혹	-12766
▁이냐	-12767
▁이모	-12768
▁이방	-12769
▁이윤	-12770
▁이창	-12771
▁이케	-12772
▁이효	-12773
▁인들	-12774
▁인재	-12775
▁인제	-12776
▁인트	-12777
▁일가	-12778
▁일종	-12779
▁입문	-12780
▁자각	-12781
▁자나	-12782
▁자자	-12783
▁자잘	-12784
▁자폭	-12785
▁작용	-12786
▁잔재	-12787
▁장땡	-12788
▁장신	-12789
▁장악	-12790
▁장자	-12791
▁저미	-12792
▁저속	-12793
▁저승	-12794
▁저작	-12795
▁저장	-12796
▁적막	-12797
▁전격	-12798
▁전날	-12799
▁전대	-12800
▁전라	-12801
▁전략	-12802
▁전신	-12803
▁전율	-12804
▁전진	-12805
▁절단	-12806
▁절하	-12807
▁정다	-12808
▁정면	-12809
▁정심	-12810
▁정자	-12811
▁정찬	-12812
▁정한	-12813
▁제쳐	-12814
▁조만	-12815
▁조문	-12816
▁조양	-12817
▁조온	-12818
▁조우	-12819
▁조은	-12820
▁조현	-12821
▁졸릴	-12822
▁종려	-12823
▁죄인	-12824
▁주간	-12825
▁주근	-12826
▁주다	-12827
▁주절	-12828
▁줏대	-12829
▁중근	-12830
▁중력	-12831
▁증폭	-12832
▁지린	-12833
▁지시	-12834
▁지오	-12835
▁진격	-12836
▁진호	-12837
▁질풍	-12838
▁쫓겨	-12839
▁쭈쭈	-12840
▁찌든	-12841
▁차림	-12842
▁차용	-12843
▁참사	-12844
▁참전	-12845
▁채식	-12846
▁채울	-12847
▁천둥	-12848
▁첨단	-12849
▁청산	-12850
▁쳐다	-12851
▁초상	-12852
▁초인	-12853
▁촌티	-12854
▁최면	-12855
▁추측	-12856
▁치욕	-12857
▁치졸	-12858
▁카운	-12859
▁칼라	-12860
▁캐롤	-12861
▁캐빈	-12862
▁커지	-12863
▁퀄러	-12864
▁타노	-12865
▁타자	-12866
▁타협	-12867
▁탄도	-12868
▁탈세	-12869
▁탈옥	-12870
▁태워	-12871
▁태희	-12872
▁택하	-12873
▁터리	-12874
▁테스	-12875
▁토가	-12876
▁통과	-12877
▁통렬	-12878
▁통증	-12879
▁튼튼	-12880
▁파국	-12881
▁파업	-12882
▁팔려	-12883
▁펑크	-12884
▁페르	-12885
▁페티	-12886
▁폭주	-12887
▁표준	-12888
▁풍요	-12889
▁퓨처	-12890
▁플랜	-12891
▁피폐	-12892
▁하인	-12893
▁한층	-12894
▁할인	-12895
▁핫세	-12896
▁핵폭	-12897
▁허상	-12898
▁허울	-12899
▁허풍	-12900
▁헛된	-12901
▁현수	-12902
▁현혹	-12903
▁호타	-12904
▁화병	-12905
▁화합	-12906
▁확보	-12907
▁활짝	-12908
▁횡포	-12909
▁효율	-12910
▁후딱	-12911
▁흐려	-12912
▁흐리	-12913
▁흠흠	-12914
▁희미	-12915
▁히가	-12916
▁힘없	-12917
닥거리	-12918
더스푼	-12919
디어스	-12920
레이트	-12921
메이트	-12922
버스톤	-12923
베가스	-12924
베리아	-12925
숟가락	-12926
스타일	-12927
스피어	-12928
시네마	-12929
타쿠스	-12930
토피아	-12931
페스트	-12932
▁111	-12933
▁?..	-12934
▁God	-12935
▁XXX	-12936
▁day	-12937
▁did	-12938
▁don	-12939
▁was	-12940
▁zzz	-12941
▁가라앉	-12942
▁가져왔	-12943
▁간단히	-12944
▁간호사	-12945
▁갈갈이	-12946
▁강대국	-12947
▁개차반	-12948
▁거니와	-12949
▁겁난다	-12950
▁겠다고	-12951
▁고대로	-12952
▁고마웠	-12953
▁고슬링	-12954
▁공통점	-12955
▁관음증	-12956
▁괴로워	-12957
▁김갑수	-12958
▁김민선	-12959
▁김영호	-12960
▁김재중	-12961
▁김지훈	-12962
▁김현중	-12963
▁김흥수	-12964
▁김희애	-12965
▁깊숙히	-12966
▁까락스	-12967
▁끌로드	-12968
▁끝자락	-12969
▁나아지	-12970
▁낙하산	-12971
▁남겨야	-12972
▁남겨준	-12973
▁내세우	-12974
▁냄새나	-12975
▁노처녀	-12976
▁놀라워	-12977
▁눈부시	-12978
▁다이나	-12979
▁달려드	-12980
▁당분간	-12981
▁당사자	-12982
▁대머리	-12983
▁대여점	-12984
▁대작전	-12985
▁대해선	-12986
▁더라는	-12987
▁덱스터	-12988
▁돌려본	-12989
▁되새겨	-12990
▁두려운	-12991
▁뒤쳐지	-12992
▁때려잡	-12993
▁땟을까	-12994
▁떠오를	-12995
▁떠오름	-12996
▁라는데	-12997
▁라니까	-12998
▁라이징	-12999
▁라푼젤	-13000
▁레이버	-13001
▁로망스	-13002
▁로스트	-13003
▁마리옹	-13004
▁마사미	-13005
▁막바지	-13006
▁만한데	-13007
▁망해라	-13008
▁매국노	-13009
▁멀쩡히	-13010
▁메멘토	-13011
▁메소드	-13012
▁몰아넣	-13013
▁몰아치	-13014
▁무너진	-13015
▁무참히	-13016
▁물타기	-13017
▁미드나	-13018
▁미켈슨	-13019
▁바닷가	-13020
▁박근혜	-13021
▁박기웅	-13022
▁박민영	-13023
▁박성웅	-13024
▁박재범	-13025
▁반해서	-13026
▁밝혀졌	-13027
▁배울까	-13028
▁배종옥	-13029
▁배창호	-13030
▁백윤식	-13031
▁벌어진	-13032
▁본보기	-13033
▁봣지만	-13034
▁부러울	-13035
▁부러움	-13036
▁부러워	-13037
▁부러진	-13038
▁블런트	-13039
▁비평가	-13040
▁빼어난	-13041
▁사토미	-13042
▁살펴보	-13043
▁색채감	-13044
▁서편제	-13045
▁선교사	-13046
▁소유자	-13047
▁송재림	-13048
▁수영장	-13049
▁수요일	-13050
▁스노우	-13051
▁스태프	-13052
▁슬퍼지	-13053
▁신경질	-13054
▁신들린	-13055
▁신유주	-13056
▁실비아	-13057
▁아나킨	-13058
▁아멜리	-13059
▁아웅산	-13060
▁아파요	-13061
▁악순환	-13062
▁안내상	-13063
▁안다는	-13064
▁안재욱	-13065
▁알라딘	-13066
▁알려져	-13067
▁알아차	-13068
▁애니메	-13069
▁야마다	-13070
▁야야야	-13071
▁어긋난	-13072
▁어머님	-13073
▁어메이	-13074
▁어울릴	-13075
▁얻어맞	-13076
▁여대생	-13077
▁연우진	-13078
▁엿보이	-13079
▁오른쪽	-13080
▁오마주	-13081
▁오지호	-13082
▁올라갔	-13083
▁올시다	-13084
▁왜냐면	-13085
▁외로워	-13086
▁요즈음	-13087
▁우울해	-13088
▁워리어	-13089
▁유니크	-13090
▁유연석	-13091
▁유희왕	-13092
▁윤두준	-13093
▁윤제균	-13094
▁이만큼	-13095
▁이민자	-13096
▁이지현	-13097
▁인데도	-13098
▁인해서	-13099
▁일어서	-13100
▁장가휘	-13101
▁장난아	-13102
▁장르노	-13103
▁재조명	-13104
▁저질렀	-13105
▁접해서	-13106
▁정웅인	-13107
▁정준용	-13108
▁정지훈	-13109
▁제자리	-13110
▁조그만	-13111
▁조로리	-13112
▁조정석	-13113
▁좋아한	-13114
▁주세요	-13115
▁죽여서	-13116
▁줄줄이	-13117
▁지도자	-13118
▁지독히	-13119
▁질렌할	-13120
▁쪼가리	-13121
▁찾아온	-13122
▁총잡이	-13123
▁총집합	-13124
▁치우친	-13125
▁카톨릭	-13126
▁칼부림	-13127
▁캐나다	-13128
▁케네디	-13129
▁터뜨리	-13130
▁테두리	-13131
▁텍사스	-13132
▁트로트	-13133
▁트리스	-13134
▁파헤치	-13135
▁패트릭	-13136
▁폭풍우	-13137
▁프라임	-13138
▁프로필	-13139
▁프리미	-13140
▁프리즌	-13141
▁한데요	-13142
▁할머님	-13143
▁허드슨	-13144
▁헤어질	-13145
▁호들갑	-13146
▁혹해서	-13147
▁홍은희	-13148
▁휘둘리	-13149
▁휴지통	-13150
▁흡인력	-13151
▁흥겨운	-13152
!!!!!	-13153
▁..."	-13154
▁...,	-13155
▁1960	-13156
▁1987	-13157
▁8000	-13158
▁What	-13159
▁fore	-13160
▁fuck	-13161
▁just	-13162
▁part	-13163
▁show	-13164
▁가져다준	-13165
▁감정이입	-13166
▁과대평가	-13167
▁과소평가	-13168
▁구석구석	-13169
▁꼬띠아르	-13170
▁끝냈으면	-13171
▁날카로운	-13172
▁느릿느릿	-13173
▁두근거림	-13174
▁드러난다	-13175
▁라즈베리	-13176
▁러시아워	-13177
▁못한다는	-13178
▁무턱대고	-13179
▁부끄러울	-13180
▁브레이브	-13181
▁시끄러운	-13182
▁시끄러워	-13183
▁썩어빠진	-13184
▁안쓰러웠	-13185
▁액츄얼리	-13186
▁어울려서	-13187
▁연금술사	-13188
▁연애시대	-13189
▁웃길려고	-13190
▁위더스푼	-13191
▁집어치우	-13192
▁크레더블	-13193
▁크레이븐	-13194
▁프랑스어	-13195
▁프로스트	-13196
▁피해망상	-13197
▁하드코어	-13198
▁히가시노	-13199
▁라스베가스	-13200
▁로드리게스	-13201
▁롯데시네마	-13202
▁부다페스트	-13203
▁셰익스피어	-13204
▁아이스크림	-13205
▁이루어진다	-13206
▁인시디어스	-13207
▁클라이맥스	-13208
▁허접쓰레기	-13209
▁really	-13210
▁thumbs	-13211
▁스파르타쿠스	-13212
▁forever	-13213
20	-13214
65	-13215
80	-13216
ES	-13217
OB	-13218
OV	-13219
de	-13220
hy	-13221
kf	-13222
ms	-13223
tr	-13224
yj	-13225
▁눅	-13226
▁뛸	-13227
▁랔	-13228
▁럴	-13229
▁렁	-13230
▁렘	-13231
▁룻	-13232
▁볶	-13233
▁븅	-13234
▁뽐	-13235
▁뿡	-13236
▁숏	-13237
▁슝	-13238
▁쑥	-13239
▁웜	-13240
▁죨	-13241
▁쥰	-13242
▁짘	-13243
▁칵	-13244
▁캘	-13245
▁켓	-13246
▁콰	-13247
▁퀵	-13248
▁탭	-13249
▁팟	-13250
▁핰	-13251
▁햌	-13252
걸리	-13253
겨움	-13254
결합	-13255
기지	-13256
꺼기	-13257
꺼이	-13258
니뭐	-13259
니엄	-13260
달리	-13261
달프	-13262
던가	-13263
데스	-13264
두룩	-13265
두홍	-13266
들레	-13267
들어	-13268
뚜기	-13269
뜨려	-13270
루룩	-13271
루션	-13272
루야	-13273
룻밤	-13274
리시	-13275
마니	-13276
마크	-13277
말까	-13278
망울	-13279
바다	-13280
바람	-13281
바퀴	-13282
바탕	-13283
벨트	-13284
병호	-13285
보그	-13286
봐라	-13287
부르	-13288
부리	-13289
블루	-13290
빌레	-13291
사이	-13292
살이	-13293
샤인	-13294
서니	-13295
선미	-13296
셔널	-13297
셔서	-13298
소통	-13299
시계	-13300
시로	-13301
애미	-13302
액션	-13303
어차	-13304
에리	-13305
예모	-13306
올림	-13307
와라	-13308
원희	-13309
유우	-13310
윤호	-13311
일이	-13312
잣집	-13313
재인	-13314
재해	-13315
종국	-13316
주곡	-13317
지구	-13318
지근	-13319
지웅	-13320
질러	-13321
창민	-13322
채화	-13323
청아	-13324
키드	-13325
킨다	-13326
타니	-13327
태영	-13328
태일	-13329
팔이	-13330
폭력	-13331
하라	-13332
한가	-13333
헌터	-13334
형제	-13335
호흡	-13336
화점	-13337
희일	-13338
히히	-13339
ame	-13340
and	-13341
ank	-13342
ars	-13343
asd	-13344
ave	-13345
end	-13346
ers	-13347
ian	-13348
ind	-13349
itt	-13350
ity	-13351
ory	-13352
oth	-13353
out	-13354
ptv	-13355
res	-13356
ter	-13357
▁02	-13358
▁06	-13359
▁09	-13360
▁65	-13361
▁75	-13362
▁77	-13363
▁Bl	-13364
▁ET	-13365
▁IS	-13366
▁JY	-13367
▁Oh	-13368
▁Sh	-13369
▁UF	-13370
▁VS	-13371
▁ac	-13372
▁at	-13373
▁cr	-13374
▁cs	-13375
▁fe	-13376
▁mi	-13377
▁ps	-13378
▁가늠	-13379
▁가보	-13380
▁가입	-13381
▁가하	-13382
▁각도	-13383
▁간수	-13384
▁갈라	-13385
▁감지	-13386
▁개간	-13387
▁개취	-13388
▁개폼	-13389
▁갱스	-13390
▁거릴	-13391
▁걸치	-13392
▁검증	-13393
▁겉돌	-13394
▁격정	-13395
▁계륜	-13396
▁계산	-13397
▁고객	-13398
▁고교	-13399
▁고니	-13400
▁고립	-13401
▁고함	-13402
▁과다	-13403
▁관록	-13404
▁광희	-13405
▁괜츈	-13406
▁교본	-13407
▁교환	-13408
▁구가	-13409
▁구했	-13410
▁근로	-13411
▁근접	-13412
▁금융	-13413
▁기구	-13414
▁기껏	-13415
▁기세	-13416
▁기스	-13417
▁긴가	-13418
▁긴데	-13419
▁길러	-13420
▁깔리	-13421
▁깜깜	-13422
▁깝깝	-13423
▁깡통	-13424
▁껄껄	-13425
▁꼬시	-13426
▁꼴통	-13427
▁꽁짜	-13428
▁꿈꿨	-13429
▁끔직	-13430
▁나감	-13431
▁나날	-13432
▁나눌	-13433
▁나리	-13434
▁나세	-13435
▁나약	-13436
▁나카	-13437
▁남극	-13438
▁남훈	-13439
▁내렸	-13440
▁내림	-13441
▁널렸	-13442
▁넘김	-13443
▁노바	-13444
▁놀음	-13445
▁농부	-13446
▁놓쳐	-13447
▁누릴	-13448
▁눈가	-13449
▁눌렀	-13450
▁니스	-13451
▁다아	-13452
▁다잉	-13453
▁다진	-13454
▁달랑	-13455
▁당선	-13456
▁대담	-13457
▁대량	-13458
▁대응	-13459
▁대항	-13460
▁더랬	-13461
▁데니	-13462
▁델마	-13463
▁도주	-13464
▁도현	-13465
▁동행	-13466
▁되려	-13467
▁되찾	-13468
▁두들	-13469
▁두산	-13470
▁둬야	-13471
▁뒤바	-13472
▁뒤지	-13473
▁뒹굴	-13474
▁디아	-13475
▁따먹	-13476
▁따온	-13477
▁따왔	-13478
▁때린	-13479
▁땡겨	-13480
▁떠돌	-13481
▁떼우	-13482
▁똥개	-13483
▁라가	-13484
▁라지	-13485
▁랄라	-13486
▁래서	-13487
▁레나	-13488
▁레너	-13489
▁레닌	-13490
▁련지	-13491
▁로만	-13492
▁로메	-13493
▁로켓	-13494
▁로튼	-13495
▁루나	-13496
▁루팡	-13497
▁룰렛	-13498
▁릅답	-13499
▁마고	-13500
▁마성	-13501
▁마왕	-13502
▁마트	-13503
▁막내	-13504
▁만리	-13505
▁만장	-13506
▁만회	-13507
▁망인	-13508
▁맞이	-13509
▁매끄	-13510
▁매운	-13511
▁맴돌	-13512
▁멈췄	-13513
▁멍멍	-13514
▁메어	-13515
▁멸종	-13516
▁명료	-13517
▁모인	-13518
▁몰살	-13519
▁몰카	-13520
▁몽키	-13521
▁무늬	-13522
▁무수	-13523
▁문희	-13524
▁묻힐	-13525
▁뭉개	-13526
▁뭉치	-13527
▁미쉘	-13528
▁미쓰	-13529
▁미자	-13530
▁미적	-13531
▁민수	-13532
▁밀레	-13533
▁바론	-13534
▁바쳐	-13535
▁반공	-13536
▁반일	-13537
▁반함	-13538
▁발굴	-13539
▁발동	-13540
▁발연	-13541
▁방망	-13542
▁방문	-13543
▁배기	-13544
▁백발	-13545
▁백치	-13546
▁버젓	-13547
▁버트	-13548
▁범위	-13549
▁벙커	-13550
▁베네	-13551
▁변경	-13552
▁변덕	-13553
▁변종	-13554
▁변치	-13555
▁보완	-13556
▁봉사	-13557
▁봉인	-13558
▁봉전	-13559
▁부단	-13560
▁부릅	-13561
▁부릉	-13562
▁부문	-13563
▁부상	-13564
▁불나	-13565
▁불능	-13566
▁불운	-13567
▁불치	-13568
▁불호	-13569
▁블룸	-13570
▁비들	-13571
▁사귄	-13572
▁상도	-13573
▁생계	-13574
▁샤넬	-13575
▁서운	-13576
▁석구	-13577
▁섞이	-13578
▁선고	-13579
▁선우	-13580
▁섭렵	-13581
▁성난	-13582
▁세울	-13583
▁세일	-13584
▁소꿉	-13585
▁소노	-13586
▁소명	-13587
▁소영	-13588
▁소음	-13589
▁속물	-13590
▁손길	-13591
▁손톱	-13592
▁수익	-13593
▁쉴드	-13594
▁슌지	-13595
▁스위	-13596
▁스즈	-13597
▁스패	-13598
▁스폰	-13599
▁슬램	-13600
▁슬럼	-13601
▁승천	-13602
▁승환	-13603
▁시갈	-13604
▁시들	-13605
▁시야	-13606
▁시에	-13607
▁신라	-13608
▁신박	-13609
▁신음	-13610
▁신이	-13611
▁신입	-13612
▁신주	-13613
▁신혜	-13614
▁실은	-13615
▁심상	-13616
▁심의	-13617
▁쏴라	-13618
▁쓰인	-13619
▁씁슬	-13620
▁아귀	-13621
▁아수	-13622
▁아앙	-13623
▁아인	-13624
▁아재	-13625
▁아찌	-13626
▁아톰	-13627
▁악덕	-13628
▁악동	-13629
▁안구	-13630
▁안대	-13631
▁안성	-13632
▁안일	-13633
▁알트	-13634
▁애로	-13635
▁애착	-13636
▁애플	-13637
▁얘길	-13638
▁어림	-13639
▁어선	-13640
▁언뜻	-13641
▁얼라	-13642
▁얼릉	-13643
▁얼짱	-13644
▁얼척	-13645
▁얽혀	-13646
▁업무	-13647
▁업체	-13648
▁에르	-13649
▁엔터	-13650
▁여덟	-13651
▁여장	-13652
▁여줌	-13653
▁여화	-13654
▁역력	-13655
▁역습	-13656
▁연달	-13657
▁연연	-13658
▁열폭	-13659
▁염두	-13660
▁영문	-13661
▁영창	-13662
▁예견	-13663
▁예찬	-13664
▁옜날	-13665
▁오렌	-13666
▁오멘	-13667
▁오사	-13668
▁오키	-13669
▁옥상	-13670
▁온리	-13671
▁와도	-13672
▁외도	-13673
▁외부	-13674
▁외편	-13675
▁우라	-13676
▁우릴	-13677
▁우애	-13678
▁우짜	-13679
▁우째	-13680
▁우피	-13681
▁운석	-13682
▁웃이	-13683
▁워쇼	-13684
▁원수	-13685
▁웟던	-13686
▁웟음	-13687
▁웰컴	-13688
▁위반	-13689
▁위상	-13690
▁위함	-13691
▁유두	-13692
▁유물	-13693
▁유식	-13694
▁유어	-13695
▁유하	-13696
▁육감	-13697
▁윤찬	-13698
▁으어	-13699
▁은정	-13700
▁의자	-13701
▁이규	-13702
▁이끼	-13703
▁이내	-13704
▁이대	-13705
▁이따	-13706
▁이온	-13707
▁일말	-13708
▁일정	-13709
▁임다	-13710
▁입대	-13711
▁자도	-13712
▁자랐	-13713
▁자루	-13714
▁자원	-13715
▁잖니	-13716
▁장병	-13717
▁재목	-13718
▁잼따	-13719
▁저력	-13720
▁저며	-13721
▁저울	-13722
▁저조	-13723
▁저항	-13724
▁적이	-13725
▁적정	-13726
▁전병	-13727
▁전복	-13728
▁전수	-13729
▁전술	-13730
▁점철	-13731
▁정감	-13732
▁정주	-13733
▁정형	-13734
▁정혜	-13735
▁제게	-13736
▁제압	-13737
▁제품	-13738
▁젠틀	-13739
▁졋다	-13740
▁조류	-13741
▁조리	-13742
▁조엘	-13743
▁조제	-13744
▁종방	-13745
▁종현	-13746
▁좌우	-13747
▁좌익	-13748
▁주가	-13749
▁주된	-13750
▁주드	-13751
▁주사	-13752
▁주세	-13753
▁주차	-13754
▁중경	-13755
▁중주	-13756
▁중학	-13757
▁줫나	-13758
▁쥬리	-13759
▁지갑	-13760
▁지마	-13761
▁지진	-13762
▁지쳤	-13763
▁지칠	-13764
▁진동	-13765
▁진시	-13766
▁집사	-13767
▁쫒는	-13768
▁찔려	-13769
▁차치	-13770
▁착해	-13771
▁찬가	-13772
▁찰나	-13773
▁채원	-13774
▁채팅	-13775
▁처형	-13776
▁철권	-13777
▁청불	-13778
▁청초	-13779
▁체감	-13780
▁체계	-13781
▁체인	-13782
▁초롱	-13783
▁촘촘	-13784
▁총출	-13785
▁최영	-13786
▁추노	-13787
▁춤출	-13788
▁취약	-13789
▁치미	-13790
▁친한	-13791
▁칠레	-13792
▁침공	-13793
▁침착	-13794
▁카스	-13795
▁칸타	-13796
▁칼질	-13797
▁캐머	-13798
▁커스	-13799
▁쿠로	-13800
▁크래	-13801
▁키웠	-13802
▁타마	-13803
▁탁구	-13804
▁탈주	-13805
▁탈피	-13806
▁태우	-13807
▁택한	-13808
▁택했	-13809
▁터치	-13810
▁터프	-13811
▁텅텅	-13812
▁톰슨	-13813
▁통했	-13814
▁퇴장	-13815
▁투척	-13816
▁투철	-13817
▁투혼	-13818
▁트릴	-13819
▁트위	-13820
▁티모	-13821
▁티벳	-13822
▁파쿠	-13823
▁파하	-13824
▁판권	-13825
▁패널	-13826
▁패닉	-13827
▁패륜	-13828
▁팽팽	-13829
▁펠레	-13830
▁평보	-13831
▁평안	-13832
▁포효	-13833
▁폴라	-13834
▁폴리	-13835
▁표기	-13836
▁풀릴	-13837
▁풋볼	-13838
▁프론	-13839
▁프린	-13840
▁필로	-13841
▁필사	-13842
▁필자	-13843
▁필히	-13844
▁하군	-13845
▁하염	-13846
▁하핫	-13847
▁한겨	-13848
▁합성	-13849
▁항우	-13850
▁해고	-13851
▁해낼	-13852
▁행태	-13853
▁허용	-13854
▁허진	-13855
▁현영	-13856
▁현존	-13857
▁현학	-13858
▁협찬	-13859
▁형아	-13860
▁혜진	-13861
▁호빗	-13862
▁호세	-13863
▁혼혈	-13864
▁확장	-13865
▁황폐	-13866
▁회피	-13867
▁후광	-13868
▁후우	-13869
▁흘림	-13870
▁희롱	-13871
▁희안	-13872
니뭐니	-13873
사노바	-13874
세이돈	-13875
수아비	-13876
신기신	-13877
십니다	-13878
었는데	-13879
트로우	-13880
티시즘	-13881
하트넷	-13882
iful	-13883
ways	-13884
▁?!!	-13885
▁ANG	-13886
▁BOB	-13887
▁Red	-13888
▁SNL	-13889
▁SNS	-13890
▁Top	-13891
▁Two	-13892
▁UCC	-13893
▁can	-13894
▁che	-13895
▁hat	-13896
▁ktx	-13897
▁new	-13898
▁ore	-13899
▁snl	-13900
▁wow	-13901
▁가까움	-13902
▁가슴속	-13903
▁가져오	-13904
▁가톨릭	-13905
▁각본상	-13906
▁갈아타	-13907
▁개개인	-13908
▁거미줄	-13909
▁거슬림	-13910
▁건너뛰	-13911
▁건드리	-13912
▁경이롭	-13913
▁고라도	-13914
▁고아원	-13915
▁고쳐야	-13916
▁공포심	-13917
▁관해서	-13918
▁괴로운	-13919
▁그니까	-13920
▁김상중	-13921
▁김성수	-13922
▁김소은	-13923
▁김소현	-13924
▁김예림	-13925
▁김유미	-13926
▁김태우	-13927
▁김해숙	-13928
▁까말까	-13929
▁꼬여서	-13930
▁꾸밈없	-13931
▁나니아	-13932
▁나빠요	-13933
▁나이스	-13934
▁나타냈	-13935
▁날카롭	-13936
▁남아도	-13937
▁내려라	-13938
▁냐고요	-13939
▁노희경	-13940
▁놀이터	-13941
▁눈망울	-13942
▁다가가	-13943
▁다고요	-13944
▁다녀오	-13945
▁다느니	-13946
▁다른가	-13947
▁다시피	-13948
▁단연코	-13949
▁달라도	-13950
▁달라질	-13951
▁달팽이	-13952
▁담아낼	-13953
▁당해서	-13954
▁대장금	-13955
▁도망간	-13956
▁돌아갔	-13957
▁들려주	-13958
▁들어라	-13959
▁들으며	-13960
▁디스코	-13961
▁디스크	-13962
▁떠난다	-13963
▁떠오른	-13964
▁떠올라	-13965
▁라니깐	-13966
▁라이벌	-13967
▁라이어	-13968
▁라이온	-13969
▁레오네	-13970
▁렵니다	-13971
▁류승완	-13972
▁리더십	-13973
▁리모컨	-13974
▁리플리	-13975
▁마가렛	-13976
▁말레나	-13977
▁망한다	-13978
▁매춘부	-13979
▁멋쟁이	-13980
▁멋져서	-13981
▁메이커	-13982
▁모양새	-13983
▁못생김	-13984
▁무거우	-13985
▁무거워	-13986
▁무서우	-13987
▁무인도	-13988
▁무협지	-13989
▁물리학	-13990
▁미취학	-13991
▁민들레	-13992
▁바람난	-13993
▁바바라	-13994
▁바인즈	-13995
▁바친다	-13996
▁박정민	-13997
▁반올림	-13998
▁방송사	-13999
▁백성현	-14000
▁베니니	-14001
▁보이스	-14002
▁보이즈	-14003
▁봣더니	-14004
▁부대원	-14005
▁부엉이	-14006
▁부작용	-14007
▁부잣집	-14008
▁부추기	-14009
▁불러도	-14010
▁불러야	-14011
▁불리우	-14012
▁불사조	-14013
▁뷰티풀	-14014
▁브랜드	-14015
▁비보이	-14016
▁빌어먹	-14017
▁사생활	-14018
▁사실감	-14019
▁사이다	-14020
▁살려서	-14021
▁생존자	-14022
▁선샤인	-14023
▁선진국	-14024
▁성행위	-14025
▁소설가	-14026
▁손병호	-14027
▁손현주	-14028
▁수두룩	-14029
▁수채화	-14030
▁순애보	-14031
▁숟가락	-14032
▁슈퍼카	-14033
▁신나고	-14034
▁심은경	-14035
▁십자가	-14036
▁쓸모없	-14037
▁아네트	-14038
▁아니야	-14039
▁아리아	-14040
▁알프레	-14041
▁암세포	-14042
▁애프터	-14043
▁야구팬	-14044
▁어두워	-14045
▁어떻하	-14046
▁어뜨케	-14047
▁에반스	-14048
▁에이미	-14049
▁에이스	-14050
▁역겨움	-14051
▁연애질	-14052
▁염정아	-14053
▁오달수	-14054
▁오스트	-14055
▁오연서	-14056
▁우웨볼	-14057
▁움직인	-14058
▁유년기	-14059
▁윤성호	-14060
▁윤진서	-14061
▁은커녕	-14062
▁이광수	-14063
▁이다해	-14064
▁이상윤	-14065
▁이성민	-14066
▁이수정	-14067
▁이순재	-14068
▁이종혁	-14069
▁이지훈	-14070
▁이청아	-14071
▁이현우	-14072
▁이효리	-14073
▁인간미	-14074
▁일리언	-14075
▁일으켰	-14076
▁일으킬	-14077
▁일일이	-14078
▁임성한	-14079
▁임원희	-14080
▁잊혀진	-14081
▁자라나	-14082
▁장예모	-14083
▁재결합	-14084
▁재평가	-14085
▁전태일	-14086
▁전투력	-14087
▁전현무	-14088
▁전환점	-14089
▁정두홍	-14090
▁제이미	-14091
▁조만간	-14092
▁조문탁	-14093
▁조보아	-14094
▁조형기	-14095
▁주근깨	-14096
▁줄어들	-14097
▁중국식	-14098
▁지겨웠	-14099
▁지나간	-14100
▁지망생	-14101
▁지현우	-14102
▁집합소	-14103
▁찌꺼기	-14104
▁찌푸려	-14105
▁찾아오	-14106
▁추리물	-14107
▁추적자	-14108
▁츤데레	-14109
▁켄이치	-14110
▁코네리	-14111
▁코멘트	-14112
▁퀄러티	-14113
▁크라이	-14114
▁크림슨	-14115
▁킬리언	-14116
▁타이드	-14117
▁태평양	-14118
▁테렌스	-14119
▁토미리	-14120
▁통찰력	-14121
▁파리스	-14122
▁팔린다	-14123
▁패리스	-14124
▁패션왕	-14125
▁패스트	-14126
▁퍼스트	-14127
▁페드로	-14128
▁편안히	-14129
▁포트만	-14130
▁프렌드	-14131
▁프렌치	-14132
▁플래닛	-14133
▁피어나	-14134
▁핀란드	-14135
▁필리핀	-14136
▁하룻밤	-14137
▁한가인	-14138
▁할까봐	-14139
▁허지웅	-14140
▁허탈감	-14141
▁헛소리	-14142
▁헤어졌	-14143
▁현대사	-14144
▁혐오감	-14145
▁호타루	-14146
▁확실이	-14147
▁홥니다	-14148
▁흑흑흑	-14149
▁희생양	-14150
▁히로시	-14151
ation	-14152
▁Love	-14153
▁like	-14154
▁real	-14155
▁slow	-14156
▁갱스부르	-14157
▁골드버그	-14158
▁공산주의	-14159
▁그러므로	-14160
▁그레고리	-14161
▁기신기신	-14162
▁끌어들이	-14163
▁날라다니	-14164
▁늑대인간	-14165
▁데이비스	-14166
▁동방신기	-14167
▁드라이브	-14168
▁들여다보	-14169
▁뛰쳐나가	-14170
▁뜨거워지	-14171
▁마음대로	-14172
▁마이애미	-14173
▁맥과이어	-14174
▁모래시계	-14175
▁무너뜨리	-14176
▁뭐니뭐니	-14177
▁밀레니엄	-14178
▁반데라스	-14179
▁받아들일	-14180
▁벅차오르	-14181
▁보디가드	-14182
▁보인다고	-14183
▁보인다는	-14184
▁브라더스	-14185
▁빨리빨리	-14186
▁소오강호	-14187
▁스파이크	-14188
▁스패로우	-14189
▁시베리아	-14190
▁아낌없이	-14191
▁아멜리에	-14192
▁안토니오	-14193
▁알렉산더	-14194
▁애드리언	-14195
▁어두워서	-14196
▁어메이징	-14197
▁엑소시즘	-14198
▁역겨워서	-14199
▁움직인다	-14200
▁워쇼스키	-14201
▁으셨어요	-14202
▁의사소통	-14203
▁인사이드	-14204
▁입니다요	-14205
▁자연재해	-14206
▁전해진다	-14207
▁주식회사	-14208
▁징그러워	-14209
▁징징거리	-14210
▁천장지구	-14211
▁카사노바	-14212
▁칸타빌레	-14213
▁크리스탈	-14214
▁트라볼타	-14215
▁포세이돈	-14216
▁하염없이	-14217
▁합니다만	-14218
▁해군기지	-14219
▁허수아비	-14220
!!!!!!	-14221
▁right	-14222
▁watch	-14223
▁그럴듯하고	-14224
▁레미제라블	-14225
▁살아간다는	-14226
▁스트레이트	-14227
▁아닐지라도	-14228
▁아름다움의	-14229
▁아오이유우	-14230
▁크리스파인	-14231
???????	-14232
autiful	-14233
oooooooo	-14234
▁perfect	-14235
..........	-14236
???????????	-14237
▁!!!!!!!!!!!!	-14238
34	-14239
87	-14240
EA	-14241
OR	-14242
SA	-14243
hn	-14244
me	-14245
pp	-14246
so	-14247
tm	-14248
tu	-14249
▁굼	-14250
▁깟	-14251
▁깸	-14252
▁꿇	-14253
▁꿧	-14254
▁뙇	-14255
▁량	-14256
▁롸	-14257
▁뤼	-14258
▁먀	-14259
▁몆	-14260
▁뫼	-14261
▁삥	-14262
▁쎼	-14263
▁엊	-14264
▁옄	-14265
▁옅	-14266
▁옇	-14267
▁옼	-14268
▁왘	-14269
▁읏	-14270
▁졉	-14271
▁좇	-14272
▁좔	-14273
▁쥴	-14274
▁쨌	-14275
▁쭝	-14276
▁찹	-14277
▁첼	-14278
▁촤	-14279
▁큭	-14280
▁팁	-14281
▁팥	-14282
▁펐	-14283
▁헿	-14284
▁홬	-14285
가족	-14286
개토	-14287
거든	-14288
걸음	-14289
게티	-14290
공주	-14291
괴감	-14292
극장	-14293
꽃비	-14294
나올	-14295
내리	-14296
농장	-14297
눈물	-14298
다르	-14299
댄스	-14300
덕션	-14301
덕여	-14302
동수	-14303
동훈	-14304
둥절	-14305
든가	-14306
띄엄	-14307
란스	-14308
랄라	-14309
렁이	-14310
레사	-14311
로워	-14312
루지	-14313
리니	-14314
리안	-14315
막심	-14316
만치	-14317
맹달	-14318
멸렬	-14319
모어	-14320
무새	-14321
무진	-14322
민정	-14323
바르	-14324
바리	-14325
반짝	-14326
발이	-14327
배기	-14328
버림	-14329
범벅	-14330
보살	-14331
부른	-14332
불급	-14333
불암	-14334
붙이	-14335
비드	-14336
사람	-14337
사장	-14338
산부	-14339
상현	-14340
서준	-14341
서진	-14342
세기	-14343
세스	-14344
세아	-14345
세음	-14346
소이	-14347
슈얼	-14348
스스	-14349
슬혜	-14350
시록	-14351
시요	-14352
악관	-14353
앙스	-14354
액형	-14355
양사	-14356
양일	-14357
어든	-14358
어쓰	-14359
에다	-14360
여겨	-14361
여정	-14362
웅얼	-14363
웨인	-14364
윤재	-14365
이인	-14366
이츠	-14367
재훈	-14368
정부	-14369
정윤	-14370
정쩡	-14371
조물	-14372
즈링	-14373
지긋	-14374
짜피	-14375
천사	-14376
추행	-14377
치산	-14378
카드	-14379
카미	-14380
코토	-14381
콘다	-14382
타귀	-14383
태격	-14384
투리	-14385
트롤	-14386
트린	-14387
파니	-14388
파람	-14389
팔로	-14390
퓨타	-14391
픽션	-14392
향곡	-14393
헬드	-14394
현민	-14395
화감	-14396
황후	-14397
히로	-14398
aby	-14399
ick	-14400
ish	-14401
ond	-14402
ost	-14403
▁38	-14404
▁46	-14405
▁52	-14406
▁62	-14407
▁73	-14408
▁74	-14409
▁AM	-14410
▁Br	-14411
▁CD	-14412
▁Do	-14413
▁Go	-14414
▁IT	-14415
▁La	-14416
▁Mr	-14417
▁My	-14418
▁NC	-14419
▁TH	-14420
▁To	-14421
▁by	-14422
▁cl	-14423
▁ll	-14424
▁sc	-14425
▁ss	-14426
▁가랑	-14427
▁가오	-14428
▁가운	-14429
▁가증	-14430
▁가출	-14431
▁각시	-14432
▁간과	-14433
▁간극	-14434
▁갈대	-14435
▁갈려	-14436
▁감우	-14437
▁강문	-14438
▁개답	-14439
▁개살	-14440
▁개조	-14441
▁개짱	-14442
▁개티	-14443
▁거론	-14444
▁거만	-14445
▁거스	-14446
▁거슨	-14447
▁거탑	-14448
▁거하	-14449
▁건방	-14450
▁건져	-14451
▁검찰	-14452
▁게으	-14453
▁격차	-14454
▁견해	-14455
▁결방	-14456
▁결재	-14457
▁경극	-14458
▁경종	-14459
▁계열	-14460
▁고단	-14461
▁고딕	-14462
▁고상	-14463
▁고용	-14464
▁고위	-14465
▁고잉	-14466
▁고퀄	-14467
▁곰곰	-14468
▁곰탕	-14469
▁공급	-14470
▁공범	-14471
▁과유	-14472
▁관건	-14473
▁광장	-14474
▁교장	-14475
▁구걸	-14476
▁구글	-14477
▁구세	-14478
▁국물	-14479
▁국방	-14480
▁군단	-14481
▁굴복	-14482
▁굵직	-14483
▁권위	-14484
▁극사	-14485
▁근무	-14486
▁근현	-14487
▁글귀	-14488
▁급박	-14489
▁기둥	-14490
▁기복	-14491
▁기봉	-14492
▁기숙	-14493
▁기이	-14494
▁기점	-14495
▁기증	-14496
▁김경	-14497
▁김광	-14498
▁김석	-14499
▁깃든	-14500
▁까만	-14501
▁깨물	-14502
▁깨졌	-14503
▁깽판	-14504
▁꺼려	-14505
▁꼭지	-14506
▁꼼꼼	-14507
▁꽂히	-14508
▁꽃뱀	-14509
▁꾸리	-14510
▁끄러	-14511
▁끄적	-14512
▁끌렸	-14513
▁끝물	-14514
▁나눈	-14515
▁나물	-14516
▁나빴	-14517
▁나쁠	-14518
▁낙제	-14519
▁난민	-14520
▁난사	-14521
▁날릴	-14522
▁남음	-14523
▁낮잠	-14524
▁내래	-14525
▁내준	-14526
▁냐는	-14527
▁네드	-14528
▁네트	-14529
▁넬슨	-14530
▁노모	-14531
▁노장	-14532
▁노코	-14533
▁노파	-14534
▁노하	-14535
▁농촌	-14536
▁놔도	-14537
▁뇌물	-14538
▁눈먼	-14539
▁눈쌀	-14540
▁느긋	-14541
▁능글	-14542
▁니로	-14543
▁니시	-14544
▁니즘	-14545
▁다네	-14546
▁다렸	-14547
▁다린	-14548
▁다림	-14549
▁다방	-14550
▁다작	-14551
▁다죠	-14552
▁다툼	-14553
▁달한	-14554
▁담론	-14555
▁당무	-14556
▁대망	-14557
▁대위	-14558
▁대주	-14559
▁대풍	-14560
▁덩치	-14561
▁데기	-14562
▁돌란	-14563
▁동맹	-14564
▁동상	-14565
▁동조	-14566
▁됫음	-14567
▁두만	-14568
▁뒷심	-14569
▁드나	-14570
▁드루	-14571
▁들마	-14572
▁등골	-14573
▁따귀	-14574
▁또렷	-14575
▁똥차	-14576
▁라뇨	-14577
▁라티	-14578
▁랏다	-14579
▁랑께	-14580
▁럭키	-14581
▁레먼	-14582
▁레베	-14583
▁레트	-14584
▁로또	-14585
▁로티	-14586
▁루니	-14587
▁루키	-14588
▁리조	-14589
▁리키	-14590
▁리허	-14591
▁마귀	-14592
▁마셔	-14593
▁마티	-14594
▁마흔	-14595
▁막골	-14596
▁맛집	-14597
▁망처	-14598
▁맡긴	-14599
▁매그	-14600
▁매도	-14601
▁맹물	-14602
▁맹세	-14603
▁머스	-14604
▁멍해	-14605
▁메일	-14606
▁명함	-14607
▁모았	-14608
▁모은	-14609
▁몰리	-14610
▁몽롱	-14611
▁무교	-14612
▁무림	-14613
▁문법	-14614
▁뭉친	-14615
▁미뤄	-14616
▁미신	-14617
▁미호	-14618
▁민영	-14619
▁밀양	-14620
▁바늘	-14621
▁바도	-14622
▁박감	-14623
▁반찬	-14624
▁반환	-14625
▁발발	-14626
▁발판	-14627
▁발한	-14628
▁발현	-14629
▁배리	-14630
▁배설	-14631
▁백조	-14632
▁버니	-14633
▁버블	-14634
▁버터	-14635
▁버텼	-14636
▁벌거	-14637
▁벌떡	-14638
▁범람	-14639
▁보관	-14640
▁보급	-14641
▁보합	-14642
▁복지	-14643
▁본전	-14644
▁본토	-14645
▁봣나	-14646
▁부위	-14647
▁부치	-14648
▁분다	-14649
▁분홍	-14650
▁불려	-14651
▁불상	-14652
▁브루	-14653
▁블랑	-14654
▁비단	-14655
▁비밥	-14656
▁비벼	-14657
▁비키	-14658
▁빅토	-14659
▁빈곤	-14660
▁빈부	-14661
▁빡빡	-14662
▁빤히	-14663
▁사료	-14664
▁사심	-14665
▁사죄	-14666
▁사카	-14667
▁사쿠	-14668
▁사하	-14669
▁살찐	-14670
▁상임	-14671
▁생수	-14672
▁샤룩	-14673
▁서브	-14674
▁서요	-14675
▁선량	-14676
▁선호	-14677
▁설사	-14678
▁설쳐	-14679
▁섬기	-14680
▁섬짓	-14681
▁성전	-14682
▁성희	-14683
▁세드	-14684
▁세종	-14685
▁소멸	-14686
▁소제	-14687
▁소파	-14688
▁속옷	-14689
▁손대	-14690
▁손수	-14691
▁솔솔	-14692
▁송해	-14693
▁수려	-14694
▁수만	-14695
▁수빈	-14696
▁수첩	-14697
▁수트	-14698
▁수확	-14699
▁숙연	-14700
▁순금	-14701
▁숨결	-14702
▁숭숭	-14703
▁스쿨	-14704
▁스푼	-14705
▁슬쩍	-14706
▁시가	-14707
▁시노	-14708
▁시러	-14709
▁시르	-14710
▁시방	-14711
▁시즘	-14712
▁시행	-14713
▁신격	-14714
▁신물	-14715
▁실재	-14716
▁실행	-14717
▁심문	-14718
▁심슨	-14719
▁쌍웅	-14720
▁써놨	-14721
▁썰매	-14722
▁쓸까	-14723
▁씨엔	-14724
▁아낀	-14725
▁아실	-14726
▁아임	-14727
▁아지	-14728
▁알랭	-14729
▁암투	-14730
▁앞둔	-14731
▁애스	-14732
▁앳된	-14733
▁야자	-14734
▁양가	-14735
▁양면	-14736
▁양성	-14737
▁어어	-14738
▁어후	-14739
▁억불	-14740
▁억상	-14741
▁얼빵	-14742
▁얼얼	-14743
▁얼티	-14744
▁에단	-14745
▁에코	-14746
▁엘지	-14747
▁엣지	-14748
▁여론	-14749
▁연산	-14750
▁열리	-14751
▁열망	-14752
▁열심	-14753
▁열풍	-14754
▁염병	-14755
▁였었	-14756
▁오라	-14757
▁오산	-14758
▁오예	-14759
▁오종	-14760
▁옮긴	-14761
▁왈가	-14762
▁왈츠	-14763
▁왈칵	-14764
▁왔었	-14765
▁왜색	-14766
▁외딴	-14767
▁외울	-14768
▁외전	-14769
▁외침	-14770
▁요점	-14771
▁요지	-14772
▁욕함	-14773
▁용재	-14774
▁우덜	-14775
▁우매	-14776
▁우먼	-14777
▁우어	-14778
▁우워	-14779
▁우즈	-14780
▁우파	-14781
▁울딸	-14782
▁워낭	-14783
▁원탑	-14784
▁원할	-14785
▁월등	-14786
▁웨어	-14787
▁웨인	-14788
▁위조	-14789
▁윌슨	-14790
▁유경	-14791
▁유실	-14792
▁유용	-14793
▁유추	-14794
▁으란	-14795
▁으음	-14796
▁으흐	-14797
▁은유	-14798
▁이끈	-14799
▁이당	-14800
▁이덕	-14801
▁이레	-14802
▁이력	-14803
▁이른	-14804
▁이블	-14805
▁이산	-14806
▁이세	-14807
▁이원	-14808
▁인구	-14809
▁인대	-14810
▁인력	-14811
▁인방	-14812
▁인신	-14813
▁인양	-14814
▁인조	-14815
▁일곱	-14816
▁일장	-14817
▁일편	-14818
▁임진	-14819
▁잉글	-14820
▁자금	-14821
▁자다	-14822
▁자멸	-14823
▁잘리	-14824
▁잘린	-14825
▁잠입	-14826
▁잡담	-14827
▁잡아	-14828
▁잡힐	-14829
▁장구	-14830
▁장남	-14831
▁장대	-14832
▁장려	-14833
▁장물	-14834
▁장민	-14835
▁장벽	-14836
▁장풍	-14837
▁쟈니	-14838
▁저놈	-14839
▁적군	-14840
▁전경	-14841
▁전력	-14842
▁전생	-14843
▁전염	-14844
▁점퍼	-14845
▁정세	-14846
▁정철	-14847
▁정현	-14848
▁제네	-14849
▁조단	-14850
▁조세	-14851
▁조수	-14852
▁조영	-14853
▁조페	-14854
▁족하	-14855
▁졸렬	-14856
▁종로	-14857
▁종자	-14858
▁좔좔	-14859
▁주마	-14860
▁주승	-14861
▁주워	-14862
▁주책	-14863
▁줄였	-14864
▁중공	-14865
▁중동	-14866
▁중생	-14867
▁쥑이	-14868
▁쥬드	-14869
▁즐긴	-14870
▁지각	-14871
▁지고	-14872
▁지급	-14873
▁지끈	-14874
▁지뢰	-14875
▁지른	-14876
▁지명	-14877
▁지불	-14878
▁지석	-14879
▁지장	-14880
▁지평	-14881
▁지훈	-14882
▁직면	-14883
▁직행	-14884
▁진과	-14885
▁진득	-14886
▁진미	-14887
▁질병	-14888
▁질서	-14889
▁짐머	-14890
▁집념	-14891
▁쫒기	-14892
▁찐빵	-14893
▁차서	-14894
▁찬송	-14895
▁찮은	-14896
▁참극	-14897
▁참상	-14898
▁처단	-14899
▁척척	-14900
▁천공	-14901
▁천기	-14902
▁천식	-14903
▁천황	-14904
▁청부	-14905
▁체스	-14906
▁체크	-14907
▁체하	-14908
▁초원	-14909
▁초토	-14910
▁촛불	-14911
▁총리	-14912
▁추임	-14913
▁축축	-14914
▁출구	-14915
▁출세	-14916
▁충전	-14917
▁충청	-14918
▁취했	-14919
▁치워	-14920
▁친해	-14921
▁카라	-14922
▁커진	-14923
▁케리	-14924
▁코엔	-14925
▁코트	-14926
▁퀴들	-14927
▁클론	-14928
▁키타	-14929
▁킥킥	-14930
▁킬머	-14931
▁타당	-14932
▁타르	-14933
▁타올	-14934
▁태왕	-14935
▁태현	-14936
▁택연	-14937
▁터닝	-14938
▁터빈	-14939
▁터스	-14940
▁터키	-14941
▁테일	-14942
▁통속	-14943
▁퇴출	-14944
▁투어	-14945
▁트렉	-14946
▁특권	-14947
▁특기	-14948
▁특전	-14949
▁특출	-14950
▁파장	-14951
▁파크	-14952
▁파탈	-14953
▁판결	-14954
▁팔뚝	-14955
▁팝송	-14956
▁팝핀	-14957
▁페러	-14958
▁페루	-14959
▁평민	-14960
▁평할	-14961
▁폐가	-14962
▁폭도	-14963
▁폴더	-14964
▁표류	-14965
▁풀풀	-14966
▁풍미	-14967
▁퓨리	-14968
▁플라	-14969
▁플레	-14970
▁피어	-14971
▁피카	-14972
▁필연	-14973
▁하늬	-14974
▁하두	-14975
▁하사	-14976
▁하세	-14977
▁하위	-14978
▁하프	-14979
▁하향	-14980
▁학벌	-14981
▁한꺼	-14982
▁한물	-14983
▁할렐	-14984
▁핳핳	-14985
▁해몽	-14986
▁해부	-14987
▁해양	-14988
▁해준	-14989
▁햇빛	-14990
▁행보	-14991
▁행사	-14992
▁허약	-14993
▁허어	-14994
▁헤더	-14995
▁현자	-14996
▁혈전	-14997
▁혐한	-14998
▁형상	-14999
▁혜택	-15000
▁호쾌	-15001
▁호퍼	-15002
▁화원	-15003
▁확대	-15004
▁환한	-15005
▁황산	-15006
▁황태	-15007
▁회개	-15008
▁회안	-15009
▁횽아	-15010
▁후리	-15011
▁후벼	-15012
▁후임	-15013
▁희수	-15014
▁흰색	-15015
▁힘입	-15016
거린다	-15017
나이퍼	-15018
대가리	-15019
드러진	-15020
라스틱	-15021
린다는	-15022
메이텀	-15023
부인과	-15024
세르크	-15025
스러운	-15026
스트림	-15027
주니어	-15028
진다는	-15029
체스카	-15030
하이머	-15031
tter	-15032
▁,,,	-15033
▁.""	-15034
▁.,.	-15035
▁107	-15036
▁130	-15037
▁160	-15038
▁400	-15039
▁OTL	-15040
▁dog	-15041
▁fun	-15042
▁man	-15043
▁res	-15044
▁she	-15045
▁sns	-15046
▁too	-15047
▁vod	-15048
▁who	-15049
▁xxx	-15050
▁강윤재	-15051
▁강점기	-15052
▁걸어가	-15053
▁경기도	-15054
▁고스톱	-15055
▁공들인	-15056
▁공중전	-15057
▁과학자	-15058
▁관세음	-15059
▁광개토	-15060
▁괴로움	-15061
▁교향곡	-15062
▁권력자	-15063
▁귀여울	-15064
▁귀타귀	-15065
▁그림판	-15066
▁근대사	-15067
▁글래머	-15068
▁김꽃비	-15069
▁김서형	-15070
▁김연아	-15071
▁김영애	-15072
▁김지호	-15073
▁김태훈	-15074
▁껄끄럽	-15075
▁나나코	-15076
▁나빠서	-15077
▁난다는	-15078
▁난쟁이	-15079
▁내려야	-15080
▁넘어오	-15081
▁넘어지	-15082
▁노리개	-15083
▁노이즈	-15084
▁눈물겹	-15085
▁눈여겨	-15086
▁뉘앙스	-15087
▁늘려서	-15088
▁니키타	-15089
▁다리오	-15090
▁다워야	-15091
▁다이안	-15092
▁담아냈	-15093
▁더러웠	-15094
▁더해져	-15095
▁덴마크	-15096
▁도둑놈	-15097
▁독일군	-15098
▁독재자	-15099
▁돈벌이	-15100
▁돌아다	-15101
▁돌아서	-15102
▁돼야지	-15103
▁되돌릴	-15104
▁두들겨	-15105
▁드웨인	-15106
▁든다고	-15107
▁들러리	-15108
▁들려오	-15109
▁들어내	-15110
▁디아이	-15111
▁따라감	-15112
▁뜨거움	-15113
▁라구요	-15114
▁라이터	-15115
▁라퓨타	-15116
▁랄까요	-15117
▁러시안	-15118
▁레인저	-15119
▁레포트	-15120
▁리만큼	-15121
▁리포트	-15122
▁린즈링	-15123
▁마네킹	-15124
▁마음씨	-15125
▁막걸리	-15126
▁망가져	-15127
▁머레이	-15128
▁메모리	-15129
▁목걸이	-15130
▁몽상가	-15131
▁무감각	-15132
▁무기력	-15133
▁무난히	-15134
▁무너졌	-15135
▁무신론	-15136
▁무지개	-15137
▁묵시록	-15138
▁문학관	-15139
▁물귀신	-15140
▁물으면	-15141
▁뭘까요	-15142
▁뮤지션	-15143
▁미카엘	-15144
▁바라볼	-15145
▁바라지	-15146
▁박서준	-15147
▁박세영	-15148
▁박해진	-15149
▁박희순	-15150
▁발란스	-15151
▁발자국	-15152
▁배부른	-15153
▁배워서	-15154
▁백악관	-15155
▁백화점	-15156
▁버젓이	-15157
▁번뜩이	-15158
▁벙어리	-15159
▁베니스	-15160
▁베이스	-15161
▁변한다	-15162
▁봐야겠	-15163
▁봣을까	-15164
▁부르스	-15165
▁부른다	-15166
▁부서지	-15167
▁불러대	-15168
▁불러서	-15169
▁불사신	-15170
▁불안감	-15171
▁불치병	-15172
▁브로드	-15173
▁블루스	-15174
▁비웃음	-15175
▁빨치산	-15176
▁빼앗긴	-15177
▁사이드	-15178
▁사이버	-15179
▁사정봉	-15180
▁사형수	-15181
▁사회상	-15182
▁살려야	-15183
▁살아난	-15184
▁살아났	-15185
▁살아왔	-15186
▁삼생이	-15187
▁새끼야	-15188
▁서글프	-15189
▁서동요	-15190
▁성매매	-15191
▁성추행	-15192
▁세상사	-15193
▁섹슈얼	-15194
▁소문난	-15195
▁소피아	-15196
▁손호준	-15197
▁수용소	-15198
▁숨겨져	-15199
▁스토우	-15200
▁스피디	-15201
▁슬라이	-15202
▁슬퍼하	-15203
▁시너지	-15204
▁시라노	-15205
▁신기전	-15206
▁신난다	-15207
▁실마리	-15208
▁십시요	-15209
▁싸워서	-15210
▁싸지르	-15211
▁아가리	-15212
▁아껴서	-15213
▁아버님	-15214
▁아세요	-15215
▁아수라	-15216
▁아우성	-15217
▁아이구	-15218
▁아일라	-15219
▁아하하	-15220
▁안중근	-15221
▁알려졌	-15222
▁알트만	-15223
▁앳킨슨	-15224
▁앵무새	-15225
▁약혼자	-15226
▁양다리	-15227
▁어딘지	-15228
▁어려우	-15229
▁어정쩡	-15230
▁어짜피	-15231
▁엄청났	-15232
▁에로틱	-15233
▁에이지	-15234
▁엑기스	-15235
▁엘리샤	-15236
▁여야지	-15237
▁연장선	-15238
▁영화계	-15239
▁예비군	-15240
▁오렌지	-15241
▁오맹달	-15242
▁오지랖	-15243
▁올라서	-15244
▁올려라	-15245
▁외로울	-15246
▁우승자	-15247
▁울화통	-15248
▁원시인	-15249
▁원주민	-15250
▁월버그	-15251
▁위화감	-15252
▁유다인	-15253
▁유치뽕	-15254
▁으스스	-15255
▁을라고	-15256
▁의해서	-15257
▁이경규	-15258
▁이기우	-15259
▁이룬다	-15260
▁이미연	-15261
▁이분법	-15262
▁이쁜데	-15263
▁이서진	-15264
▁이어폰	-15265
▁이영아	-15266
▁이장우	-15267
▁이정진	-15268
▁이준익	-15269
▁인생관	-15270
▁일대기	-15271
▁일으켜	-15272
▁임산부	-15273
▁자괴감	-15274
▁자서전	-15275
▁자폐아	-15276
▁작곡가	-15277
▁잔소리	-15278
▁잠자리	-15279
▁장신영	-15280
▁저질러	-15281
▁전기톱	-15282
▁전화기	-15283
▁전효성	-15284
▁정경호	-15285
▁정선경	-15286
▁정선희	-15287
▁정소동	-15288
▁정은지	-15289
▁정치판	-15290
▁조선인	-15291
▁조윤희	-15292
▁조종사	-15293
▁좀처럼	-15294
▁종교인	-15295
▁좋아했	-15296
▁죄의식	-15297
▁주드로	-15298
▁주옥같	-15299
▁중고생	-15300
▁즐겨라	-15301
▁지워야	-15302
▁지으며	-15303
▁지친다	-15304
▁진시황	-15305
▁질질질	-15306
▁차이점	-15307
▁찾아내	-15308
▁책임지	-15309
▁천정명	-15310
▁철학자	-15311
▁초이스	-15312
▁총출동	-15313
▁최불암	-15314
▁최재성	-15315
▁최정윤	-15316
▁최진혁	-15317
▁추상미	-15318
▁충실히	-15319
▁카오스	-15320
▁캐머런	-15321
▁캐스트	-15322
▁커스틴	-15323
▁컨트롤	-15324
▁케이크	-15325
▁케이티	-15326
▁콧수염	-15327
▁큐브릭	-15328
▁크라운	-15329
▁클로버	-15330
▁탁재훈	-15331
▁텔레비	-15332
▁토비맥	-15333
▁페리스	-15334
▁폭격기	-15335
▁표현력	-15336
▁프라이	-15337
▁피눈물	-15338
▁피에르	-15339
▁피조물	-15340
▁하수구	-15341
▁하워드	-15342
▁한가요	-15343
▁한예리	-15344
▁핵폭탄	-15345
▁헤라클	-15346
▁혈액형	-15347
▁홍콩식	-15348
▁화산고	-15349
▁활력소	-15350
▁황신혜	-15351
▁황진이	-15352
▁휘두르	-15353
▁휘파람	-15354
▁흥겨움	-15355
▁흥행작	-15356
;;;;;	-15357
ction	-15358
▁""""	-15359
▁1234	-15360
▁1977	-15361
▁1979	-15362
▁1986	-15363
▁1991	-15364
▁1993	-15365
▁1994	-15366
▁5000	-15367
▁7000	-15368
▁Ever	-15369
▁IPTV	-15370
▁kill	-15371
▁when	-15372
▁가져다가	-15373
▁걍쓰레기	-15374
▁과유불급	-15375
▁구구구구	-15376
▁구로자와	-15377
▁그런가요	-15378
▁나비효과	-15379
▁나온다니	-15380
▁내레이션	-15381
▁늑대소년	-15382
▁덕지덕지	-15383
▁동물농장	-15384
▁드라이버	-15385
▁띄엄띄엄	-15386
▁로케이션	-15387
▁룸메이트	-15388
▁마츠야마	-15389
▁마크로스	-15390
▁맞출려고	-15391
▁메이크업	-15392
▁무라카미	-15393
▁무서운지	-15394
▁미적지근	-15395
▁미제라블	-15396
▁바칩니다	-15397
▁바퀴벌레	-15398
▁반짝반짝	-15399
▁발버둥치	-15400
▁봣었는데	-15401
▁브라운관	-15402
▁브레이킹	-15403
▁브리지스	-15404
▁사라져야	-15405
▁생겼으면	-15406
▁스나이퍼	-15407
▁스케이트	-15408
▁스파게티	-15409
▁습니다만	-15410
▁씨엔블루	-15411
▁아나콘다	-15412
▁안전벨트	-15413
▁어리둥절	-15414
▁어벤저스	-15415
▁어지러운	-15416
▁에바그린	-15417
▁오락가락	-15418
▁오바이트	-15419
▁울트라맨	-15420
▁웅얼웅얼	-15421
▁이자스민	-15422
▁익스트림	-15423
▁인신매매	-15424
▁잃어버렸	-15425
▁지긋지긋	-15426
▁지리멸렬	-15427
▁코미디언	-15428
▁크로노스	-15429
▁크리스챤	-15430
▁트리스탄	-15431
▁티격태격	-15432
▁플라스틱	-15433
▁한꺼번에	-15434
▁할렐루야	-15435
▁할지라도	-15436
▁핸드헬드	-15437
▁했을지도	-15438
▁허우적대	-15439
▁황우슬혜	-15440
▁후회막심	-15441
▁흐를수록	-15442
▁...!!	-15443
▁....?	-15444
▁..;;;	-15445
▁every	-15446
▁trash	-15447
▁관세음보살	-15448
▁그런가보다	-15449
▁그럴듯하게	-15450
▁그리워진다	-15451
▁베르세르크	-15452
▁블랙리스트	-15453
▁슈퍼주니어	-15454
▁안타까워서	-15455
▁얼티메이텀	-15456
▁에로티시즘	-15457
▁조쉬하트넷	-15458
▁프란체스카	-15459
▁헤라클레스	-15460
▁..!!!!	-15461
▁always	-15462
▁zzzzzz	-15463
▁기다려집니다	-15464
▁토비맥과이어	-15465
▁1234567890	-15466
11	-15467
19	-15468
29	-15469
83	-15470
BC	-15471
CK	-15472
IF	-15473
PL	-15474
WE	-15475
ag	-15476
aj	-15477
df	-15478
dg	-15479
hd	-15480
js	-15481
ob	-15482
ur	-15483
▁곘	-15484
▁깰	-15485
▁낱	-15486
▁넙	-15487
▁뇽	-15488
▁닙	-15489
▁돔	-15490
▁됄	-15491
▁딛	-15492
▁떙	-15493
▁뚤	-15494
▁띨	-15495
▁렇	-15496
▁렜	-15497
▁룽	-15498
▁륭	-15499
▁맵	-15500
▁멌	-15501
▁뮈	-15502
▁믈	-15503
▁벵	-15504
▁뷔	-15505
▁븐	-15506
▁뽁	-15507
▁뽄	-15508
▁뽜	-15509
▁삿	-15510
▁샨	-15511
▁섰	-15512
▁숩	-15513
▁슛	-15514
▁쌌	-15515
▁쌕	-15516
▁쏩	-15517
▁앟	-15518
▁욀	-15519
▁짦	-15520
▁짴	-15521
▁쨉	-15522
▁찿	-15523
▁챠	-15524
▁춰	-15525
▁쿤	-15526
▁쿰	-15527
▁퀀	-15528
▁킈	-15529
▁폈	-15530
▁퐝	-15531
▁핍	-15532
▁핥	-15533
▁핼	-15534
▁헀	-15535
▁헥	-15536
▁헹	-15537
감증	-15538
계인	-15539
고만	-15540
괭이	-15541
구공	-15542
구질	-15543
그제	-15544
길이	-15545
꺼운	-15546
꺼풀	-15547
꼴라	-15548
나르	-15549
나리	-15550
나벨	-15551
나요	-15552
날레	-15553
너프	-15554
너히	-15555
노도	-15556
노프	-15557
뉴엘	-15558
닐라	-15559
다간	-15560
다듬	-15561
달화	-15562
더지	-15563
던데	-15564
도원	-15565
도취	-15566
득이	-15567
따라	-15568
러우	-15569
런지	-15570
레반	-15571
리엄	-15572
리투	-15573
릴린	-15574
마이	-15575
맞추	-15576
메달	-15577
메테	-15578
명수	-15579
물며	-15580
뮤니	-15581
미나	-15582
미야	-15583
민가	-15584
민수	-15585
바나	-15586
바스	-15587
박스	-15588
복절	-15589
부대	-15590
부릉	-15591
사비	-15592
사태	-15593
삼순	-15594
생아	-15595
서리	-15596
서희	-15597
성훈	-15598
쇼셔	-15599
수거	-15600
수작	-15601
숙정	-15602
순례	-15603
스맨	-15604
스에	-15605
슬러	-15606
신소	-15607
심장	-15608
쌍웅	-15609
쌔신	-15610
씨름	-15611
아웃	-15612
어데	-15613
어붙	-15614
어치	-15615
에타	-15616
에프	-15617
왈부	-15618
요소	-15619
울러	-15620
원영	-15621
의사	-15622
의연	-15623
의지	-15624
인데	-15625
저트	-15626
젠토	-15627
젤로	-15628
주행	-15629
지션	-15630
지오	-15631
징글	-15632
차별	-15633
찬히	-15634
창욱	-15635
천련	-15636
철수	-15637
츠비	-15638
케이	-15639
퀴엠	-15640
클럽	-15641
타카	-15642
터맨	-15643
테오	-15644
팔계	-15645
팡이	-15646
퍼드	-15647
프닝	-15648
플러	-15649
피식	-15650
핀스	-15651
하고	-15652
헤헤	-15653
혈병	-15654
홍기	-15655
화문	-15656
화질	-15657
432	-15658
CTV	-15659
ail	-15660
ate	-15661
eep	-15662
eop	-15663
ght	-15664
iew	-15665
ild	-15666
ina	-15667
irl	-15668
ode	-15669
ook	-15670
ple	-15671
uch	-15672
uck	-15673
▁05	-15674
▁42	-15675
▁64	-15676
▁?.	-15677
▁Al	-15678
▁Am	-15679
▁BA	-15680
▁CJ	-15681
▁GG	-15682
▁GP	-15683
▁Le	-15684
▁Me	-15685
▁Ne	-15686
▁Pr	-15687
▁Sf	-15688
▁YO	-15689
▁aw	-15690
▁bi	-15691
▁dl	-15692
▁dm	-15693
▁dr	-15694
▁kr	-15695
▁sa	-15696
▁가련	-15697
▁가여	-15698
▁가임	-15699
▁각기	-15700
▁간략	-15701
▁간질	-15702
▁갈지	-15703
▁갈켜	-15704
▁감내	-15705
▁감염	-15706
▁강국	-15707
▁강민	-15708
▁개거	-15709
▁개과	-15710
▁개론	-15711
▁개별	-15712
▁개욕	-15713
▁개코	-15714
▁개호	-15715
▁갱단	-15716
▁거덩	-15717
▁거두	-15718
▁거주	-15719
▁거쳐	-15720
▁거치	-15721
▁건성	-15722
▁검열	-15723
▁것다	-15724
▁겨누	-15725
▁결단	-15726
▁계곡	-15727
▁계백	-15728
▁계보	-15729
▁계집	-15730
▁고모	-15731
▁고속	-15732
▁고우	-15733
▁고유	-15734
▁고의	-15735
▁고충	-15736
▁고프	-15737
▁공세	-15738
▁공수	-15739
▁공지	-15740
▁과한	-15741
▁관중	-15742
▁관지	-15743
▁광녀	-15744
▁광속	-15745
▁광식	-15746
▁괜챦	-15747
▁교관	-15748
▁교인	-15749
▁구닥	-15750
▁구르	-15751
▁구수	-15752
▁구애	-15753
▁구워	-15754
▁구체	-15755
▁국보	-15756
▁국수	-15757
▁굶주	-15758
▁규정	-15759
▁그름	-15760
▁그제	-15761
▁극소	-15762
▁극화	-15763
▁근사	-15764
▁근성	-15765
▁글렌	-15766
▁글리	-15767
▁금세	-15768
▁금이	-15769
▁급격	-15770
▁급한	-15771
▁기량	-15772
▁기력	-15773
▁기쁘	-15774
▁기장	-15775
▁긴말	-15776
▁긴지	-15777
▁김봉	-15778
▁김순	-15779
▁김춘	-15780
▁김한	-15781
▁깃발	-15782
▁까다	-15783
▁까발	-15784
▁까불	-15785
▁깝다	-15786
▁꺄아	-15787
▁꺼이	-15788
▁꼬락	-15789
▁꼭질	-15790
▁꼴값	-15791
▁꽁치	-15792
▁꿈꾼	-15793
▁꿈꿔	-15794
▁꿈속	-15795
▁꿈틀	-15796
▁끄집	-15797
▁끌림	-15798
▁끝낼	-15799
▁낙이	-15800
▁난동	-15801
▁난이	-15802
▁남우	-15803
▁낮춘	-15804
▁내밀	-15805
▁내장	-15806
▁내재	-15807
▁넘친	-15808
▁넝쿨	-15809
▁네덜	-15810
▁네모	-15811
▁노스	-15812
▁녹슬	-15813
▁논다	-15814
▁느닷	-15815
▁는대	-15816
▁늘렸	-15817
▁늦출	-15818
▁니들	-15819
▁니랑	-15820
▁니버	-15821
▁니아	-15822
▁다나	-15823
▁다녔	-15824
▁다님	-15825
▁다다	-15826
▁다로	-15827
▁다립	-15828
▁다빈	-15829
▁다인	-15830
▁다중	-15831
▁다친	-15832
▁단골	-15833
▁단함	-15834
▁단합	-15835
▁단호	-15836
▁달림	-15837
▁당돌	-15838
▁당위	-15839
▁대나	-15840
▁대려	-15841
▁대마	-15842
▁대물	-15843
▁대수	-15844
▁대포	-15845
▁대했	-15846
▁덜하	-15847
▁덤블	-15848
▁데굴	-15849
▁도도	-15850
▁도성	-15851
▁도식	-15852
▁도신	-15853
▁도피	-15854
▁도화	-15855
▁도희	-15856
▁독서	-15857
▁독한	-15858
▁돌린	-15859
▁동선	-15860
▁득실	-15861
▁들렸	-15862
▁들릴	-15863
▁듯한	-15864
▁디렉	-15865
▁딴짓	-15866
▁딸년	-15867
▁딸려	-15868
▁땅콩	-15869
▁땅크	-15870
▁때릴	-15871
▁땡땡	-15872
▁떨려	-15873
▁떨렸	-15874
▁뚜껑	-15875
▁뚫리	-15876
▁라드	-15877
▁라벨	-15878
▁라틴	-15879
▁라파	-15880
▁래스	-15881
▁래야	-15882
▁랭크	-15883
▁레몬	-15884
▁레빗	-15885
▁렉터	-15886
▁로렌	-15887
▁로페	-15888
▁롭슈	-15889
▁뤠기	-15890
▁류에	-15891
▁리나	-15892
▁리니	-15893
▁리우	-15894
▁리콜	-15895
▁리타	-15896
▁링크	-15897
▁마실	-15898
▁막대	-15899
▁막론	-15900
▁말랑	-15901
▁말자	-15902
▁맡겨	-15903
▁매몰	-15904
▁매수	-15905
▁매이	-15906
▁맥도	-15907
▁맹목	-15908
▁머무	-15909
▁머이	-15910
▁멈춤	-15911
▁메식	-15912
▁멱살	-15913
▁면도	-15914
▁면허	-15915
▁명수	-15916
▁명연	-15917
▁모짜	-15918
▁무더	-15919
▁무소	-15920
▁무영	-15921
▁묶여	-15922
▁묻혔	-15923
▁뮤츠	-15924
▁미면	-15925
▁미명	-15926
▁미어	-15927
▁미오	-15928
▁미움	-15929
▁바나	-15930
▁바랫	-15931
▁바빠	-15932
▁박건	-15933
▁박혔	-15934
▁반동	-15935
▁반려	-15936
▁반반	-15937
▁반신	-15938
▁반역	-15939
▁발가	-15940
▁발렌	-15941
▁발린	-15942
▁발산	-15943
▁방가	-15944
▁방귀	-15945
▁방면	-15946
▁방콕	-15947
▁배움	-15948
▁배짱	-15949
▁버드	-15950
▁범접	-15951
▁범주	-15952
▁벚꽃	-15953
▁베인	-15954
▁벤치	-15955
▁벤허	-15956
▁변장	-15957
▁변환	-15958
▁별도	-15959
▁병동	-15960
▁병든	-15961
▁병실	-15962
▁병역	-15963
▁병자	-15964
▁병풍	-15965
▁복구	-15966
▁복음	-15967
▁복합	-15968
▁본사	-15969
▁본판	-15970
▁봄날	-15971
▁봉년	-15972
▁봣지	-15973
▁부기	-15974
▁부장	-15975
▁부흥	-15976
▁분간	-15977
▁분과	-15978
▁분말	-15979
▁분배	-15980
▁붙혀	-15981
▁비글	-15982
▁비버	-15983
▁비법	-15984
▁비수	-15985
▁비지	-15986
▁비켜	-15987
▁비토	-15988
▁비투	-15989
▁비화	-15990
▁빅맨	-15991
▁빙의	-15992
▁빨강	-15993
▁빨랐	-15994
▁뺴고	-15995
▁뿐이	-15996
▁쁘지	-15997
▁삐딱	-15998
▁사공	-15999
▁사드	-16000
▁사모	-16001
▁사발	-16002
▁사병	-16003
▁사부	-16004
▁사항	-16005
▁산물	-16006
▁산트	-16007
▁상금	-16008
▁상급	-16009
▁상반	-16010
▁상병	-16011
▁상수	-16012
▁상작	-16013
▁상책	-16014
▁상혁	-16015
▁새콤	-16016
▁생선	-16017
▁생체	-16018
▁생화	-16019
▁서두	-16020
▁서든	-16021
▁서먼	-16022
▁선곡	-16023
▁선리	-16024
▁선비	-16025
▁선셋	-16026
▁선인	-16027
▁선희	-16028
▁설렜	-16029
▁설령	-16030
▁설탕	-16031
▁설희	-16032
▁성급	-16033
▁성상	-16034
▁성악	-16035
▁셔틀	-16036
▁소굴	-16037
▁소매	-16038
▁소총	-16039
▁소희	-16040
▁수법	-16041
▁수요	-16042
▁수표	-16043
▁숙명	-16044
▁숙청	-16045
▁순대	-16046
▁순도	-16047
▁술술	-16048
▁숭배	-16049
▁쉴즈	-16050
▁슈마	-16051
▁슈주	-16052
▁슈타	-16053
▁스톱	-16054
▁스팀	-16055
▁스펀	-16056
▁스핀	-16057
▁시덥	-16058
▁시비	-16059
▁시설	-16060
▁시신	-16061
▁시초	-16062
▁시카	-16063
▁시커	-16064
▁식욕	-16065
▁식이	-16066
▁신상	-16067
▁신임	-16068
▁신청	-16069
▁실까	-16070
▁실려	-16071
▁심경	-16072
▁심란	-16073
▁심볼	-16074
▁싱싱	-16075
▁쌉싸	-16076
▁쏘리	-16077
▁쑤시	-16078
▁쓰라	-16079
▁아녔	-16080
▁아론	-16081
▁아사	-16082
▁아성	-16083
▁아시	-16084
▁아츠	-16085
▁아킬	-16086
▁악기	-16087
▁악악	-16088
▁안기	-16089
▁안길	-16090
▁안네	-16091
▁안리	-16092
▁안부	-16093
▁알란	-16094
▁앗다	-16095
▁앞날	-16096
▁앞두	-16097
▁애도	-16098
▁애락	-16099
▁애지	-16100
▁앨빈	-16101
▁야간	-16102
▁야생	-16103
▁야설	-16104
▁야인	-16105
▁얄미	-16106
▁어나	-16107
▁어니	-16108
▁어머	-16109
▁어부	-16110
▁어브	-16111
▁어택	-16112
▁억수	-16113
▁얼씬	-16114
▁에고	-16115
▁에유	-16116
▁에프	-16117
▁여리	-16118
▁여중	-16119
▁역류	-16120
▁연길	-16121
▁연신	-16122
▁연화	-16123
▁열등	-16124
▁염치	-16125
▁엽당	-16126
▁영가	-16127
▁영영	-16128
▁영자	-16129
▁영채	-16130
▁영춘	-16131
▁예약	-16132
▁예원	-16133
▁오대	-16134
▁오미	-16135
▁오승	-16136
▁오잉	-16137
▁옥토	-16138
▁온돌	-16139
▁올립	-16140
▁옮겼	-16141
▁와야	-16142
▁완맥	-16143
▁완주	-16144
▁왕건	-16145
▁왕족	-16146
▁외한	-16147
▁외할	-16148
▁요오	-16149
▁욕되	-16150
▁용가	-16151
▁용납	-16152
▁용량	-16153
▁용임	-16154
▁용품	-16155
▁용하	-16156
▁우씨	-16157
▁우재	-16158
▁우직	-16159
▁우진	-16160
▁우하	-16161
▁울적	-16162
▁움찔	-16163
▁원정	-16164
▁원죄	-16165
▁원투	-16166
▁월남	-16167
▁월켄	-16168
▁위드	-16169
▁유노	-16170
▁유능	-16171
▁유란	-16172
▁유모	-16173
▁유무	-16174
▁유분	-16175
▁유신	-16176
▁유위	-16177
▁으앙	-16178
▁은주	-16179
▁은하	-16180
▁음료	-16181
▁음주	-16182
▁음직	-16183
▁의뢰	-16184
▁의원	-16185
▁이룩	-16186
▁이목	-16187
▁이불	-16188
▁이송	-16189
▁이을	-16190
▁이천	-16191
▁인주	-16192
▁일파	-16193
▁일행	-16194
▁임마	-16195
▁임수	-16196
▁임재	-16197
▁입원	-16198
▁자객	-16199
▁자만	-16200
▁자분	-16201
▁자손	-16202
▁자수	-16203
▁자취	-16204
▁자크	-16205
▁작단	-16206
▁잖어	-16207
▁잘생	-16208
▁잠드	-16209
▁장고	-16210
▁장끌	-16211
▁장래	-16212
▁장성	-16213
▁장현	-16214
▁재롱	-16215
▁재석	-16216
▁재정	-16217
▁재중	-16218
▁재훈	-16219
▁잭맨	-16220
▁쟁취	-16221
▁저서	-16222
▁저음	-16223
▁저쩌	-16224
▁전공	-16225
▁전성	-16226
▁전임	-16227
▁전제	-16228
▁절름	-16229
▁절박	-16230
▁점심	-16231
▁정용	-16232
▁정운	-16233
▁정장	-16234
▁정전	-16235
▁제거	-16236
▁제비	-16237
▁져라	-16238
▁조로	-16239
▁조언	-16240
▁조져	-16241
▁조치	-16242
▁존박	-16243
▁졷나	-16244
▁종범	-16245
▁종잡	-16246
▁종혁	-16247
▁주스	-16248
▁줄곧	-16249
▁중위	-16250
▁증지	-16251
▁지름	-16252
▁지문	-16253
▁지부	-16254
▁지자	-16255
▁지침	-16256
▁지탱	-16257
▁진데	-16258
▁진범	-16259
▁진우	-16260
▁진입	-16261
▁진저	-16262
▁진절	-16263
▁진창	-16264
▁진희	-16265
▁질렀	-16266
▁질릴	-16267
▁짤려	-16268
▁짤리	-16269
▁쨔응	-16270
▁쪼끔	-16271
▁쫘악	-16272
▁찔리	-16273
▁찡찡	-16274
▁차돌	-16275
▁차렸	-16276
▁차릴	-16277
▁차였	-16278
▁착륙	-16279
▁착착	-16280
▁착취	-16281
▁찰진	-16282
▁참다	-16283
▁창민	-16284
▁창출	-16285
▁처제	-16286
▁처치	-16287
▁처키	-16288
▁천도	-16289
▁천연	-16290
▁천추	-16291
▁첩혈	-16292
▁첫눈	-16293
▁체로	-16294
▁초래	-16295
▁추방	-16296
▁추한	-16297
▁출수	-16298
▁충남	-16299
▁치가	-16300
▁치는	-16301
▁치아	-16302
▁친자	-16303
▁침뱉	-16304
▁침입	-16305
▁칭송	-16306
▁카톡	-16307
▁카트	-16308
▁카포	-16309
▁캔디	-16310
▁커밍	-16311
▁커졌	-16312
▁커쳐	-16313
▁컬킨	-16314
▁켄신	-16315
▁코디	-16316
▁콕콕	-16317
▁콜롬	-16318
▁쾌걸	-16319
▁쿠나	-16320
▁쿠키	-16321
▁쿵쾅	-16322
▁퀄리	-16323
▁키득	-16324
▁타쿠	-16325
▁탁탁	-16326
▁탄성	-16327
▁탈리	-16328
▁태상	-16329
▁태생	-16330
▁태클	-16331
▁탱이	-16332
▁터맨	-16333
▁터보	-16334
▁테디	-16335
▁테리	-16336
▁텔링	-16337
▁토록	-16338
▁토해	-16339
▁통신	-16340
▁퉁퉁	-16341
▁트롤	-16342
▁트림	-16343
▁틈틈	-16344
▁팀원	-16345
▁패망	-16346
▁패왕	-16347
▁패킷	-16348
▁팬덤	-16349
▁팽이	-16350
▁펄프	-16351
▁펏다	-16352
▁페니	-16353
▁페킨	-16354
▁편리	-16355
▁편중	-16356
▁평일	-16357
▁포용	-16358
▁포크	-16359
▁포항	-16360
▁폴란	-16361
▁푸근	-16362
▁풀렸	-16363
▁풀이	-16364
▁풍족	-16365
▁프루	-16366
▁플로	-16367
▁피구	-16368
▁피셔	-16369
▁피쉬	-16370
▁피치	-16371
▁피할	-16372
▁필력	-16373
▁핏빛	-16374
▁하가	-16375
▁하마	-16376
▁하우	-16377
▁하준	-16378
▁하지	-16379
▁학습	-16380
▁한나	-16381
▁한복	-16382
▁한수	-16383
▁합법	-16384
▁핰핰	-16385
▁해상	-16386
▁해전	-16387
▁해줍	-16388
▁행한	-16389
▁허다	-16390
▁허트	-16391
▁헤븐	-16392
▁헤서	-16393
▁헤쳐	-16394
▁헨젤	-16395
▁협동	-16396
▁협상	-16397
▁협소	-16398
▁협회	-16399
▁혜리	-16400
▁호동	-16401
▁호두	-16402
▁호박	-16403
▁호벤	-16404
▁호비	-16405
▁호응	-16406
▁호충	-16407
▁호투	-16408
▁혼동	-16409
▁홀트	-16410
▁홈런	-16411
▁화이	-16412
▁황한	-16413
▁황혼	-16414
▁회고	-16415
▁회담	-16416
▁회색	-16417
▁회원	-16418
▁회한	-16419
▁후크	-16420
▁후편	-16421
▁후훗	-16422
▁훈계	-16423
▁휘발	-16424
▁휩싸	-16425
▁흐음	-16426
▁흠집	-16427
▁흠칫	-16428
▁흡족	-16429
▁흥했	-16430
▁희귀	-16431
▁힐튼	-16432
답니다	-16433
덕여왕	-16434
레이저	-16435
물고기	-16436
성애자	-16437
스토이	-16438
십니까	-16439
지막지	-16440
지우지	-16441
카시마	-16442
커너히	-16443
트리에	-16444
페이스	-16445
bbbb	-16446
gend	-16447
here	-16448
iant	-16449
iece	-16450
nder	-16451
ning	-16452
onna	-16453
ream	-16454
▁!!"	-16455
▁!..	-16456
▁'..	-16457
▁101	-16458
▁103	-16459
▁112	-16460
▁360	-16461
▁600	-16462
▁;..	-16463
▁Bel	-16464
▁GTA	-16465
▁PPL	-16466
▁THE	-16467
▁WWE	-16468
▁Who	-16469
▁art	-16470
▁bit	-16471
▁dam	-16472
▁him	-16473
▁nhn	-16474
▁rou	-16475
▁ser	-16476
▁sor	-16477
▁ucc	-16478
▁usb	-16479
▁가브리	-16480
▁가족사	-16481
▁갈아입	-16482
▁감칠맛	-16483
▁강성재	-16484
▁강제규	-16485
▁개드립	-16486
▁개수작	-16487
▁개츠비	-16488
▁거듭나	-16489
▁거슬러	-16490
▁건드렸	-16491
▁건축학	-16492
▁걷어차	-16493
▁걸린다	-16494
▁게이고	-16495
▁결과물	-16496
▁경찰서	-16497
▁계륜미	-16498
▁고무줄	-16499
▁고화질	-16500
▁공동체	-16501
▁공연장	-16502
▁관람자	-16503
▁광복절	-16504
▁광화문	-16505
▁구미호	-16506
▁구숙정	-16507
▁국영화	-16508
▁권태기	-16509
▁그따위	-16510
▁그랜드	-16511
▁그럴까	-16512
▁글로버	-16513
▁기대치	-16514
▁기숙사	-16515
▁기술자	-16516
▁김기련	-16517
▁김남주	-16518
▁김두영	-16519
▁김삼순	-16520
▁김석훈	-16521
▁김선영	-16522
▁김은숙	-16523
▁김정일	-16524
▁김정태	-16525
▁김진표	-16526
▁김혜자	-16527
▁깨우쳐	-16528
▁끌려가	-16529
▁끌린다	-16530
▁끝나갈	-16531
▁끝없이	-16532
▁나날이	-16533
▁나뉜다	-16534
▁나아졌	-16535
▁나아진	-16536
▁난데없	-16537
▁날라리	-16538
▁날아갔	-16539
▁날아오	-16540
▁내놔도	-16541
▁내려오	-16542
▁내린다	-16543
▁내버려	-16544
▁녹아든	-16545
▁논픽션	-16546
▁놓쳐서	-16547
▁누굴까	-16548
▁느껴본	-16549
▁늘어짐	-16550
▁다거나	-16551
▁다구요	-16552
▁다닌다	-16553
▁다른데	-16554
▁다이너	-16555
▁다이버	-16556
▁단단히	-16557
▁달라이	-16558
▁달라져	-16559
▁대나무	-16560
▁대풍수	-16561
▁더운데	-16562
▁던진다	-16563
▁데려와	-16564
▁데이지	-16565
▁데일리	-16566
▁도망갈	-16567
▁도요타	-16568
▁돌린다	-16569
▁돼버렸	-16570
▁되돌리	-16571
▁두꺼운	-16572
▁두더지	-16573
▁둘러보	-16574
▁둘러싼	-16575
▁뒤돌아	-16576
▁뒷골목	-16577
▁드러났	-16578
▁들린다	-16579
▁듭시다	-16580
▁디저트	-16581
▁따라갔	-16582
▁딸려서	-16583
▁똥파리	-16584
▁라던가	-16585
▁라스폰	-16586
▁라오스	-16587
▁라인업	-16588
▁러브신	-16589
▁레베카	-16590
▁레슬러	-16591
▁레시피	-16592
▁레오니	-16593
▁레이디	-16594
▁레퀴엠	-16595
▁려거든	-16596
▁려는데	-16597
▁로리타	-16598
▁로메로	-16599
▁로운데	-16600
▁릅답고	-16601
▁리허설	-16602
▁마라톤	-16603
▁마르코	-16604
▁마술사	-16605
▁마이걸	-16606
▁마침내	-16607
▁마침표	-16608
▁마코토	-16609
▁마틸다	-16610
▁막힌다	-16611
▁만난다	-16612
▁망가졌	-16613
▁매개체	-16614
▁매달리	-16615
▁매염방	-16616
▁맥아더	-16617
▁머리털	-16618
▁머리통	-16619
▁멍멍이	-16620
▁메카닉	-16621
▁멜라니	-16622
▁모자른	-16623
▁목요일	-16624
▁목욕탕	-16625
▁몰라라	-16626
▁몰랐다	-16627
▁몰려오	-16628
▁무성의	-16629
▁무한대	-16630
▁미나토	-16631
▁미스트	-16632
▁미우라	-16633
▁미워하	-16634
▁바뀐다	-16635
▁바닐라	-16636
▁바바리	-16637
▁바이오	-16638
▁박명수	-16639
▁박용하	-16640
▁박정아	-16641
▁박정철	-16642
▁백동수	-16643
▁백혈병	-16644
▁벌어질	-16645
▁베아르	-16646
▁벡터맨	-16647
▁병아리	-16648
▁보안관	-16649
▁보여도	-16650
▁복고풍	-16651
▁볼께요	-16652
▁볼품없	-16653
▁부릅뜨	-16654
▁부사장	-16655
▁불감증	-16656
▁불태워	-16657
▁브라스	-16658
▁블랙홀	-16659
▁비비안	-16660
▁비상구	-16661
▁비주류	-16662
▁빼앗기	-16663
▁뻔한데	-16664
▁뽑아내	-16665
▁쁘더라	-16666
▁사명감	-16667
▁사무실	-16668
▁사이먼	-16669
▁삼박자	-16670
▁삽니다	-16671
▁삽시다	-16672
▁상세히	-16673
▁생물학	-16674
▁샤이닝	-16675
▁서랜든	-16676
▁서투르	-16677
▁선댄스	-16678
▁성우진	-16679
▁세레나	-16680
▁세이두	-16681
▁소비자	-16682
▁손바닥	-16683
▁수시로	-16684
▁수신료	-16685
▁수호지	-16686
▁스너프	-16687
▁스며들	-16688
▁스컬리	-16689
▁스크립	-16690
▁스탈링	-16691
▁스트로	-16692
▁스티치	-16693
▁스폰지	-16694
▁스피어	-16695
▁스피커	-16696
▁슬픈지	-16697
▁승리자	-16698
▁시스터	-16699
▁신격화	-16700
▁신성록	-16701
▁신소율	-16702
▁신앙심	-16703
▁실제론	-16704
▁쓰러질	-16705
▁아나키	-16706
▁아야세	-16707
▁아우르	-16708
▁아울러	-16709
▁알아먹	-16710
▁암흑기	-16711
▁애나벨	-16712
▁애당초	-16713
▁애드립	-16714
▁애처롭	-16715
▁애플렉	-16716
▁얘긴데	-16717
▁어두웠	-16718
▁어쌔신	-16719
▁얼룩진	-16720
▁얼어붙	-16721
▁엄기준	-16722
▁엇박자	-16723
▁엊그제	-16724
▁에밀리	-16725
▁에스티	-16726
▁에이프	-16727
▁여성상	-16728
▁여호와	-16729
▁역도산	-16730
▁역주행	-16731
▁연산군	-16732
▁영국인	-16733
▁영양가	-16734
▁영화학	-16735
▁오락실	-16736
▁오천련	-16737
▁오현민	-16738
▁옥택연	-16739
▁온다면	-16740
▁올라간	-16741
▁올라와	-16742
▁올린다	-16743
▁와사비	-16744
▁외로웠	-16745
▁우려낸	-16746
▁우우우	-16747
▁원영의	-16748
▁원한다	-16749
▁월레스	-16750
▁웟지만	-16751
▁유발자	-16752
▁유세윤	-16753
▁유심히	-16754
▁유인나	-16755
▁윤상현	-16756
▁윤여정	-16757
▁으아아	-16758
▁음악가	-16759
▁음악회	-16760
▁음양사	-16761
▁이계인	-16762
▁이기광	-16763
▁이기주	-16764
▁이긴다	-16765
▁이덕화	-16766
▁이래야	-16767
▁이래요	-16768
▁이뤄지	-16769
▁이방인	-16770
▁이상아	-16771
▁이상형	-16772
▁이수혁	-16773
▁이승철	-16774
▁이용철	-16775
▁이진욱	-16776
▁이창동	-16777
▁이하늬	-16778
▁이홍기	-16779
▁인내력	-16780
▁인지도	-16781
▁인형극	-16782
▁일본군	-16783
▁일지도	-16784
▁임달화	-16785
▁임순례	-16786
▁잊혀져	-16787
▁작년도	-16788
▁장모님	-16789
▁장미희	-16790
▁장재인	-16791
▁저격수	-16792
▁저럴까	-16793
▁저울질	-16794
▁저팔계	-16795
▁전광렬	-16796
▁전해져	-16797
▁절절히	-16798
▁정다빈	-16799
▁정신줄	-16800
▁정치색	-16801
▁제우스	-16802
▁제정신	-16803
▁젠틀맨	-16804
▁조현재	-16805
▁존엄성	-16806
▁졸라서	-16807
▁종결자	-16808
▁즐거울	-16809
▁지나온	-16810
▁지나쳐	-16811
▁지난주	-16812
▁지존파	-16813
▁지지리	-16814
▁지창욱	-16815
▁지하실	-16816
▁진세연	-16817
▁짜맞추	-16818
▁짜여져	-16819
▁찢어지	-16820
▁찬찬히	-16821
▁창작자	-16822
▁찾아올	-16823
▁채워야	-16824
▁책임자	-16825
▁최동훈	-16826
▁최양일	-16827
▁최원영	-16828
▁최하급	-16829
▁추성훈	-16830
▁칼리토	-16831
▁캐스퍼	-16832
▁커뮤니	-16833
▁코믹스	-16834
▁콩콩콩	-16835
▁퀘이드	-16836
▁키보드	-16837
▁키이라	-16838
▁킨스키	-16839
▁타블로	-16840
▁타이거	-16841
▁타일러	-16842
▁타츠야	-16843
▁탈레반	-16844
▁테레비	-16845
▁테레사	-16846
▁테크닉	-16847
▁텍스트	-16848
▁트랜드	-16849
▁트로이	-16850
▁티모시	-16851
▁티에리	-16852
▁티플러	-16853
▁파인즈	-16854
▁파일럿	-16855
▁팔씨름	-16856
▁패배자	-16857
▁패션쇼	-16858
▁펼쳐진	-16859
▁포핀스	-16860
▁프레스	-16861
▁프로즌	-16862
▁플래시	-16863
▁피범벅	-16864
▁피의자	-16865
▁피해야	-16866
▁필요악	-16867
▁하리수	-16868
▁하물며	-16869
▁하반기	-16870
▁하트넷	-16871
▁학부모	-16872
▁해리스	-16873
▁해야죠	-16874
▁해줘도	-16875
▁해프닝	-16876
▁허스키	-16877
▁허진호	-16878
▁혐오증	-16879
▁협주곡	-16880
▁호스트	-16881
▁황보라	-16882
▁황수정	-16883
▁회사원	-16884
▁훈련소	-16885
▁훑어보	-16886
▁흥신소	-16887
메테우스	-16888
aster	-16889
eople	-16890
▁,...	-16891
▁1982	-16892
▁3000	-16893
▁CCTV	-16894
▁asdf	-16895
▁film	-16896
▁have	-16897
▁iptv	-16898
▁made	-16899
▁play	-16900
▁soso	-16901
▁will	-16902
▁가져와서	-16903
▁개구쟁이	-16904
▁거슬려서	-16905
▁구닥다리	-16906
▁구질구질	-16907
▁구태의연	-16908
▁그러니깐	-16909
▁그레이드	-16910
▁기쁩니다	-16911
▁기억난다	-16912
▁길이길이	-16913
▁꾸밈없이	-16914
▁나왔으니	-16915
▁나카시마	-16916
▁난데없이	-16917
▁네덜란드	-16918
▁눈물겨운	-16919
▁느닷없이	-16920
▁다릅니다	-16921
▁다이어리	-16922
▁다케우치	-16923
▁단발머리	-16924
▁동명이인	-16925
▁두려워하	-16926
▁드리프트	-16927
▁떨어뜨려	-16928
▁떨어뜨림	-16929
▁떨어져라	-16930
▁러시아어	-16931
▁로그인한	-16932
▁만든다면	-16933
▁멋드러진	-16934
▁모릅니다	-16935
▁모자란다	-16936
▁모짜르트	-16937
▁무서운데	-16938
▁무신론자	-16939
▁무지막지	-16940
▁미드나잇	-16941
▁밀리터리	-16942
▁밀어붙이	-16943
▁바꿨으면	-16944
▁바티스타	-16945
▁부끄러움	-16946
▁부릉부릉	-16947
▁분리수거	-16948
▁불꽃놀이	-16949
▁브래들리	-16950
▁브레이커	-16951
▁블라인드	-16952
▁비글로우	-16953
▁빅토리아	-16954
▁삐뚤어진	-16955
▁사라진다	-16956
▁사이보그	-16957
▁사회주의	-16958
▁살릴려고	-16959
▁선덕여왕	-16960
▁세르게이	-16961
▁세르지오	-16962
▁소매치기	-16963
▁슈나이더	-16964
▁스탠바이	-16965
▁시킬려고	-16966
▁시티헌터	-16967
▁심심풀이	-16968
▁아니한가	-16969
▁아르젠토	-16970
▁아른거리	-16971
▁아시아인	-16972
▁아이언스	-16973
▁안쓰러울	-16974
▁안쓰러움	-16975
▁알리시아	-16976
▁어려워서	-16977
▁에볼루션	-16978
▁엠마뉴엘	-16979
▁오버액션	-16980
▁왈가왈부	-16981
▁요소요소	-16982
▁으니까요	-16983
▁을지라도	-16984
▁이냐리투	-16985
▁이라던가	-16986
▁이산가족	-16987
▁이송희일	-16988
▁잊어버리	-16989
▁자아도취	-16990
▁자유의지	-16991
▁잡스러운	-16992
▁장끌로드	-16993
▁재밌기만	-16994
▁저질러도	-16995
▁전성시대	-16996
▁제멋대로	-16997
▁좌지우지	-16998
▁중화사상	-16999
▁즐거워지	-17000
▁지켜봐야	-17001
▁진절머리	-17002
▁질풍노도	-17003
▁징그러웠	-17004
▁징글징글	-17005
▁쫓아다니	-17006
▁첩혈쌍웅	-17007
▁커스버트	-17008
▁텔레비전	-17009
▁톨스토이	-17010
▁튀어나온	-17011
▁트레이시	-17012
▁팝핀현준	-17013
▁팰트로우	-17014
▁푸하하하	-17015
▁프로덕션	-17016
▁프리미엄	-17017
▁피식피식	-17018
▁하늘나라	-17019
▁해서라도	-17020
▁했는데도	-17021
▁히로스에	-17022
▁.,,..	-17023
▁Movie	-17024
▁cheap	-17025
▁그럴듯한데	-17026
▁대하드라마	-17027
▁돋보입니다	-17028
▁떨어진다고	-17029
▁러브스토리	-17030
▁롭슈나이더	-17031
▁브로드웨이	-17032
▁어지러워서	-17033
▁오다기리죠	-17034
▁오드리햅번	-17035
▁올리버스톤	-17036
▁좋아합니다	-17037
▁초록물고기	-17038
▁튀어나와서	-17039
▁프로파간다	-17040
▁하하하하하	-17041
,,,,,,,	-17042
▁라스폰트리에	-17043
▁프로메테우스	-17044
00000000	-17045
99999999	-17046
;;;;;;;;	-17047
goodgood	-17048
▁1000000	-17049
.........	-17050
▁????????	-17051
!!!!!!!!!!	-17052
▁beautiful	-17053
............	-17054
▁!!!!!!!!!!!!!!!	-17055
18	-17056
23	-17057
DS	-17058
IL	-17059
IP	-17060
ME	-17061
ON	-17062
be	-17063
ds	-17064
eh	-17065
ha	-17066
ip	-17067
kj	-17068
ky	-17069
ny	-17070
of	-17071
ok	-17072
up	-17073
uu	-17074
vo	-17075
yp	-17076
▁갉	-17077
▁갭	-17078
▁겈	-17079
▁궂	-17080
▁귯	-17081
▁깠	-17082
▁낑	-17083
▁냇	-17084
▁냠	-17085
▁넛	-17086
▁녈	-17087
▁녓	-17088
▁눔	-17089
▁늣	-17090
▁떔	-17091
▁랰	-17092
▁렐	-17093
▁롬	-17094
▁뢰	-17095
▁뤘	-17096
▁맄	-17097
▁몀	-17098
▁몃	-17099
▁뱌	-17100
▁뵜	-17101
▁빳	-17102
▁쁠	-17103
▁셍	-17104
▁셩	-17105
▁쉼	-17106
▁쉿	-17107
▁슷	-17108
▁쏭	-17109
▁얇	-17110
▁웍	-17111
▁윅	-17112
▁읔	-17113
▁잏	-17114
▁잽	-17115
▁쟎	-17116
▁젛	-17117
▁졍	-17118
▁쨍	-17119
▁쩃	-17120
▁쯩	-17121
▁찟	-17122
▁챘	-17123
▁쳥	-17124
▁칀	-17125
▁컵	-17126
▁튈	-17127
▁펫	-17128
▁헠	-17129
▁헸	-17130
가와	-17131
가요	-17132
가정	-17133
감독	-17134
갔다	-17135
거려	-17136
게더	-17137
겹살	-17138
고사	-17139
구마	-17140
구무	-17141
구심	-17142
구정	-17143
군데	-17144
규환	-17145
꾸기	-17146
끈적	-17147
나먼	-17148
나은	-17149
나큰	-17150
나타	-17151
난만	-17152
날드	-17153
날라	-17154
날린	-17155
노부	-17156
놀리	-17157
는지	-17158
다임	-17159
담동	-17160
당기	-17161
대왕	-17162
더풀	-17163
덤스	-17164
델라	-17165
델피	-17166
도로	-17167
동력	-17168
동산	-17169
두루	-17170
드래	-17171
디션	-17172
딕트	-17173
란쳇	-17174
랜도	-17175
러치	-17176
로치	-17177
류탄	-17178
르모	-17179
린내	-17180
만도	-17181
머드	-17182
머스	-17183
모사	-17184
무계	-17185
무이	-17186
무장	-17187
무적	-17188
문희	-17189
바디	-17190
받이	-17191
받쳐	-17192
받침	-17193
밴드	-17194
버버	-17195
베송	-17196
보내	-17197
빛나	-17198
사의	-17199
상간	-17200
상진	-17201
성국	-17202
세대	-17203
세우	-17204
셀로	-17205
셔야	-17206
소와	-17207
수영	-17208
숨에	-17209
스런	-17210
스티	-17211
습니	-17212
승연	-17213
승지	-17214
승희	-17215
시장	-17216
식당	-17217
싱어	-17218
아킨	-17219
앵글	-17220
양원	-17221
어드	-17222
언조	-17223
었다	-17224
에트	-17225
여행	-17226
영록	-17227
오나	-17228
우기	-17229
운동	-17230
울까	-17231
워진	-17232
워크	-17233
윈튼	-17234
유럽	-17235
유산	-17236
이요	-17237
인애	-17238
잇감	-17239
자매	-17240
잖아	-17241
재용	-17242
저곳	-17243
정수	-17244
제로	-17245
종상	-17246
지능	-17247
진우	-17248
찌개	-17249
창력	-17250
천락	-17251
첨단	-17252
춘몽	-17253
츠제	-17254
캡슐	-17255
케묵	-17256
켄슈	-17257
크로	-17258
크림	-17259
크만	-17260
타나	-17261
테나	-17262
테크	-17263
텐도	-17264
토랑	-17265
토시	-17266
투사	-17267
투표	-17268
트럼	-17269
틀리	-17270
팅힐	-17271
파도	-17272
파탈	-17273
포스	-17274
하러	-17275
할린	-17276
해요	-17277
현진	-17278
혜림	-17279
호진	-17280
호테	-17281
효린	-17282
효종	-17283
OVE	-17284
VER	-17285
ary	-17286
att	-17287
ily	-17288
ink	-17289
ist	-17290
ite	-17291
lee	-17292
ner	-17293
oal	-17294
oon	-17295
ord	-17296
orn	-17297
ort	-17298
son	-17299
tbc	-17300
trl	-17301
▁'?	-17302
▁53	-17303
▁59	-17304
▁AI	-17305
▁DJ	-17306
▁De	-17307
▁HD	-17308
▁He	-17309
▁MM	-17310
▁Mb	-17311
▁OK	-17312
▁Of	-17313
▁PC	-17314
▁SH	-17315
▁Sm	-17316
▁TT	-17317
▁Tr	-17318
▁UP	-17319
▁ab	-17320
▁da	-17321
▁ds	-17322
▁en	-17323
▁ff	-17324
▁gr	-17325
▁jj	-17326
▁la	-17327
▁op	-17328
▁pm	-17329
▁rl	-17330
▁si	-17331
▁sk	-17332
▁ve	-17333
▁yg	-17334
▁가네	-17335
▁가린	-17336
▁가뭄	-17337
▁가세	-17338
▁가자	-17339
▁가희	-17340
▁각국	-17341
▁간판	-17342
▁갇히	-17343
▁갈겨	-17344
▁갈림	-17345
▁감고	-17346
▁강사	-17347
▁강태	-17348
▁강화	-17349
▁갖은	-17350
▁개강	-17351
▁개이	-17352
▁개탄	-17353
▁개혁	-17354
▁개황	-17355
▁객기	-17356
▁갱생	-17357
▁갸륵	-17358
▁걍보	-17359
▁거세	-17360
▁거시	-17361
▁거실	-17362
▁건국	-17363
▁건대	-17364
▁건들	-17365
▁건설	-17366
▁걸루	-17367
▁걸스	-17368
▁걸즈	-17369
▁겁내	-17370
▁게나	-17371
▁겨웠	-17372
▁격려	-17373
▁격조	-17374
▁격추	-17375
▁격한	-17376
▁결실	-17377
▁결전	-17378
▁경감	-17379
▁경관	-17380
▁경례	-17381
▁경로	-17382
▁경배	-17383
▁경외	-17384
▁계란	-17385
▁고선	-17386
▁고음	-17387
▁고장	-17388
▁고종	-17389
▁고평	-17390
▁고픈	-17391
▁고픔	-17392
▁공신	-17393
▁공학	-17394
▁과시	-17395
▁과외	-17396
▁과일	-17397
▁과했	-17398
▁곽현	-17399
▁관두	-17400
▁관뒀	-17401
▁관료	-17402
▁관망	-17403
▁관습	-17404
▁관조	-17405
▁광인	-17406
▁광활	-17407
▁괞찮	-17408
▁교류	-17409
▁구겨	-17410
▁구관	-17411
▁구인	-17412
▁구임	-17413
▁구작	-17414
▁구호	-17415
▁국밥	-17416
▁국영	-17417
▁국장	-17418
▁국화	-17419
▁군복	-17420
▁굴레	-17421
▁굴리	-17422
▁귀중	-17423
▁그랴	-17424
▁그렁	-17425
▁그른	-17426
▁근석	-17427
▁근질	-17428
▁글러	-17429
▁금액	-17430
▁기기	-17431
▁기냥	-17432
▁기네	-17433
▁기년	-17434
▁기담	-17435
▁기덕	-17436
▁기라	-17437
▁기른	-17438
▁기면	-17439
▁기태	-17440
▁긴하	-17441
▁길레	-17442
▁길예	-17443
▁김무	-17444
▁김응	-17445
▁김조	-17446
▁김형	-17447
▁까네	-17448
▁깜박	-17449
▁깜작	-17450
▁깝쳐	-17451
▁깨부	-17452
▁깨워	-17453
▁깨져	-17454
▁꺅꺅	-17455
▁꺼야	-17456
▁꼬였	-17457
▁꼬일	-17458
▁꼬임	-17459
▁꼭꼭	-17460
▁꼼수	-17461
▁꽂혀	-17462
▁꽃비	-17463
▁꾸민	-17464
▁꾹꾹	-17465
▁끈질	-17466
▁끌린	-17467
▁끓어	-17468
▁끓이	-17469
▁끼침	-17470
▁나고	-17471
▁나니	-17472
▁나다	-17473
▁나답	-17474
▁나면	-17475
▁나자	-17476
▁나진	-17477
▁나체	-17478
▁난로	-17479
▁난봉	-17480
▁날뛰	-17481
▁날조	-17482
▁남다	-17483
▁남미	-17484
▁남이	-17485
▁남잔	-17486
▁남장	-17487
▁남짓	-17488
▁남쪽	-17489
▁낯익	-17490
▁내걸	-17491
▁내미	-17492
▁냉동	-17493
▁널린	-17494
▁네놈	-17495
▁네프	-17496
▁녀랑	-17497
▁노련	-17498
▁노렸	-17499
▁노을	-17500
▁노재	-17501
▁노친	-17502
▁노크	-17503
▁녹이	-17504
▁녹차	-17505
▁농간	-17506
▁농사	-17507
▁누를	-17508
▁누비	-17509
▁눅눅	-17510
▁뉴질	-17511
▁다닥	-17512
▁다야	-17513
▁다영	-17514
▁다함	-17515
▁단기	-17516
▁단상	-17517
▁단서	-17518
▁단속	-17519
▁달갑	-17520
▁담장	-17521
▁답안	-17522
▁대개	-17523
▁대국	-17524
▁대면	-17525
▁대선	-17526
▁대소	-17527
▁대열	-17528
▁대영	-17529
▁대의	-17530
▁대판	-17531
▁더디	-17532
▁더미	-17533
▁더위	-17534
▁던스	-17535
▁던짐	-17536
▁덧없	-17537
▁데로	-17538
▁데자	-17539
▁도그	-17540
▁도랑	-17541
▁도르	-17542
▁도마	-17543
▁도면	-17544
▁도미	-17545
▁도용	-17546
▁독교	-17547
▁독사	-17548
▁독선	-17549
▁독설	-17550
▁독신	-17551
▁돌핀	-17552
▁동산	-17553
▁동석	-17554
▁동수	-17555
▁동식	-17556
▁동아	-17557
▁동족	-17558
▁두드	-17559
▁뒈지	-17560
▁뒤엎	-17561
▁뒤치	-17562
▁뒤태	-17563
▁뒷목	-17564
▁뒷배	-17565
▁뒷수	-17566
▁들러	-17567
▁들림	-17568
▁들통	-17569
▁등극	-17570
▁디도	-17571
▁디시	-17572
▁딜런	-17573
▁따리	-17574
▁따오	-17575
▁딱이	-17576
▁딸기	-17577
▁땡길	-17578
▁떄는	-17579
▁떔에	-17580
▁떨기	-17581
▁똘기	-17582
▁똥물	-17583
▁라디	-17584
▁라민	-17585
▁라비	-17586
▁라우	-17587
▁라흐	-17588
▁라희	-17589
▁랜덤	-17590
▁랜디	-17591
▁랬는	-17592
▁레셔	-17593
▁레파	-17594
▁로군	-17595
▁로이	-17596
▁롤라	-17597
▁루미	-17598
▁루저	-17599
▁룻거	-17600
▁리다	-17601
▁리베	-17602
▁리본	-17603
▁리비	-17604
▁리수	-17605
▁리지	-17606
▁마들	-17607
▁마운	-17608
▁마자	-17609
▁마조	-17610
▁마중	-17611
▁마지	-17612
▁마직	-17613
▁마추	-17614
▁마타	-17615
▁막강	-17616
▁막지	-17617
▁만감	-17618
▁만일	-17619
▁만치	-17620
▁말렸	-17621
▁말릴	-17622
▁맛나	-17623
▁맛없	-17624
▁망고	-17625
▁망토	-17626
▁매매	-17627
▁매스	-17628
▁맥가	-17629
▁맨홀	-17630
▁맺히	-17631
▁머드	-17632
▁먹힐	-17633
▁멋질	-17634
▁멍한	-17635
▁메말	-17636
▁메세	-17637
▁메우	-17638
▁메탈	-17639
▁명관	-17640
▁명대	-17641
▁명랑	-17642
▁모는	-17643
▁모셔	-17644
▁몰이	-17645
▁몸짱	-17646
▁못됨	-17647
▁무개	-17648
▁무궁	-17649
▁무마	-17650
▁무세	-17651
▁무안	-17652
▁무찌	-17653
▁문도	-17654
▁문예	-17655
▁물감	-17656
▁뭔진	-17657
▁미들	-17658
▁미디	-17659
▁미란	-17660
▁미약	-17661
▁미웠	-17662
▁미진	-17663
▁미티	-17664
▁미필	-17665
▁밀린	-17666
▁밋지	-17667
▁바요	-17668
▁바질	-17669
▁바짝	-17670
▁바흐	-17671
▁박멸	-17672
▁박봄	-17673
▁박원	-17674
▁박주	-17675
▁반박	-17676
▁반사	-17677
▁반칙	-17678
▁반할	-17679
▁발목	-17680
▁밤바	-17681
▁방구	-17682
▁방언	-17683
▁방위	-17684
▁방자	-17685
▁방정	-17686
▁방조	-17687
▁방탄	-17688
▁배수	-17689
▁배웁	-17690
▁배포	-17691
▁배합	-17692
▁백지	-17693
▁뱃속	-17694
▁뱅뱅	-17695
▁버마	-17696
▁버지	-17697
▁버틴	-17698
▁벌렁	-17699
▁벌린	-17700
▁벌목	-17701
▁벌여	-17702
▁베닝	-17703
▁베베	-17704
▁벤에	-17705
▁벼랑	-17706
▁변강	-17707
▁변주	-17708
▁변형	-17709
▁병폐	-17710
▁보노	-17711
▁보는	-17712
▁보우	-17713
▁복도	-17714
▁본데	-17715
▁본부	-17716
▁본업	-17717
▁봉원	-17718
▁부릴	-17719
▁부술	-17720
▁북경	-17721
▁분별	-17722
▁분출	-17723
▁분통	-17724
▁불끈	-17725
▁불변	-17726
▁불순	-17727
▁붕대	-17728
▁붕붕	-17729
▁붕어	-17730
▁붙일	-17731
▁브렌	-17732
▁비드	-17733
▁비루	-17734
▁비빔	-17735
▁비안	-17736
▁비엘	-17737
▁비전	-17738
▁비친	-17739
▁빅풋	-17740
▁빈번	-17741
▁빙글	-17742
▁빛난	-17743
▁빛날	-17744
▁빠라	-17745
▁뺏긴	-17746
▁뻐기	-17747
▁뿌렸	-17748
▁쁘게	-17749
▁쁨이	-17750
▁사격	-17751
▁사만	-17752
▁사역	-17753
▁사인	-17754
▁살상	-17755
▁살포	-17756
▁삼키	-17757
▁상쇄	-17758
▁상열	-17759
▁상해	-17760
▁상효	-17761
▁새우	-17762
▁색체	-17763
▁샘솟	-17764
▁생과	-17765
▁생로	-17766
▁생리	-17767
▁샤아	-17768
▁서럽	-17769
▁서린	-17770
▁서적	-17771
▁서퍼	-17772
▁서핑	-17773
▁선지	-17774
▁선행	-17775
▁선화	-17776
▁설렁	-17777
▁설렌	-17778
▁설렐	-17779
▁설움	-17780
▁설익	-17781
▁설킨	-17782
▁섬터	-17783
▁성관	-17784
▁성도	-17785
▁성립	-17786
▁성사	-17787
▁성찬	-17788
▁성탄	-17789
▁세삼	-17790
▁세익	-17791
▁세주	-17792
▁센티	-17793
▁셀린	-17794
▁셔터	-17795
▁셰프	-17796
▁소드	-17797
▁소령	-17798
▁소카	-17799
▁소풍	-17800
▁소행	-17801
▁속내	-17802
▁속일	-17803
▁손님	-17804
▁손쉽	-17805
▁송창	-17806
▁송하	-17807
▁쇼트	-17808
▁쇼파	-17809
▁수난	-17810
▁수련	-17811
▁수명	-17812
▁수연	-17813
▁수장	-17814
▁수컷	-17815
▁수화	-17816
▁숙희	-17817
▁순교	-17818
▁순응	-17819
▁쉐리	-17820
▁쉬울	-17821
▁스럼	-17822
▁스로	-17823
▁스윙	-17824
▁슬로	-17825
▁승려	-17826
▁시녀	-17827
▁시놉	-17828
▁시댁	-17829
▁시라	-17830
▁시력	-17831
▁시지	-17832
▁시탈	-17833
▁시프	-17834
▁식품	-17835
▁신곡	-17836
▁신구	-17837
▁신병	-17838
▁신설	-17839
▁신시	-17840
▁실검	-17841
▁실속	-17842
▁실신	-17843
▁실어	-17844
▁실전	-17845
▁실황	-17846
▁심령	-17847
▁심영	-17848
▁싱거	-17849
▁싱그	-17850
▁쌈빡	-17851
▁썩소	-17852
▁썼었	-17853
▁쑤셔	-17854
▁쓰려	-17855
▁쓰일	-17856
▁씌우	-17857
▁아낄	-17858
▁아델	-17859
▁아드	-17860
▁아영	-17861
▁아워	-17862
▁아작	-17863
▁아쿠	-17864
▁아퍼	-17865
▁악물	-17866
▁악취	-17867
▁악하	-17868
▁안드	-17869
▁안락	-17870
▁안양	-17871
▁안주	-17872
▁알량	-17873
▁알렸	-17874
▁알지	-17875
▁알츠	-17876
▁알프	-17877
▁압력	-17878
▁애원	-17879
▁애타	-17880
▁액트	-17881
▁야밤	-17882
▁야스	-17883
▁약탈	-17884
▁양복	-17885
▁양아	-17886
▁양양	-17887
▁양연	-17888
▁양지	-17889
▁양호	-17890
▁양화	-17891
▁어김	-17892
▁어는	-17893
▁어질	-17894
▁언덕	-17895
▁언데	-17896
▁얼리	-17897
▁엄다	-17898
▁엄연	-17899
▁업고	-17900
▁엇지	-17901
▁었잖	-17902
▁엉켜	-17903
▁에구	-17904
▁에너	-17905
▁에덴	-17906
▁에미	-17907
▁에버	-17908
▁엘르	-17909
▁엠씨	-17910
▁여겼	-17911
▁여직	-17912
▁역이	-17913
▁연급	-17914
▁연두	-17915
▁연세	-17916
▁연씨	-17917
▁연줄	-17918
▁연휴	-17919
▁열기	-17920
▁열렬	-17921
▁열전	-17922
▁염색	-17923
▁영민	-17924
▁영희	-17925
▁예선	-17926
▁예여	-17927
▁예용	-17928
▁오노	-17929
▁오롯	-17930
▁오세	-17931
▁오스	-17932
▁오싱	-17933
▁오역	-17934
▁오자	-17935
▁오차	-17936
▁오크	-17937
▁옥수	-17938
▁온도	-17939
▁온파	-17940
▁올래	-17941
▁완료	-17942
▁완치	-17943
▁왔다	-17944
▁왕성	-17945
▁왕좌	-17946
▁외교	-17947
▁요건	-17948
▁요동	-17949
▁요요	-17950
▁요절	-17951
▁요코	-17952
▁요하	-17953
▁욕실	-17954
▁용돈	-17955
▁용석	-17956
▁용암	-17957
▁용형	-17958
▁우도	-17959
▁우로	-17960
▁우위	-17961
▁우체	-17962
▁우치	-17963
▁우화	-17964
▁우회	-17965
▁우후	-17966
▁워너	-17967
▁워즈	-17968
▁워치	-17969
▁원년	-17970
▁웜홀	-17971
▁웠다	-17972
▁웨버	-17973
▁위크	-17974
▁윈터	-17975
▁유건	-17976
▁유망	-17977
▁유미	-17978
▁유성	-17979
▁유영	-17980
▁유정	-17981
▁유출	-17982
▁유통	-17983
▁유혈	-17984
▁육식	-17985
▁윤도	-17986
▁윤석	-17987
▁은교	-17988
▁은총	-17989
▁을가	-17990
▁을께	-17991
▁음다	-17992
▁음탕	-17993
▁의무	-17994
▁이군	-17995
▁이달	-17996
▁이도	-17997
▁이롭	-17998
▁이를	-17999
▁이무	-18000
▁이언	-18001
▁이타	-18002
▁이토	-18003
▁이티	-18004
▁인거	-18005
▁인다	-18006
▁인수	-18007
▁인줄	-18008
▁인턴	-18009
▁인화	-18010
▁일급	-18011
▁일시	-18012
▁일인	-18013
▁임정	-18014
▁입사	-18015
▁입학	-18016
▁입혀	-18017
▁잊히	-18018
▁자른	-18019
▁자문	-18020
▁자애	-18021
▁자의	-18022
▁자작	-18023
▁자처	-18024
▁잠식	-18025
▁잠잤	-18026
▁잡치	-18027
▁잡혔	-18028
▁장갑	-18029
▁장마	-18030
▁장생	-18031
▁장창	-18032
▁장희	-18033
▁재모	-18034
▁재우	-18035
▁재팬	-18036
▁재하	-18037
▁저널	-18038
▁저릿	-18039
▁저해	-18040
▁적인	-18041
▁적자	-18042
▁전결	-18043
▁전남	-18044
▁전면	-18045
▁전멸	-18046
▁전선	-18047
▁전소	-18048
▁전위	-18049
▁전장	-18050
▁전함	-18051
▁전향	-18052
▁접목	-18053
▁정독	-18054
▁정호	-18055
▁제스	-18056
▁조권	-18057
▁조르	-18058
▁조반	-18059
▁조소	-18060
▁조윤	-18061
▁종반	-18062
▁종석	-18063
▁종착	-18064
▁주무	-18065
▁주범	-18066
▁주소	-18067
▁주심	-18068
▁주영	-18069
▁주정	-18070
▁주현	-18071
▁준이	-18072
▁준지	-18073
▁줄려	-18074
▁중시	-18075
▁쥐똥	-18076
▁증가	-18077
▁증발	-18078
▁지냈	-18079
▁지녔	-18080
▁지노	-18081
▁지려	-18082
▁지면	-18083
▁지목	-18084
▁지엽	-18085
▁지영	-18086
▁지움	-18087
▁지은	-18088
▁지젤	-18089
▁지켰	-18090
▁직후	-18091
▁진경	-18092
▁진술	-18093
▁진압	-18094
▁집행	-18095
▁짜라	-18096
▁짜르	-18097
▁쪄요	-18098
▁쪼개	-18099
▁쪽지	-18100
▁찌릿	-18101
▁찔렸	-18102
▁찢겨	-18103
▁차가	-18104
▁착했	-18105
▁찬물	-18106
▁찬열	-18107
▁찰떡	-18108
▁창대	-18109
▁채닝	-18110
▁책상	-18111
▁처량	-18112
▁처자	-18113
▁처하	-18114
▁척도	-18115
▁천배	-18116
▁철도	-18117
▁청량	-18118
▁청리	-18119
▁쳐야	-18120
▁쳐준	-18121
▁초난	-18122
▁초속	-18123
▁초초	-18124
▁총성	-18125
▁총점	-18126
▁최적	-18127
▁쵝도	-18128
▁추앙	-18129
▁추진	-18130
▁추해	-18131
▁충고	-18132
▁취할	-18133
▁츠카	-18134
▁치루	-18135
▁치뤄	-18136
▁치만	-18137
▁치여	-18138
▁친목	-18139
▁친분	-18140
▁친하	-18141
▁카를	-18142
▁카미	-18143
▁카악	-18144
▁카제	-18145
▁카즈	-18146
▁칼날	-18147
▁케르	-18148
▁케익	-18149
▁코마	-18150
▁코어	-18151
▁콘돔	-18152
▁콧방	-18153
▁쿠르	-18154
▁쿵후	-18155
▁킁킁	-18156
▁키가	-18157
▁키즈	-18158
▁키치	-18159
▁타국	-18160
▁탈모	-18161
▁탈영	-18162
▁태연	-18163
▁태조	-18164
▁태종	-18165
▁터쳐	-18166
▁털린	-18167
▁텔레	-18168
▁토론	-18169
▁토지	-18170
▁토투	-18171
▁톤즈	-18172
▁톱니	-18173
▁통치	-18174
▁통키	-18175
▁퇴근	-18176
▁퇴치	-18177
▁투덜	-18178
▁투리	-18179
▁투비	-18180
▁튀겨	-18181
▁틀려	-18182
▁틸러	-18183
▁팀장	-18184
▁파급	-18185
▁파닥	-18186
▁파쇼	-18187
▁파오	-18188
▁팔자	-18189
▁패럴	-18190
▁패티	-18191
▁팽배	-18192
▁퍼졌	-18193
▁페로	-18194
▁페임	-18195
▁편들	-18196
▁편인	-18197
▁편할	-18198
▁평양	-18199
▁평한	-18200
▁폐기	-18201
▁폐륜	-18202
▁폐하	-18203
▁포머	-18204
▁포식	-18205
▁포착	-18206
▁포카	-18207
▁폭군	-18208
▁폭죽	-18209
▁폭포	-18210
▁표시	-18211
▁표적	-18212
▁푸욱	-18213
▁푹푹	-18214
▁풍겨	-18215
▁풍만	-18216
▁프랜	-18217
▁피나	-18218
▁피워	-18219
▁피파	-18220
▁피한	-18221
▁필터	-18222
▁하단	-18223
▁하일	-18224
▁하쿠	-18225
▁학력	-18226
▁한단	-18227
▁한스	-18228
▁한자	-18229
▁한화	-18230
▁할껄	-18231
▁할망	-18232
▁함몰	-18233
▁합류	-18234
▁합시	-18235
▁항공	-18236
▁항마	-18237
▁해대	-18238
▁해법	-18239
▁해용	-18240
▁해유	-18241
▁해치	-18242
▁핵폐	-18243
▁행각	-18244
▁행여	-18245
▁행하	-18246
▁허당	-18247
▁허물	-18248
▁허벅	-18249
▁허큘	-18250
▁허하	-18251
▁헌법	-18252
▁헐헐	-18253
▁헤집	-18254
▁헤픈	-18255
▁혀서	-18256
▁현역	-18257
▁현정	-18258
▁현충	-18259
▁현태	-18260
▁협력	-18261
▁혜교	-18262
▁호킹	-18263
▁호프	-18264
▁혼내	-18265
▁홀릭	-18266
▁홍대	-18267
▁화두	-18268
▁화물	-18269
▁화상	-18270
▁화염	-18271
▁화피	-18272
▁화학	-18273
▁확연	-18274
▁확확	-18275
▁활발	-18276
▁활활	-18277
▁황량	-18278
▁황새	-18279
▁회가	-18280
▁회식	-18281
▁횡재	-18282
▁후원	-18283
▁후작	-18284
▁훈장	-18285
▁휙휙	-18286
▁휴전	-18287
▁흉터	-18288
▁흡수	-18289
▁흥얼	-18290
▁희화	-18291
▁힌트	-18292
▁힐즈	-18293
▁힘주	-18294
구무언	-18295
네이도	-18296
다이스	-18297
드래곤	-18298
드레아	-18299
드리안	-18300
듭니다	-18301
라리스	-18302
라이즌	-18303
로니카	-18304
로이드	-18305
루지기	-18306
마스톤	-18307
말라야	-18308
미나티	-18309
바스찬	-18310
스탄틴	-18311
스턴트	-18312
스트리	-18313
시라무	-18314
어데블	-18315
에반스	-18316
으므로	-18317
이라인	-18318
이즈미	-18319
잖아요	-18320
코리아	-18321
!?!?	-18322
ance	-18323
body	-18324
dddd	-18325
ffff	-18326
gain	-18327
hhhh	-18328
iver	-18329
oood	-18330
ouch	-18331
rist	-18332
upid	-18333
▁!!.	-18334
▁102	-18335
▁250	-18336
▁350	-18337
▁518	-18338
▁?;;	-18339
▁All	-18340
▁Don	-18341
▁Ebs	-18342
▁For	-18343
▁JYP	-18344
▁Ocn	-18345
▁One	-18346
▁TVA	-18347
▁UFO	-18348
▁Why	-18349
▁Wor	-18350
▁csi	-18351
▁ero	-18352
▁get	-18353
▁gta	-18354
▁her	-18355
▁jyj	-18356
▁min	-18357
▁net	-18358
▁rec	-18359
▁tvn	-18360
▁war	-18361
▁가려서	-18362
▁가벼우	-18363
▁가스펠	-18364
▁가위질	-18365
▁가져라	-18366
▁가져온	-18367
▁가져요	-18368
▁가창력	-18369
▁가타카	-18370
▁각거리	-18371
▁각선미	-18372
▁각시탈	-18373
▁간다면	-18374
▁감상문	-18375
▁값어치	-18376
▁갔으면	-18377
▁강간범	-18378
▁강심장	-18379
▁갖가지	-18380
▁갖춰진	-18381
▁개간지	-18382
▁개살구	-18383
▁개소문	-18384
▁거슬린	-18385
▁건축가	-18386
▁걸쳐서	-18387
▁게이버	-18388
▁겨워서	-18389
▁겹쳐지	-18390
▁고구려	-18391
▁고구마	-18392
▁고달프	-18393
▁고독감	-18394
▁고천락	-18395
▁고쳐라	-18396
▁곡괭이	-18397
▁골수팬	-18398
▁곰곰히	-18399
▁공모자	-18400
▁곽도원	-18401
▁곽재용	-18402
▁관리자	-18403
▁광해군	-18404
▁괜찬고	-18405
▁괜찬았	-18406
▁괜춘한	-18407
▁구더기	-18408
▁구성원	-18409
▁구세주	-18410
▁그라피	-18411
▁그려서	-18412
▁그린다	-18413
▁그만둬	-18414
▁극소수	-18415
▁극영화	-18416
▁근육질	-18417
▁기관총	-18418
▁기꺼이	-18419
▁기요시	-18420
▁김광석	-18421
▁김기범	-18422
▁김보연	-18423
▁김슬기	-18424
▁김원희	-18425
▁김지현	-18426
▁김한민	-18427
▁꼴려서	-18428
▁꾸며낸	-18429
▁끼어들	-18430
▁끼쳐서	-18431
▁나란히	-18432
▁나문희	-18433
▁나빠지	-18434
▁나빠진	-18435
▁나아요	-18436
▁나올지	-18437
▁나인데	-18438
▁나카마	-18439
▁나타날	-18440
▁낙제점	-18441
▁날까봐	-18442
▁날린다	-18443
▁남규리	-18444
▁남기남	-18445
▁낮춰서	-18446
▁내셔널	-18447
▁냐구요	-18448
▁넘어섰	-18449
▁노라면	-18450
▁노팅힐	-18451
▁농구공	-18452
▁놨는데	-18453
▁눈꺼풀	-18454
▁뉴하트	-18455
▁느껴서	-18456
▁는지요	-18457
▁닌텐도	-18458
▁다녀라	-18459
▁다니요	-18460
▁다르덴	-18461
▁다르크	-18462
▁다문화	-18463
▁다분히	-18464
▁다빈치	-18465
▁다쳐서	-18466
▁단숨에	-18467
▁달라붙	-18468
▁달라요	-18469
▁달려야	-18470
▁답답이	-18471
▁대대로	-18472
▁대사도	-18473
▁대종상	-18474
▁더럽히	-18475
▁더없이	-18476
▁더우먼	-18477
▁더욱이	-18478
▁던가요	-18479
▁던스트	-18480
▁데미안	-18481
▁도망자	-18482
▁돌이킬	-18483
▁동물원	-18484
▁동호회	-18485
▁돼버린	-18486
▁되풀이	-18487
▁됫으면	-18488
▁두드리	-18489
▁두려울	-18490
▁두리번	-18491
▁둘러싸	-18492
▁뒷받침	-18493
▁들려서	-18494
▁디센트	-18495
▁떡하니	-18496
▁뛰어가	-18497
▁뛰어남	-18498
▁뜨거웠	-18499
▁뜨레기	-18500
▁뜻대로	-18501
▁라미란	-18502
▁레너드	-18503
▁레이로	-18504
▁레이지	-18505
▁로구나	-18506
▁로보트	-18507
▁로페즈	-18508
▁롤랜드	-18509
▁루퍼스	-18510
▁뤽베송	-18511
▁류수영	-18512
▁리만치	-18513
▁리스크	-18514
▁리오타	-18515
▁마테오	-18516
▁마파도	-18517
▁만델라	-18518
▁말장난	-18519
▁망쳐도	-18520
▁맞춰야	-18521
▁맞춰진	-18522
▁매머드	-18523
▁맥베스	-18524
▁맹승지	-18525
▁머나먼	-18526
▁머물러	-18527
▁먹잇감	-18528
▁메리다	-18529
▁메이슨	-18530
▁메이트	-18531
▁메타포	-18532
▁메트로	-18533
▁멜로라	-18534
▁면서도	-18535
▁모아놨	-18536
▁몰려왔	-18537
▁몰상식	-18538
▁무거움	-18539
▁무너져	-18540
▁무더운	-18541
▁무소유	-18542
▁문제지	-18543
▁묻어난	-18544
▁므파탈	-18545
▁미도리	-18546
▁미소녀	-18547
▁미친년	-18548
▁미친놈	-18549
▁민효린	-18550
▁밀려서	-18551
▁바꾼다	-18552
▁바이올	-18553
▁박건형	-18554
▁박영선	-18555
▁박영진	-18556
▁박준규	-18557
▁반세기	-18558
▁반역자	-18559
▁반정부	-18560
▁반짝이	-18561
▁반항아	-18562
▁발가벗	-18563
▁발걸음	-18564
▁발한다	-18565
▁밝혀질	-18566
▁방구석	-18567
▁버무리	-18568
▁벌거벗	-18569
▁베껴서	-18570
▁베이브	-18571
▁변호인	-18572
▁보라색	-18573
▁보여야	-18574
▁보일까	-18575
▁복수심	-18576
▁볼래요	-18577
▁봉만대	-18578
▁부적응	-18579
▁부지런	-18580
▁부탁드	-18581
▁부턴가	-18582
▁부풀린	-18583
▁불러온	-18584
▁불명확	-18585
▁불쾌감	-18586
▁브레인	-18587
▁브로큰	-18588
▁블란쳇	-18589
▁블랑쉐	-18590
▁비키니	-18591
▁비행선	-18592
▁빈민가	-18593
▁빈센트	-18594
▁빗나가	-18595
▁빠뜨리	-18596
▁빠져본	-18597
▁빡빡이	-18598
▁빨아먹	-18599
▁빼어나	-18600
▁뻐꾸기	-18601
▁쁘네요	-18602
▁쁩니다	-18603
▁사모님	-18604
▁사사키	-18605
▁사실상	-18606
▁사이렌	-18607
▁사이즈	-18608
▁살려냈	-18609
▁살아라	-18610
▁삼겹살	-18611
▁상당수	-18612
▁상반기	-18613
▁상해서	-18614
▁새엄마	-18615
▁샐러리	-18616
▁생겼었	-18617
▁생김새	-18618
▁생화학	-18619
▁서유리	-18620
▁서준영	-18621
▁선데이	-18622
▁설레발	-18623
▁성문화	-18624
▁성지루	-18625
▁성희롱	-18626
▁세련되	-18627
▁세탁소	-18628
▁소년원	-18629
▁소세지	-18630
▁소용없	-18631
▁속여서	-18632
▁속한다	-18633
▁송종국	-18634
▁송해성	-18635
▁수류탄	-18636
▁수사대	-18637
▁스타킹	-18638
▁스탠드	-18639
▁스토어	-18640
▁스펀지	-18641
▁시덥잖	-18642
▁시상식	-18643
▁신가요	-18644
▁신뢰도	-18645
▁신이치	-18646
▁신주아	-18647
▁신중히	-18648
▁실시간	-18649
▁심리학	-18650
▁심지호	-18651
▁심한데	-18652
▁쌉싸름	-18653
▁써야지	-18654
▁쏟아졌	-18655
▁쏩니다	-18656
▁쓰다듬	-18657
▁쓰러졌	-18658
▁쓰여진	-18659
▁쓴다는	-18660
▁쓸려고	-18661
▁아니하	-18662
▁아드레	-18663
▁아들놈	-18664
▁아리랑	-18665
▁아스트	-18666
▁아테나	-18667
▁알아내	-18668
▁알아볼	-18669
▁압구정	-18670
▁어떻든	-18671
▁어버버	-18672
▁어비스	-18673
▁어어어	-18674
▁어울러	-18675
▁어웨이	-18676
▁어이구	-18677
▁억수로	-18678
▁얼빠진	-18679
▁엇갈린	-18680
▁에플렉	-18681
▁엔니오	-18682
▁여기자	-18683
▁여민정	-18684
▁역효과	-18685
▁연령층	-18686
▁연습생	-18687
▁였어요	-18688
▁였으니	-18689
▁영화당	-18690
▁오디오	-18691
▁오언조	-18692
▁오오미	-18693
▁오카다	-18694
▁오피스	-18695
▁오현경	-18696
▁오형제	-18697
▁옥소리	-18698
▁온다고	-18699
▁올려놓	-18700
▁올려서	-18701
▁옳바른	-18702
▁와르르	-18703
▁완득이	-18704
▁왕빛나	-18705
▁우들리	-18706
▁우월감	-18707
▁울랄라	-18708
▁울엄마	-18709
▁움직였	-18710
▁웃겨야	-18711
▁원더풀	-18712
▁원동력	-18713
▁월스트	-18714
▁위선자	-18715
▁유가족	-18716
▁유리창	-18717
▁유위강	-18718
▁유인원	-18719
▁윤소이	-18720
▁으이구	-18721
▁으하하	-18722
▁은지원	-18723
▁은희수	-18724
▁을려면	-18725
▁음식물	-18726
▁의구심	-18727
▁의문점	-18728
▁이규형	-18729
▁이대근	-18730
▁이름표	-18731
▁이수경	-18732
▁이어주	-18733
▁이영환	-18734
▁이장호	-18735
▁이재용	-18736
▁이종수	-18737
▁이지스	-18738
▁인간사	-18739
▁인민군	-18740
▁인생길	-18741
▁일가견	-18742
▁일깨우	-18743
▁일레븐	-18744
▁일자리	-18745
▁임재범	-18746
▁임진강	-18747
▁자부심	-18748
▁잔재미	-18749
▁잡니다	-18750
▁잡혀서	-18751
▁장관리	-18752
▁장서희	-18753
▁전미선	-18754
▁전영록	-18755
▁전주영	-18756
▁절망감	-18757
▁점쟁이	-18758
▁정신사	-18759
▁정운택	-18760
▁정치가	-18761
▁정해져	-18762
▁조도로	-18763
▁조성모	-18764
▁조세호	-18765
▁조수정	-18766
▁조여오	-18767
▁조은지	-18768
▁조직원	-18769
▁조페시	-18770
▁주둥이	-18771
▁주무시	-18772
▁주제가	-18773
▁주지사	-18774
▁죽여요	-18775
▁줄타기	-18776
▁줫는데	-18777
▁즐거우	-18778
▁증지위	-18779
▁지나칠	-18780
▁지난날	-18781
▁지난번	-18782
▁지름길	-18783
▁지으면	-18784
▁진가신	-18785
▁진다면	-18786
▁진중권	-18787
▁진혜림	-18788
▁진흙탕	-18789
▁짊어지	-18790
▁짝사랑	-18791
▁짱꼴라	-18792
▁쫒아가	-18793
▁쫓겨나	-18794
▁찢어진	-18795
▁차수연	-18796
▁차오르	-18797
▁찾아다	-18798
▁찾아와	-18799
▁청담동	-18800
▁쳐들어	-18801
▁초한지	-18802
▁총소리	-18803
▁촬영장	-18804
▁최고점	-18805
▁최성국	-18806
▁최신작	-18807
▁최여진	-18808
▁최첨단	-18809
▁최효종	-18810
▁쵝오의	-18811
▁춘향전	-18812
▁충청도	-18813
▁취해서	-18814
▁치우쳐	-18815
▁치히로	-18816
▁카날라	-18817
▁카운트	-18818
▁카이거	-18819
▁카이저	-18820
▁커져서	-18821
▁컨디션	-18822
▁케서린	-18823
▁케케묵	-18824
▁켄로치	-18825
▁코렐라	-18826
▁코만도	-18827
▁크나큰	-18828
▁크루거	-18829
▁클레어	-18830
▁킹스맨	-18831
▁타오르	-18832
▁테크노	-18833
▁토토로	-18834
▁투게더	-18835
▁트레스	-18836
▁트리플	-18837
▁트릭스	-18838
▁파스텔	-18839
▁파시즘	-18840
▁파운드	-18841
▁판단력	-18842
▁판박이	-18843
▁팩토리	-18844
▁팬클럽	-18845
▁퍼니셔	-18846
▁페어리	-18847
▁페킨파	-18848
▁페티쉬	-18849
▁폐기물	-18850
▁포장지	-18851
▁폭발력	-18852
▁폴란드	-18853
▁프랭코	-18854
▁플리즈	-18855
▁피날레	-18856
▁하와이	-18857
▁한국사	-18858
▁해결책	-18859
▁해봐라	-18860
▁행진곡	-18861
▁허준호	-18862
▁헤이글	-18863
▁헤이엑	-18864
▁헷갈렸	-18865
▁혐이다	-18866
▁호아킨	-18867
▁홍수아	-18868
▁홍수현	-18869
▁홍자매	-18870
▁황산벌	-18871
▁후려치	-18872
▁훼이크	-18873
[...]
